#version: 0.2
Ġ t
Ġ a
h e
i n
r e
Ġt he
0 0
o n
e r
Ġ s
Ġ w
a t
Ġ o
e n
Ġ c
i t
i s
a n
o r
Ġ b
e s
e d
Ġ f
in g
Ġ p
o u
Ġa n
a r
Ġt o
a l
Ġ m
Ġ in
Ġo f
00 00
Ġ d
Ġ h
a s
č Ċ
Ġan d
i c
Ġt h
l e
o m
i on
l l
en t
s t
Ġ n
Ġ l
Ġ re
v e
Ġ e
l y
Ġ g
Ġb e
r o
i d
Ġ T
a c
u t
. "
o t
Ġ I
Ġth at
Ġ on
Ġ S
a y
Ġ is
e t
i m
a d
a m
o w
i g
Ġf or
Ġ A
s e
v er
Ġ C
0000 0000
u r
c t
l d
Ġ u
Ġs t
Ġ y
Ġ it
Ġ he
Ġ M
i r
at ion
Ġw h
it h
c e
t er
o l
Ġw e
i l
Ġw ith
Ġ B
Ġa s
c h
i ll
n d
er s
Ġ P
Ġw as
Ġy ou
k e
Ġc on
t s
Ġd e
Ġ r
Ġ W
Ġ 1
i f
he r
Ġa t
at e
n t
a g
Ġ H
Ġh a
Ġs e
Ġ D
Ġp ro
o re
ĠT he
Ġ 2
u l
p p
m ent
Ġa re
r i
Ġ R
Ġc om
u s
o p
a in
u st
re s
an d
Ġ F
ig h
r om
es t
o d
Ġn e
a b
Ġ N
Ġe x
t h
u m
Ġn ot
Ġ v
o s
Ġo r
es s
is t
Ġha ve
Ġ G
ou ld
it y
e m
Ġb y
u n
Ġf rom
Ġa l
i ve
Ġ L
o c
e l
Ġs u
Ġs h
Ġth is
an t
q u
Ġ E
ar t
Ġ le
p e
or t
i es
Ġc h
en d
Ġs a
Ġa b
00000000 0000
ac k
al l
ou t
i e
Ġ J
re d
Ġh as
al ly
Ġp l
Ġ O
Ġg o
ar d
igh t
i v
Ġh is
om e
a p
o st
g h
Ġt r
e ar
ou r
Ġ j
T he
a k
Ġw or
u d
as t
Ġd o
Ġthe y
Ġb ut
Ġ U
Ġw ill
r ou
Ġw he
Ġsa id
g e
an s
Ġ k
ic h
Ġa ll
o k
0 1
f f
Ġwh o
id e
Ġin t
t her
Ġo ut
Ġc an
i al
am e
Ġthe ir
on g
e ct
Ġit s
p l
ic e
ion s
u re
Ġm ore
Ġwe re
e p
Ġu p
Ġm e
ag e
i ke
ou s
on e
Ġa d
in e
Ġab out
c c
at ed
ac t
Ġ K
Ġu s
b er
r a
o g
Ġs o
im e
Ġh ad
Ġon e
Ġwh ich
a re
Ġc l
Ġ im
Ġw ould
u b
p t
ĠT h
Ġcon t
in d
a ke
Ġa g
i z
ver y
u e
Ġt e
x t
Ġu n
Ġcom p
Ġof f
ĠS t
i a
Ġ en
Ġbe en
ay s
a u
ig n
s o
p er
ar y
i p
e re
Ġy ear
e w
Ġl ike
Ġin c
ac e
Ġe v
on t
o ok
Ġp e
Ġm an
Ġre s
r y
o se
Ġp er
ĠI n
Ġ 0
k s
ab le
Ġs p
it e
as s
or d
ation s
Ġo ther
i re
Ġ2 01
Ġs ome
m er
i b
i le
en ce
Ġ 3
Ġd is
Ġo ver
ic al
en s
Ġne w
Ġa r
res s
op le
Ġal so
Ġbe c
Ġth an
ow n
Ġ Y
Ġthe m
4 4
r u
Ġa pp
ou gh
an ce
a v
Ġyou r
Ġwhe n
Ġwh at
Ġs c
ĠC h
on d
a il
or m
f ter
Ġ qu
re e
as e
Ġj ust
Ġpe ople
Ġan y
ac h
Ġ V
Ġk n
Ġp art
Ġt ime
Ġhe r
ou nt
Ġ if
Ġre c
Ġm y
re at
Ġg et
l ic
i an
Ġthe re
or s
on s
Ġn o
Ġwor k
ing s
Ġt w
Ġint o
o in
ou nd
ir st
ve l
ct ion
d u
ul t
or y
Ġo ur
id ent
o b
ic k
it ion
at es
p ort
Ġ1 9
Ġpl ay
000000000000 1
Ġp re
o ve
an g
w n
in k
au se
ad e
is h
Ġ ro
Ġs he
ver s
Ġp ol
ar k
am p
e ll
it t
Ġa fter
Ġf irst
Ġc ould
Ġh ow
Ġa cc
i ous
Ġh im
000000000000 00
nd er
o ll
a w
6 44
i ld
Ġon ly
e c
ust ar
Ġ 00000000000000
Ġat t
ĠH e
t xt
he d
Ġp r
o v
0000 644
0000644 00000000
y s
Ġs pe
Ġcom m
Ġb l
h ing
Ġ 4
Ġa ct
Ġs er
f orm
ic t
ĠI t
c es
Ġde c
Ġbe t
n e
Ġb ack
Ġ 5
Ġtw o
n ing
Ġm ost
f t
o od
Ġa m
Ġf e
Ġd id
if f
Ġag ain
at er
rou nd
rou gh
Ġyear s
ment s
Ġd es
ent s
Ġu nder
u al
Ġcon s
Ġbec ause
Ġn ow
u ll
o ld
is e
r it
se l
. .
l ud
Ġse e
Ġev en
c k
Ġne ed
ub lic
ter n
is s
w e
Ġin v
t e
Ġkn ow
Ġe m
Ġin d
c ed
Ġad d
ĠW e
l es
Ġse c
o y
Ġe very
ur n
f ore
Ġc o
Ġsu pp
Ġm ake
ĠU n
m an
u ch
pe ct
Ġthe se
d ay
ĠA nd
Ġwhe re
oc k
j ect
ou n
ver n
ation al
ĠB ut
Ġb u
Ġl ook
Ġw ant
os s
at ing
Ġw ay
Ġwe ll
Ġre m
ĠTh is
ĠW h
Ġinc lud
Ġm ay
Ġbe ing
um p
000064400000000 000000000000
Ġde f
ro w
Ġthe n
Ġman y
i ly
le ct
Ġre l
ĠT r
Ġd iff
Ġc all
Ġim p
ie w
Ġth ink
i ed
I n
as ed
Ġre g
mer ic
as on
ak ing
Ġ2 00
Ġf l
Ġ very
at h
Ġth rough
al s
Ġsh ould
Ġp res
it ed
re n
Ġs y
Ġs ay
ri b
Ġth ose
Ġl ast
ur ing
ter s
Ġm uch
Ġsh ow
r an
Ġ 6
t ing
it ies
ot h
if ic
ar g
ot her
s s
e f
ow er
at ive
he n
ic s
0000000000001 5
Ġp h
v ed
u es
Ġas s
Ġd own
Ġdo es
ar ly
Ġ end
Ġbe l
Ġo wn
t y
Ġu se
ĠA meric
u nd
Ġd ont
Ġl ong
Ġbe fore
Ġb r
w ard
Ġc ount
Ġgo vern
Ġst ate
Ġm on
om et
in ce
Ġ ke
ĠN ew
ib le
T h
Ġf in
g r
0 2
Ġte am
u p
at s
Ġm ade
Ġsu ch
e e
m s
ol og
b le
Ġs m
et s
is ts
en er
Ġgo od
00 0
Ġre p
t on
Ġgo ing
Ġhe l
Ġwor ld
ar s
il ity
it s
Ġa c
Ġst ud
i x
u ally
if e
Ġsu b
Ġp oin
Ġs ur
t ain
Ġagain st
Ġe ff
v en
Ġwe e
Ġst art
ĠI m
ers on
n g
f ul
Ġ ent
Ġm in
st em
Ġ 7
Ġst ill
g an
Ġwh ile
o ol
Ġhel p
Ġg ame
Ġle ad
Ġr ight
Ġo b
i er
Ġg u
rou p
or k
Ġpro du
ill ion
we en
v ing
is m
im es
a x
Ġin st
am es
0 3
Ġin ter
Ġcon f
and s
al k
Ġs im
Ġs ays
an ge
Ġth ough
he s
Ġc ol
Ġt ake
Ġs et
u res
ĠR e
Ġg r
us s
sel f
Ġdis c
c y
Ġbet ween
Ġoff ic
Ġo p
Ġdiff ere
Ġpro v
oll ow
Ġs ign
a h
Ġ ed
e ver
ar ch
c ess
Ġc r
Ġn um
Ġl aw
ut ion
i o
l ed
ĠY ou
Ġst r
Ġre f
re ad
Ġh igh
a ir
g g
Ġt er
Ġs omet
Ġs ame
h ip
Ġin s
Ġtr ans
Ġ 8
at ch
Ġex p
ĠA l
w ay
vel op
n er
iv es
ĠA r
Ġre al
c ent
Ġf ound
Ġr un
ĠThe y
Ġa round
Ġm ed
Ġm em
Ġre port
Ġ1 0
at her
l in
Ġus ed
Ġm od
Ġsy stem
a ve
v es
Ġre ally
a z
ou se
o ot
Ġspe c
Ġgovern ment
Ġc our
Ġre t
Ġ 9
Ġg roup
Ġp ublic
Ġs l
y ing
ĠI s
Ġhe re
Ġg reat
Ġcomp an
in s
c er
ĠC om
Ġex t
0 5
Ġth ree
c i
Ġc ur
0 4
or ts
ĠA s
Ġc ar
en se
al e
Ġf am
Ġb oth
Ġw om
c on
Ġex per
c om
ire ct
Ġc ap
ce pt
ĠS h
Ġha pp
Ġre ad
ĠTr ump
ic es
1 1
Ġf ind
al th
ĠI f
Ġd et
p h
ul ar
ĠI ts
Ġsupp ort
o h
ut h
Ġd ay
t ed
Ġd uring
Ġc re
r ic
Ġb ig
ak es
Ġde velop
an k
Ġs oc
ĠL e
e red
Ġs ince
m in
Ġmon th
Ġis s
i vers
Ġf ollow
Ġto ld
l and
Ġw ar
is ion
Ġpl an
a red
p r
ag es
Ġle g
Ġpol it
Ġb o
Ġf ew
0 6
ic ally
Ġc ent
Ġp erson
ord ing
v ent
Ġ .
Ġex pl
m ed
a j
at t
Ġf act
as h
0 7
Ġg ener
b ers
Ġto o
Ġo pp
Ġf r
Ġbel ie
Ġl ot
Ġpro t
Ġcont in
g et
Ġre qu
Ġwee k
Ġc le
Ġf il
i et
Ġin f
Ġc or
Ġres p
Ġp ut
d er
iz ed
Ġan other
Ġc he
Ġsomet hing
n ess
ĠD e
Ġl oc
re nt
ch ool
Ġdiffere nt
u c
in es
Ġar t
ĠF or
1 2
at a
Ġch ar
Ġcomm un
Ġinv est
Ġhe ad
Ġp ower
Ġp ass
Ġm et
igh ts
ut e
Ġf ar
Ġp oss
Ġre le
Ġth ings
e x
Ġv ot
i ence
4 7
i k
n ed
Ġde p
el s
ere st
Ġas k
Ġc amp
th ing
ar l
Ġe ach
Ġne ver
Ġsec ond
ro ss
Ġne xt
Ġm ight
Ġm ark
Ġde m
Ġg ot
Ġch ild
Ġb us
ĠU S
ie ld
v iew
Ġl ife
Ġb est
iz e
in ess
Ġcom e
ĠP ro
od y
i ent
Ġqu est
b e
Ġall ow
Ġop en
it al
itt le
Ġse em
Ġp ost
Ġp ri
Ġinclud ing
n ce
re t
ĠA n
Ġw r
Ġd irect
Ġper cent
Ġd ist
ĠR ep
ĠB l
Ġinc re
Ġh ome
or n
gr am
Ġcont ro
i red
t en
Ġh and
1 5
Ġcomp le
Ġh ard
u g
os ed
Ġh um
Ġc are
Ġwith out
con om
Ġa v
ch n
er v
ate ly
Ġpl ace
p le
Ġg l
Ġin form
Ġpro ble
an ts
Ġ1 2
Ġ ide
Ġm illion
l ess
Ġbu ild
l ing
Ġad v
Ġnum ber
Ġcount ry
Ġim port
Ġpart ic
g y
1 3
Ġto p
Ġf our
a im
Ġe l
r al
is hed
ab ly
Ġbet ter
one y
ri end
w ays
u ro
W h
ain s
Ġt ri
Ġrec ent
Ġt urn
Ġm ov
Ġint erest
Ġl ittle
Ġapp ro
Ġ Z
d d
Ġl ess
Ġbe h
Ġcall ed
Ġb ro
e ad
Ġm il
e b
Ġpoin t
Th is
Ġle ft
ĠI nd
Ġc ase
Ġatt ack
Ġp op
is ed
Ġd r
Ġse ason
Ġre st
Ġm ove
l ine
Ġf ull
Ġke ep
ĠS o
Ġan n
oc r
Ġdid nt
Ġf un
0 9
1 6
an c
Ġm ain
er ing
Ġus ing
r ation
2 5
Ġser v
Ġv al
aj or
Ġeff ect
Ġp ay
le g
a f
4 6
in al
Ġ1 8
en cy
ĠA t
Ġfe el
Ġpro gram
1 7
Ġe conom
Ġfor m
ard s
ĠP h
0 8
a pp
ĠS p
Ġp os
ĠAmeric an
at ure
Ġnew s
v ious
Ġw in
c l
od e
Ġpol ice
at ic
Ġ1 5
Ġle vel
i ans
re m
Ġsm all
Ġl ist
ĠH ow
ion al
Ġd ata
4 5
iv ing
Ġe as
id ed
Ġst and
read y
Ġs chool
Ġpro cess
u ck
Ġch ange
olog y
Ġp rom
Ġh ist
ir d
Ġ ,
Ġ Q
Ġt y
ar ge
Ġd ri
Ġre ce
g er
Ġcur rent
Ġu nt
pl oy
Ġpres ident
am a
B ut
ĠO b
Ġp ar
us ed
re en
r act
Ġwh y
Ġal ready
Ġb re
ĠUn ited
2 2
oh n
or th
A s
9 9
ru ct
Ġl ater
Ġs ol
Ġle t
Ġte chn
Ġex pect
ĠThe re
Ġm at
Ġoffic ial
Ġthat s
Ġal ways
Ġbus iness
? "
Ġm oney
Ġpro f
i ver
Ġcl ass
Ġpro ject
Ġb ook
Ġj ob
a ff
r ap
Ġt alk
as es
W e
s on
Ġ i
a ign
Ġor gan
ĠC an
Ġcl aim
Ġth ing
ĠCh r
Ġdes ign
Ġhe alth
in a
ivers ity
Ġm ajor
Ġch ang
ur s
ent ion
Ġst ory
ĠS he
Ġab le
Ġre se
Ġinform ation
er tain
iv en
he re
Ġp ast
Ġv is
Ġe le
3 3
Ġm ust
Ġ2 0
Ġc ity
Ġf ac
Ġo per
Ġa way
Ġf ree
Ġk ill
Ġs k
Ġimport ant
ĠG o
at or
id es
Ġo ld
w it
amp le
ur al
I t
Ġp at
u red
i or
Ġdoes nt
Ġhapp en
ot t
o x
ou th
Ġg row
Ġc ost
Ġ est
Ġle ast
Ġd ays
ain ed
Ġh op
Ġt est
Ġv ar
id er
Ġte ll
end ing
.. .
ĠB e
Ġwom en
st and
ur ity
ac y
Ġc ame
Ġed it
uth or
Ġcon st
Ġa ff
ur y
Ġcamp aign
iss ion
ĠM ar
Ġs it
Ġen ough
r on
Ġm aking
Ġm ar
Ġf riend
Ġv iew
pt ion
res ident
Ġrec ord
cc ess
Ġe lect
Ġk ind
er n
Ġfam ily
3 5
Ġt ax
Ġpolit ical
Ġpol ic
ĠC l
Ġg ames
iv ed
ĠCom m
Ġ es
er al
o ad
r id
ĠJ ohn
Ġunt il
Ġv ide
Ġcompan y
ĠS c
Ġp o
pp ed
us h
2 6
Ġwork ing
1 4
is ing
if ied
b s
ĠA ll
Ġ ve
in t
ri es
Ġde b
Ġde al
al ity
Ġm en
Ġf ore
Ġl arge
ĠRep ublic
al f
r or
Ġto ok
au gh
ap s
Ġin tern
1 9
ĠP l
2 7
Ġl ine
u ed
re am
Ġyou re
ĠM an
ĠTh at
Ġde l
H e
Ġme an
Ġact ually
ain ing
Ġbec ome
s ide
Ġa ir
Ġfor mer
1 8
on es
Ġof ten
Ġhum an
i ol
ĠE uro
c rib
Ġf und
Ġacc ording
em ber
ĠR uss
i qu
en g
Ġg ive
ĠD em
Ġwor d
ĠN o
Ġb as
Ġe ver
ne y
Ġde v
Ġret urn
Ġn ame
le y
w are
Ġt imes
ar ing
Ġplay ers
is ter
Ġb it
on y
g in
Ġor der
Ġse ver
ĠS y
ĠM c
3 6
ar n
S t
E R
le t
i ber
it her
Ġan t
Ġper form
ĠM ay
y ear
Ġc ant
ut ure
is on
Ġchar ac
Ġmark et
Ġdo ing
iz ation
Ġsoc ial
ĠC on
3 7
Ġs ing
Ġapp ear
Ġr a
ot s
c hed
b y
i am
Ġc rit
Ġe arly
ak en
m ost
id d
Ġha ving
ic le
ĠP resident
Ġse en
Ġwhe ther
Ġl a
ĠW hen
ĠS e
m ber
Ġsever al
Ġp ot
ĠO r
ro p
Ġmil it
Ġcontro l
Ġev ent
Ġpro p
w ork
Ġchild ren
ĠSt ates
Ġp ress
Ġe qu
Ġsu re
i um
ĠC ol
Ġlike ly
Ġ19 9
Ġme et
id ence
Ġw ent
Ġo cc
Ġmed ia
en n
Ġquest ion
Ġyou ng
or ies
Ġmem bers
ĠM r
Ġc ertain
Ġen g
ĠO n
i ally
Ġmonth s
ort un
en e
Ġw ater
000064400000000 0000000000001
Ġex ample
Ġf ive
Ġd one
Ġsu ccess
Ġar g
Ġ vers
Ġal ong
Ġinv ol
end ed
an n
ver t
f e
Ġh our
Ġwith in
ent ial
ur ch
Ġs ide
Ġcour se
Ġon ce
ĠA d
Ġam ong
an e
im ate
Ġact iv
Ġse x
ra ft
ĠY ork
Ġpri v
Ġres ult
ul ation
Ġch o
Ġf uture
Ġposs ible
re w
art ment
Ġcon cer
Ġsh ort
l f
ĠEuro pe
Ġinvest ig
un e
Ġme ans
Ġkn own
Ġprodu ct
n ect
it ing
Ġprot ect
Ġhe s
Ġproble m
Ġv iol
b all
Ġthough t
Ġav ail
. ,
Ġ1 6
u ff
iv id
Ġy et
Ġf ail
Ġloc al
our n
st er
Ġre ason
it ive
Ġh old
Ġw rit
Ġor ig
at ors
Ġn ight
Ġother s
ĠT e
Ġa uthor
g ress
ĠA m
al d
Ġm akes
oc i
Ġcommun ity
Ġpro b
Ġsu gg
Ġac ross
Ġ201 6
Ġ3 0
Ġstr ong
p or
Ġask ed
Ġ1 1
7 5
ub l
Ġg iven
Ġh ig
ar m
ĠDem ocr
ag ue
Ġm us
ver age
es ts
ag ed
it ions
Ġ2 5
Ġreport ed
ens ive
Ġ X
Ġbelie ve
is c
3 2
ed eral
Ġunder stand
ĠChr ist
ĠSt ate
Ġget ting
Ġb en
Ġc ut
or ld
o ber
Ġann oun
Ġ ident
I f
her s
Ġl im
Ġvide o
ĠH ouse
l er
Ġf ight
Ġc reat
Ġs ent
Ġs our
ore d
Ġcon d
Ġto day
ir on
er t
ĠUn iversity
ĠM in
ur ther
ul ts
Ġn ational
Ġ201 5
Ġl ow
an ces
Ġn et
ĠB r
Ġb ased
Ġcl ose
Ġstart ed
as hing
Ġavail able
Ġde ath
Ġind ust
ut es
ĠWh at
b ack
re ed
Ġl ove
re st
Ġhist ory
Ġal most
Ġiss ue
iet y
8 8
re et
ĠC ent
Ġfollow ing
Ġm om
Ġser ies
Ġ1 00
ĠO ne
6 5
res ent
ĠT o
Ġtr ying
sel ves
Ġag o
Ġc a
u ly
Ġn on
Ġto get
Ġcom es
Ġtoget her
ĠS en
b ook
A T
Ġf oc
ar r
Ġ201 4
Ġacc ess
ow s
ab ility
u se
Ġide a
Ġimp ro
Ġem ploy
Ġtr ad
Ġ1 3
f or
Ġis nt
ail s
Ġ1 4
ĠE x
ie f
il ar
Ġcle ar
ĠB ro
u ment
ĠP r
Ġst ates
as ter
Ġpr act
ĠF l
ĠC o
in ation
Ġ z
Ġcomple te
Ġadd ed
ition al
Ġlook ing
ot e
1 0
g ed
A nd
Ġexper ience
Ġb ad
id s
ere nce
Ġan al
i en
Ġl ive
Ġm iss
Ġind ivid
Ġc oun
Ġr ul
Ġany thing
8 5
Ġf av
Ġh alf
Ġ1 7
m y
er man
ust om
2 4
og rap
Ġpres ent
un ch
ĠP ol
Ġs w
Ġsay ing
Ġr is
os p
ĠCan ad
Ġthe res
ro du
th ough
ĠE ng
ĠC lin
Ġv ict
min ist
ward s
Ġs ix
Ġt aken
Ġb ill
u nt
Ġa ut
Ġ er
3 4
ru g
Ġm ult
ĠI ve
Ġare a
ra w
y n
Ġcomp et
Ġbeh ind
Ġto t
Ġm or
a i
Ġmilit ary
u ge
Ġpro per
c hes
Ġent ire
Ġtr y
Ġph ot
I N
F or
Ġj oin
Ġth reat
ĠOb ama
Ġbl ack
Ġr ather
ir c
Ġindivid ual
al es
c ing
Ġl ight
p ar
Ġfil m
Ġdisc uss
ĠS ec
Ġqu ick
Ġsec urity
6 7
Ġp ubl
Ġne ar
o ver
Ġm ind
ep t
em pt
Ġf all
Ġspec ial
Ġpre vious
Ġpart y
a id
wit ter
Ġpre t
ĠA f
Ġm ess
9 5
ci ally
Ġcour t
i as
Ġwant ed
Ġf ace
Ġf ood
Ġstud y
ĠN orth
Ġs um
Ġc ult
Ġre du
Ġcol le
ĠW ar
Ġpolic y
Ġl and
ĠB rit
Ġbr ing
Ġcom b
n es
ĠN ational
Ġsing le
Ġprob ably
Ġt aking
Ġke y
ĠD ep
O N
p ly
o f
ĠW orld
ĠIs ra
in ed
Ġnot hing
Ġf oot
ap er
ro te
ĠC al
c a
ac es
8 7
v iron
Ġb ody
ĠS u
el t
o ff
Ġim m
Ġc ou
d e
ar ter
Ġcom ing
pl ay
Ġsign ific
ol ution
Ġpoin ts
ic ult
ĠW ith
ĠG r
if y
Ġrese arch
Ġcon nect
Ġsim ilar
Ġcan n
Ġo pt
ĠC ity
Ġhow ever
Ġsome one
m ing
Ġr ights
Ġsp ace
ĠA ust
Ġdes crib
8 6
Ġm ass
Ġb an
Ġe ither
Ġben ef
Ġdec ision
Ġ201 3
l s
Ġfr ont
Ġfe at
Ġs us
Ġt arg
rem e
O n
Ġplay er
! "
Ġex ist
s y
r ict
m b
Ġw a
Ġh it
8 9
Ġst op
Ġf ire
Ġen c
am ed
Ġcre ate
ull y
Ġh ouse
r ing
Ġf ig
Ġch all
R E
Ġf urther
l ish
Ġf ield
I ts
Ġw rote
Ġth ird
Ġbe gin
le ment
Ġp ick
ĠD av
2 9
Ġd oc
Ġel se
Ġre pl
un g
Ġsugg est
o on
A N
Ġsu per
Ġiss ues
Ġst ep
Ġcom pl
ĠJ an
as ing
ĠHow ever
Ġd am
Ġl arg
Ġserv ice
Ġ201 2
ĠG u
2 3
Ġgroup s
ĠA pp
Ġlead ers
Ġwho le
pp ing
Ġseem s
Ġt re
ĠAmeric a
ive ly
Ġtr a
Ġrel ations
e v
Ġe y
Ġex ec
s w
Ġme as
ĠW ashing
Ġc and
Ġl ab
Ġevery thing
Ġd ue
Ġthey re
itt ed
Ġinf l
ĠA b
ri ed
p ite
ent ly
Ġw atch
il t
Ġs ound
ĠIn st
iv il
Ġstud ents
ĠJ ust
s h
pe cially
ĠG e
Ġf ederal
Ġro om
Ġc ustom
u ation
Ġro le
Ġst ri
Ġd ou
Ġofficial s
an a
Ġcompan ies
o ke
ad es
ib ility
Ġshow s
Ġbe gan
A n
Ġst at
Ġfin al
ar th
Ġwee ks
Ġen er
Ġrele ased
Ġab ove
ĠS outh
Ġpos ition
are nt
Ġmat ter
Ġdevelop ment
Ġout side
a ul
Ġin it
Ġ201 7
7 7
Ġhim self
I S
att le
Ġc op
ob al
Ġstate ment
Ġa ction
Ġprov ide
Ġbre ak
Ġt reat
ĠR es
Ġrep resent
ĠM y
viron ment
in c
arl ier
Ġtr ue
Ġ5 0
he ad
Ġhour s
Ġse lf
a e
b o
ĠIn tern
Ġne g
am er
ĠE d
Ġspec ific
Ġsignific ant
ĠA ss
Ġr ad
Ġit self
The re
Ġcontin ue
ĠP art
6 6
ĠIsra el
Ġg un
end er
Ġbec ame
Ġthem selves
Ġadd ress
i od
ac ed
Ġcharac ter
Ġsim ply
Ġwas nt
ĠWashing ton
Ġl at
Ġcount ries
Ġty p
Ġprof ess
er y
o id
Ġg round
ĠG erman
Ġoff ice
og n
2 0
ograp h
3 9
Ġgener al
Ġdiff icult
n ow
Ġrun ning
ĠN ot
A R
3 0
Ġev idence
Ġex c
e al
il i
l im
c ri
Ġag ree
w h
Ġinter view
Ġd om
Ġd est
Ġt em
Ġacc ount
Ġad minist
as k
5 5
Ġresp ons
Ġd rug
W hen
ang u
Ġvers ion
Ġneed s
Ġcomm on
t o
Ġa p
Ġde ep
Ġbel ow
ĠM ed
Ġplay ed
B C
ĠTh ats
Ġin j
Ġneed ed
Ġfriend s
ĠA fter
year old
ace book
Ġab s
ĠH is
Ġpret ty
ĠF ran
Ġmus ic
Ġb all
a ult
Ġes pecially
Ġm ag
Ġinclud e
are n
Ġqu ite
Ġrele ase
if t
Ġwh ite
l am
Ġg en
idd le
ĠB ar
Ġsa w
Ġh om
rib ut
b r
ĠD o
Ġleg al
Ġindust ry
um b
Ġph ys
Ġbuild ing
Ġener gy
Ġplay ing
Ġch arg
Ġan im
Ġval ue
at ur
g o
Ġl ost
Ġinst ead
om m
Ġcand id
Ġs ense
Ġh ost
se c
ourn al
Ġal leg
ĠM us
on ald
re g
Ġob ject
Ġm ot
8 4
Ġp le
A S
Ġteam s
ĠC ar
S o
Ġe p
Ġ2 4
Ġre d
or ing
ĠThe se
os ing
ĠClin ton
ĠWh ite
I m
ĠO ct
Ġb illion
ar c
Ġtr ack
y le
ir t
Ġopp ortun
Ġfor ward
ist ic
ĠNew s
i ents
ĠW ill
Ġsu ff
ĠD r
n s
iv al
Ġrecent ly
Ġl o
n ers
Y ou
Ġser ious
e es
Ġp ain
Ġevery one
Ġvot e
Ġl ate
Ġele ction
Ġdet er
Ġsh oot
f er
cc ording
Ġj ud
ll ing
med i
ĠW est
as ons
h od
Ġchang es
i j
ĠC ong
Ġeconom ic
Ġper iod
ĠT witter
Ġst ar
Ġbl ock
ĠP e
Ġob s
Ġwr ong
6 4
Ġlong er
Ġche ck
ac hed
ĠM e
Ġc irc
ep end
iqu e
Ġp ie
Ġwom an
Ġrel ig
ĠS ept
Ġcons um
Ġt it
ĠM arch
Ġed uc
op h
Ġp red
Ġmom ent
l t
ag er
Ġso on
itt ing
Ġwor ks
Ġg ir
Ġpot ential
Ġon line
al t
Ġword s
Ġc red
Ġsh are
Ġcons ider
o e
ent al
Ġl ed
Ġhig her
Ġw alk
Ġhe ld
on se
Ġre v
Ġfoc us
Ġlaw s
h ood
anc ial
v al
8 0
Ġwe bs
01 5
Ġst ay
Ġre ve
b ody
Ġre view
Ġs ite
Ġfun ction
ill s
Ġa ge
ul arly
Ġso ld
w here
Ġtot al
Ġpr im
Ġe t
Ġc e
ove red
ir m
o le
Ġle ar
Ġperson al
Ġatt empt
Ġst ru
Ġw ind
ĠS m
Ġac cept
Ġris k
ĠA ug
Ġw ont
Ġres ults
Ġd iv
Ġb ar
at ives
Ġapp lic
ĠSy ri
Ġd i
Ġserv ices
Ġa ud
Ġmin utes
Ġv ol
ĠH ar
ĠM ich
og le
Ġh y
c il
id ing
h am
b b
Ġart icle
ĠG od
Ġd en
ĠJ une
end s
f ect
u ary
Ġde ad
Ġem ail
Ġc ode
ĠRepublic an
Ġfav or
i res
c ial
pl es
e ed
Ġup d
ic ro
Ġne cess
Ġan sw
Ġsc ient
Ġtarg et
Ġres pect
Ġcre ated
he m
Ġr ate
ur d
Ġcomp ut
Ġpop ular
h aps
il ities
Ġexp ress
E S
ĠA pr
is l
Ġe arlier
C h
Ġexpect ed
ang er
u le
Ġsur pr
ĠDep artment
Ġen vironment
ĠJ uly
Ġcom ment
Ġproble ms
y r
Ġrece ived
Ġeas y
ate g
it er
it ution
Ġtechn ology
ag ing
le ar
he l
ĠE n
Ġcann ot
Ġ201 1
Ġpriv ate
Wh at
Ġl angu
Ġp ort
Ġincre ase
Ġp ack
Ġgo al
Ġquest ions
ĠF acebook
ĠCong ress
ip le
Ġw ays
ud e
Ġsh ot
ĠM ond
Ġannoun ced
Ġus ers
Ġfor ce
ĠE m
Ġany one
ore s
u el
Ġb ase
ĠP er
Ġter ror
it es
om b
Ġp ur
ip s
Ġc ivil
Ġ ur
p ut
Ġex act
l ike
Ġm ater
Ġhop e
Ġinvol ved
Ġp oll
ĠR ed
Ġty pe
le x
it iz
5 0
ĠF rid
is es
Ġam ount
H ow
Ġne arly
ĠN ow
her n
ĠAust ral
Ġspe ak
A d
on st
et er
A t
act ion
ĠCh ina
Ġmod el
e ch
ĠS ome
Ġexec ut
itt en
du ct
Ġst aff
ĠA ct
p ro
ĠApr il
Ġs en
Ġrep orts
Ġcont ent
av ing
ĠSt e
Ġp ers
ĠW ed
Ġc oll
Ġrelations hip
a ut
op s
ok es
Ġorig inal
Ġintern ational
2 8
Ġ2 1
Ġins ide
Ġle ave
Ġkill ed
Ġc al
ke y
ĠC our
ĠC ount
Ġresp onse
Ġc ases
Ġf ans
Ġbro ad
Ġcap t
ĠAmeric ans
an y
Ġgl obal
Ġar rest
it c
Ġa verage
6 9
7 4
itt ee
Ġl iving
Ġo il
am s
Ġsour ce
ĠWh ile
Ġon es
Ġwor th
ĠJ ap
Ġc ell
Ġim medi
Ġresp ond
at ural
g ing
E N
Ġwork ed
Ġbec om
Ġsub ject
ell ig
ĠT ues
Ġso ft
ĠP al
Ġab ility
Ġest ab
Ġad m
oin t
A l
Ġpubl ished
Ġt ou
Ġch ance
Ġ4 0
Ġcol lect
Ġt akes
k y
Ġcl ub
Ġass oci
O R
Ġ201 0
iz ing
Ġro ad
Ġwe ap
Ġs qu
Ġwork ers
Ġl ack
Ġl og
Ġp ict
Ġn orm
Ġfin ancial
rough t
Ġf em
Ġhe av
Ġter ms
Ġe mer
Ġbu y
Ġpr ice
Ġdef in
ot o
Ġdec ided
2 1
olog ical
Ġm other
Ġg ave
Ġdirect or
he t
b or
ll ed
ĠFrid ay
ĠGe or
ĠIs lam
Ġf re
Ġcont r
Ġfore ign
Ġcap ital
ĠO ff
os ition
Ġwho se
Ġcurrent ly
ĠS an
Ġw on
ĠMond ay
ĠCal if
ove mber
0000000000001 47
000064400000000000000000000 02
ĠI ll
7 9
3 8
a el
6 0
ĠF r
Ġinfl u
Ġhappen ed
ĠG l
ĠA g
Ġsit uation
Ġpartic ip
Ġrequ ire
Ġgo es
ĠJan uary
ct or
r ay
Ġev ents
Ġrec ogn
Ġmater ial
Ġm id
Ġt al
ough t
cl us
Ġare as
Ġmet hod
Ġl ives
Ġind ic
Ġv ia
4 9
ĠB y
Ġoff er
ĠT V
Ġm is
ov ed
Ġ ill
Ġturn ed
Ġc y
ĠS und
Ġph one
Ġar ri
Ġpl ans
b it
Ġaff ect
Ġh uge
ĠSept ember
ĠH ill
ĠN e
Ġsim ple
ĠE l
Ġint rodu
ct ions
r ain
ĠI d
Ġreg ard
et h
ĠF eb
vert ise
Ġcon v
Ġperform ance
Ġh on
ro wn
Ġmeet ing
f ully
ĠTues day
ru ction
Ġcare er
Ġr ound
et y
Ġappro ach
Ġmem ber
7 6
es e
n a
le v
ĠAf ric
Ġto ol
Ġp age
ĠWed nes
en ed
j oy
ĠJap an
Ġimpro ve
ĠN ovember
ĠDav id
Ġimp act
Ġquick ly
Ġp ull
ord er
Ġhe ar
Ġf elt
ĠA ng
T o
Ġr ace
Ġh ands
ap t
at ory
g es
ĠTh urs
ĠEurope an
Ġvict im
Ġth ous
Ġl oss
Ġeng ine
Ġnum bers
ou d
Ġd ig
ĠP aul
Ġnet work
ch ie
et t
ĠC or
Ġbu ilt
or ters
Ġre pe
ĠOct ober
en ces
A L
Ġm atch
Ġf ather
Ġsec ret
aren ts
Ġb ank
a ily
ĠGo ogle
ĠAug ust
Ġleg isl
t ime
000064400000000000000000000 03
p s
ruct ure
ĠBl ack
Ġeconom y
Ġhe ard
Ġor d
Ġprodu ction
Ġinclud ed
Ġl ower
ĠBrit ish
in o
Ġreve al
Ġallow ed
ĠI S
a ur
Ġc ause
Ġcou ple
Ġsp ent
ĠC ont
Ġtra vel
Ġhe art
Ġper fect
i ers
Ġtr ade
Ġto wn
l oad
Ġse par
Ġcont ract
Ġw ants
Ġbeh av
us es
Ġne igh
Ġco ver
ce mber
o or
Ġkn ew
k ing
ĠS ch
um e
Ġf air
Ġ2 2
ĠJ ew
Ġwebs ite
ĠCalif orn
Ġget s
Ġst e
Ġset t
Ġbo ard
Ġr ac
es tern
ĠU K
ict ion
Ġtri ed
re ct
Ġl ink
Ġf ear
Ġvar ious
ĠWednes day
ĠQ u
Ġen s
ĠRuss ian
Ġvis it
Ġfor ces
Ġv o
Ġpre vent
g est
a a
c o
ra z
en ing
Ġatt ention
Ġpartic ular
Ġpro gress
Ġpre p
re l
m on
Ġpop ulation
Ġf ell
age ment
an ks
Ġw ide
Ġb ud
ĠCour t
en c
ce ed
an i
Ġlook s
ĠH er
Ġmove ment
ur ning
Ġgrow th
ĠThurs day
ĠS w
ess ion
Ġl iber
Ġb rought
Ġre ach
Ġle arn
o o
he st
ib ly
ĠK ore
Ġtr aining
ar ily
Ġh ot
Ġm ention
Ġve h
Ġ2 3
Ġte xt
ide red
Ġdem and
und red
Ġu nd
ĠP ost
Ġc itiz
in ks
c ast
for ce
O ne
ĠDe cember
p ts
7 0
led ge
f ace
Ġmor ning
h old
E D
Ġ ess
b d
Ġse arch
ĠP at
ĠW ell
Ġim age
ident s
y ond
Ġen joy
Ġre b
Ġrul es
Ġh or
Ġlat est
Ġc ard
Ġs n
Ġspe ed
Ġind epend
g round
Ġs ize
Ġf ast
Ġup on
se qu
Ġs ong
ĠP ar
z e
ic les
Ġsub s
3 1
A C
f ield
Ġstru gg
ific ation
u ments
ĠRuss ia
Ġex am
ĠSt reet
Ġ200 8
u k
I C
Ġfeat ures
om p
Ġs ens
Ġsl ow
Ġtalk ing
ĠP ark
Ġdou b
Ġco ach
c ome
Ġsystem s
Ġsa fe
Ġw ond
Ġcons idered
all ed
Ġext reme
Ġlead er
Ġ ...
ar ies
I T
Ġmed ical
ĠA nt
Ġlangu age
A fter
Ġcon duct
Ġadd ition
Ġlevel s
i ant
O S
Ġa chie
ut ions
sy ch
Ġs ort
op e
ĠSund ay
r im
Ġp arents
ellig ence
a pe
ĠSen ate
W ith
ys is
Ġcrit ic
u f
ĠK e
Ġex cept
Ġp en
ic ks
b a
Ġwr itten
d own
Ġinvestig ation
er c
ak er
P h
im ately
Ġd raw
y l
Ġm ach
Ġpri or
Ġcomplete ly
Ġadminist ration
ĠT ex
am ent
ĠMus lim
c le
Ġcon c
ap h
Ġbo x
ĠR om
Ġpl at
Ġimm ig
Ġjob s
Ġdo ll
Ġ200 9
b ed
ĠS atur
Ġincre asing
Wh ile
d f
Ġin n
Ġsex ual
Ġcl imate
ĠL ond
ĠM ark
Ġb ott
Ġreg ul
ĠCount y
ĠT imes
Ġcons erv
ĠM ore
ĠCent er
O P
Ġsp okes
om s
Ġpartic ularly
e ared
Ġdes pite
ra q
is ions
Ġdoc ument
it ch
Ġsc reen
ren ch
Ġn atural
Ġsur ve
Ġeff ort
Ġp aper
Ġopportun ity
Ġob vious
our ces
ĠCaliforn ia
Ġr ange
Ġmess age
ru ary
Ġoffic ers
Ġexact ly
Ġinterest ing
n ces
l ight
Ġse ven
s c
Ġe ight
S h
Ġal though
A M
ĠPart y
t he
Ġviol ence
ĠN et
ish ing
ĠD onald
an ced
b ased
Ġbig gest
ib r
Ġmajor ity
in ally
os es
Ġattack s
u it
ak ers
Ġh undred
ran ge
Ġansw er
Ġclaim s
un k
ĠE ven
Ġl ay
il le
Ġexper ien
Ġcr im
Ġj ournal
ent ially
Ġsc ience
Ġsomet imes
ur t
ĠS and
ĠM or
n y
Ġproduct s
Ġdef ense
Ġrequ ired
Ġqu arter
ĠS pe
Ġcar ry
Ġlook ed
Ġhist or
ĠT H
Ġext ra
ĠMc C
Ġcertain ly
Ġ2 6
5 9
p ir
ad d
ĠB ec
av es
Ġg as
Ġ x
7 2
Ġsur v
ĠI raq
Ġcommun ic
Ġbl ood
Ġp aid
Ġp an
Ġim ag
Ġd ro
Ġpract ice
ĠK ing
Ġm iddle
Ġfin ally
Ġa w
u x
Ġc ross
Ġrem ain
ly ing
at ter
ĠI nt
ill ed
ĠB o
Ġt able
uc lear
Ġpr ison
ĠCanad a
er ve
Ġp ath
Ġsa f
Ġstart ing
ĠE ast
5 4
b f
ines e
Ġd anger
Ġst ories
ab or
vertise ment
Ġlead ing
Ġpo or
Ġu lt
Ġare nt
Ġst uff
Ġ6 0
m a
Ġr out
Ġshow ed
Ġdescrib ed
Ġg iving
Ġgu y
8 2
Ġchang ed
Ġqu ality
Ġmod ern
ĠFeb ruary
Ġdet ails
ous ly
b c
oun ts
Ġn ation
Ġsoc iety
Ġprov ided
e ff
ĠD es
The y
Ġcon vers
ens ion
Ġocc ur
Ġrem ains
en ge
Ġcont act
Ġmult iple
h ib
Ġ2 7
5 6
Ġn amed
Ġs on
osp ital
Ġter m
ĠLond on
Ġeduc ation
Ġwrit ing
Ġass ist
f l
Ġch ief
Ġus ually
pp er
Ġf ix
Ġcost s
ab les
u ing
ar i
augh t
Ġwe ve
Ġd on
ĠF irst
Ġm ob
Ġdam age
Ġpar ts
ĠRepublic ans
ĠG ener
Ġl if
Ġthink ing
Ġdem onst
U S
Ġincre ased
ĠDemocr atic
Ġ2 8
le ction
Ġcontin ued
Ġper haps
Ġpur p
Ġgrow ing
ist an
Ġgu ys
ĠS oc
Ġread y
or ks
em s
Ġcom ments
Ġd ied
Ġsub st
in ary
Ġh ous
ĠTrump s
Ġun f
Ġsum mer
Ġcult ure
Ġwould nt
F L
ĠC oun
Ġb i
Ġmain tain
Ġwr ite
ĠSatur day
Ġimp lement
Ġto wards
Ġvot ers
Ġp urch
Ġrequ est
m p
ĠB ill
ĠJ ack
Ġm ill
am b
Ġmov ie
g s
Ġeff orts
Ġf ile
Ġc amer
Ġper m
Ġspe ech
Ġce le
7 3
as c
.. ..
Ġplat form
Ġread ing
reed om
Ġav oid
Ġal one
ar ian
Ġ ver
Ġsp ot
Ġse lect
w o
il es
ĠJ ames
Ġcons ist
ĠS er
Ġk ids
Ġdirect ly
Ġreal ity
Ġ il
Ġstand ard
8 3
ĠT ur
ic o
ĠCh inese
Ġbe yond
ĠC ons
ĠLe ague
Ġcall s
Ġcl os
Ġus er
Ġy es
z z
Ġinclud es
Ġep is
Ġcould nt
ĠA ir
e xt
Ġcomple x
Ġimmedi ately
Ġfoot ball
Ġeffect s
f ort
ic ated
Ġrem ember
T r
in ated
Ġrec omm
b an
Ġchall eng
Ġthrough out
air s
Ġs le
ĠI ran
Ġcor por
ĠPl ay
c f
Ġcho ice
ac ts
ren g
a res
ĠTex as
e k
ĠThe n
Ġsaf ety
Ġschool s
ĠInd ian
f ord
im ent
Ġsc ene
ĠMich ael
Ġrese arc
Ġadd itional
Ġg one
ĠInd ia
Ġ ut
Ġdesign ed
2 01
Ġse ll
Ġ2 9
Ġop in
Ġs il
Ġcharac ters
Ġcent er
Ġa head
Th at
c d
Ġrel ative
Ġthous ands
Ġlet ter
ĠI I
Ġpie ce
us ing
op er
amp ions
Ġt en
Ġt ro
Ġreg ion
Ġmean ing
Ġfig ure
ĠSu per
Ġdeb ate
Ġdec l
ac hes
000064400000000000000000000 04
it ute
Ġdis play
Ġtw e
Ġto ward
Ġbl og
ĠG reen
ad em
al y
ĠDemocr ats
Ġstud ent
Ġdis app
B I
Ġmov ed
Ġcle an
is is
Ġsoft ware
Ġappear s
Ġrece ive
ast ic
ĠWill iam
ĠR ich
ag o
ic ient
il ies
O T
Ġcoun ter
Ġmay be
Ġproper ty
Ġ ign
4 2
Ġpress ure
w ise
ur g
ress ion
e g
Ġpass ed
Ġro ck
ĠH es
Ġd ark
Ġs at
Ġn om
ĠEng lish
Ġcomm and
ĠMin ister
ate ver
Ġst age
Ġmov ing
Ġcond itions
Ġhelp ed
Ġyou ll
Ġhapp y
Ġbook s
k en
Ġfail ed
Ġc row
000064400000000000000000000 05
Ġla unch
Ġbr ain
5 7
ar a
e an
it ation
Ġalleg ed
Ġt our
ĠAss oci
ĠF rench
Ġrelig ious
s et
Ġdri ve
Ġsus pect
Ġcomp ared
ĠO f
Ġde g
ro y
im um
Ġc ast
Ġtou ch
ran ts
ir th
ru pt
Ġst ore
Ġn uclear
ĠThe res
Ġre asons
all s
Ġbud get
Ġbegin ning
Ġw ife
ol ute
r ated
4 0
ĠM art
Ġenc our
Ġb attle
Ġdiffere nce
st on
Ġcitiz ens
iv ity
6 2
ĠS im
ĠV al
Ġa im
ĠM on
ri ef
Ġtit le
Ġd ate
Ġmy self
Ġpre c
it ness
w ood
Ġst ra
o es
ĠD ay
Ġpos itive
ĠSt ar
Ġro b
Ġb al
Ġref er
h a
ock ed
Ġlim ited
ĠE very
Ġey es
Ġsh own
Ġn ature
Ġdis p
Ġest im
id a
Ġpower ful
Ġf an
Ġp ark
Ġoffic er
ĠR ober
Ġar ch
ĠO h
ag on
4 3
Ġfor ced
Ġanal ysis
A D
Ġnecess ary
Ġcont ribut
Ġs al
Ġun ique
Ġth row
Ġil leg
Ġgovern ments
e gr
b l
6 3
ĠS erv
Ġtr ust
Ġdev ice
Ġcent ury
ain t
on ents
Ġcolle ge
Ġproject s
Ġm ix
O M
uf act
i able
ĠC he
Ġlarg est
Ġsp ending
ĠB el
Ġphys ical
l ands
r s
Ġme ant
Ġeas ily
Ġaut om
Ġcomput er
Ġindividual s
Ġa ware
ĠA P
Ġpr in
Ġconf erence
le ase
7 8
Ġco ol
E T
Ġconf ir
Ġpresident ial
ĠT or
ci ent
Ġfollow ed
Ġp us
Ġst reng
Ġevent ually
ĠB en
Ġan g
Ġgr ad
6 8
Ġact ions
Ġfe ature
ch an
Ġsus p
m en
Ġexecut ive
ĠW ind
Ġfe ed
Ġsm art
Ġc at
Ġh ar
Ġyour self
Ġre n
Ġfam ilies
Ġdet ail
S he
et ro
Ġpolit ics
ĠM ex
Ġn ice
Ġorgan ization
c ul
Ġag ency
ven ue
Ġprom ot
Ġcent ral
Ġg ives
p re
ĠC ap
Ġallow s
ir ing
4 8
d a
Ġweap ons
ĠJ er
ent y
Ġover all
enc ies
Ġapp eared
ress ed
Ġsign ed
Ġun s
Ġcustom ers
Ġtreat ment
Ġus es
Ġal tern
ĠGo vern
Ġgo als
E C
ĠIntern ational
Ġdis e
Ġp sych
Ġo ption
a ud
Ġide as
y an
augh ter
Ġfre qu
Ġbe aut
vent ion
Ġdec ades
Ġsen ior
ĠWh y
Ġcandid ate
ĠE arth
Ġanal y
Ġr ap
Ġtr uth
ĠAr ab
N ow
bo ard
Ġrel ated
Ġcr isis
Ġcr ime
os h
Ġconf lic
Ġm ist
b um
it or
ĠE U
res h
ĠChrist ian
Ġdevelop ed
Ġcor rect
Ad vertisement
ĠC r
ĠS chool
Ġorgan iz
Ġhigh ly
Ġapp arent
Ġem b
i ance
Ġchall enge
Ġnot ed
Ġd rop
Ġprogram s
ĠO ur
oc ks
Ġnorm al
Ġpe ace
I D
Ġst o
ow ers
Ġre form
000000000000 015
Ġbenef its
ĠH igh
Ġcontin ues
c he
ĠCom p
Ġinc ome
Ġfull y
Ġcred it
Ġnot e
ĠR ec
ut y
ĠPol ice
ĠSm ith
am m
ĠB er
Ġdo or
ĠAng el
Ġf irm
Ġchar ge
Ġprevious ly
Ġs ales
Ġl ines
ber g
Ġcle arly
er ved
Ġexp and
our ce
ĠF rom
Ġr ates
Ġpre m
Ġint elligence
Ġprim ary
cri pt
Ġstra ight
am ing
Ġknow ledge
Ġl ic
ite ly
Ġcrow d
ro om
Ġsa ve
Ġsuccess ful
Ġsp ir
Ġadv ant
Ġar m
ĠD ef
ur ance
Ġd raft
ĠCoun cil
ri age
Ġres ources
A ccording
ot i
Ġf a
ĠM ac
Ġcrim inal
Ġlarg er
Ġgreat er
Ġown ers
Ġr ule
Ġmeas ure
Ġsp read
Ġb and
Ġbro ther
ou l
Ġex ch
am as
Ġle ts
Ġmin or
Ġre ached
Ġke pt
Ġpl aces
ound s
Ġl iter
Ġcol or
b ox
Ġpat ients
Ġseem ed
ol ic
ĠT om
Ġshoot ing
il ed
Ġtr aff
Ġle ague
id ers
Ġreg ular
Ġdeter min
Ġ200 7
sec ut
E L
ĠBro wn
ve re
in y
Ġinc ident
Ġworld s
in n
ĠFl or
ĠSyri a
k i
ĠG old
Ġman ager
Ġr are
Ġv irt
Ġfe et
Ġsour ces
Ġstud ies
5 2
Ġfavor ite
Ġs end
ran ch
Ġman ufact
ĠUn ion
ant ly
ĠD is
Ġknow s
Ġpro s
Ġb oy
Ġem ot
Ġp un
ĠU p
Ġopt ions
ĠGeor ge
ate gy
ĠIntern et
Ġvo ice
Ġca used
ĠL a
Ġfight ing
Ġstat us
Ġabs olute
r is
Ġen em
Ġwhat s
Ġc ities
E O
ĠM ag
Ġr ise
7 1
d ays
Ġref lect
or ter
Ġun c
ĠM ost
4 1
6 1
ĠW ere
or ney
Ġ ir
Ġactiv ity
Ġint egr
ĠB re
er o
Ġla un
ĠR ob
Ġemploy ees
Ġcall ing
Ġn ames
od ay
b and
B y
Ġg reen
i os
ĠGener al
ic it
Ġsh ut
lev ision
ub e
Ġtr ou
Ġbas ic
Ġclaim ed
Ġsl ight
eng th
IN G
Ġresearc hers
Ġdem ocr
wh ile
A ll
Ġwill ing
Ġend ed
Ġsp end
Ġs we
ol es
Ġpr ices
j ust
Ġl ik
c raft
ter m
ĠApp le
Ġadd ing
Ġtrad itional
Ġj ump
ĠCh ic
Ġ3 1
ĠHill ary
Ġal bum
000064400000000000000000000 06
A P
Ġsupp osed
if ying
ord s
Ġe th
Ġatt ract
et ic
f d
Ġra ised
Ġcharg es
m e
I s
w ide
Ġcreat ing
us ion
b on
Ġf ine
ic ed
al se
Ġmost ly
Ġgo ld
Ġyou ve
Ġpolic ies
Ġac qu
Ġconcer ns
Ġhapp ens
Ġim pl
Ġcom mer
Ġbe at
5 3
r ight
ro ll
k n
Ġsc en
Ġc ars
m it
Ġst yle
Ġr ank
Ġle aving
Ġh ospital
Ġpred ict
se y
Ġwe b
Ġc ry
Ġauthor ities
Ġfem ale
ĠS un
ij u
Ġfund ing
ĠRe g
Ġapp l
O U
Ġp ush
Ġm er
Ġwa it
Ġact ual
Ġsee ing
Ġv ac
Ġcon cept
v ille
i pp
qu e
ĠA lex
Ġens ure
ro s
ĠA ccording
ĠL aw
Ġbehav ior
Ġcrit ical
rib ution
Ġant i
om en
Ġwe ight
ĠGerman y
t t
Ġval ues
Ġb irth
Ġpl ant
Ġ3 5
Ġme chan
ing er
m ore
Ġagree ment
Ġoff ered
ot a
Ġad op
Ġd ire
ĠB ay
Ġb rief
ĠTr ans
Ġw ild
Ġreveal ed
iver se
ĠSc ott
ĠP ort
Ġdev ices
c b
Ġn ations
arl iam
Ġapplic ation
Ġwh atever
Ġrecord s
Ġw at
i pped
ĠBec ause
I A
ro id
Ġst ation
ĠSec ret
it ude
ĠM att
ear ch
Ġqu al
Ġcho ose
row s
Ġlaw y
ĠFran c
ĠM o
Ġen force
on ent
Ġpost ed
8 1
Ġmass ive
Ġpict ure
ist ry
Ġbe g
y a
Ġbelie ved
ĠPh il
Ġlear ned
ad o
Ġcele br
Ġprop os
ĠY es
, "
ear s
ĠEng land
Ġfeel ing
Ġet c
Ġd ream
ĠO p
ac ing
Ġpart ies
iju ana
Ġwond er
Ġgr and
ĠSt ud
Ġcomm it
ĠG et
ri an
Ġstr ategy
Ġwh om
od es
Ġent er
ign ed
Ġprodu ced
az ing
Ġ8 0
Ġarrest ed
ic a
lin ed
Ġtem per
Ġask ing
Ġm ission
Ġf at
r ant
Ġshow ing
ĠPh oto
or ial
Ġprodu ce
S ome
Ġconfir med
Ġc ru
Ġdeb t
I L
Ġst reet
Ġneg oti
Ġvictim s
Ġl ose
B e
lic k
Ġ9 0
Ġindepend ent
Ġb order
Ġst ream
ĠM od
Ġinflu ence
Ġte ac
Ġoper ations
ĠHe alth
Ġt end
u gg
r ate
ak s
Ġestab lish
f a
Ġdr ink
Ġprov ides
Ġmin ister
il s
on a
S T
N ew
ĠL ou
Ġres idents
ĠB ig
ak ed
Ġadv oc
Ġdef end
Ġdig ital
ĠB ush
ĠL ab
o very
ic ians
ĠAustral ia
Ġpat tern
Ġrun s
um an
ĠA M
Ġf reedom
Ġm ount
ent ed
ra v
ĠO ther
Ġb ab
Ġim ages
cri ption
ect ion
e a
ĠI r
Ġinst all
Ġeffect ive
Ġv ill
Ġbenef it
Ġhig hest
Ġweek end
ĠG reat
Ġche m
arliam ent
ĠW estern
ag s
Ġrespons ible
Ġlear ning
ĠW all
Ġha vent
Ġtyp es
Ġopp osition
est ic
r ont
Ġdoll ars
ĠFlor ida
ĠS l
0000000000001 46
Ġf it
ĠP ress
ĠPal est
ĠM al
Ġwor se
Ġtr ain
Ġsol ution
Ġbr and
Ġm ap
Ġb orn
ĠPe ople
Ġopen ing
Ġthe ory
Ġt ick
Ġinvest ment
Ġe ar
Ġoff ers
Ġse ction
Ġgener ally
i ation
Ġinterest ed
ĠM il
ĠMan y
Ġtri al
Ġd er
ĠY our
ĠD el
Ġexpl ained
Ġag reed
Ġr an
Ġhe ro
ĠM ike
Ġk ick
Ġm ur
Ġd aily
00000000000015 2
ĠB u
ce ll
i pe
Ġass um
t ons
m ine
Ġrepl ace
ĠComm ittee
st e
d b
A r
Ġdef e
ĠL iber
Ġmill ions
ro l
Ġpart ners
Ġocc as
ĠN FL
ĠJust ice
ĠC up
Ġmem ory
Ġl oad
Ġunderstand ing
ĠChic ago
R e
Ġdest roy
Ġb ur
Ġopin ion
ĠAt t
t ies
Ġheav y
ct ors
Ġprop osed
ĠT er
Ġhundred s
Ġextreme ly
ĠF in
Ġcond ition
ill ing
Ġassoci ated
ud d
o ly
Ġ3 2
How ever
Ġhe ll
Ġ200 6
at ically
ĠM icro
Ġsit es
ĠAr t
Ġon to
Ġilleg al
ĠFr ance
ĠS am
Ġv s
5 1
Ġun like
Ġprot est
C C
Ġth us
Ġre ject
ĠOff ice
Ġprofess ional
N o
p ri
Ġjud ge
ur ies
Ġf alse
ar ks
Ġch air
ic ial
Ġelect ric
Ġbas is
9 7
g en
Ġopen ed
Ġte levision
ĠComm ission
Ġmar riage
ĠF ound
Ġst re
ri al
Ġadvant age
Ġsle ep
Ġsur round
w orks
ĠIslam ic
Ġbecom es
Ġachie ve
ic ip
S A
Ġob tain
Ġch urch
Ġrest rict
Ġinit ial
ca pe
ĠE v
ĠComm un
Ġgir l
ad ing
Ġ ice
Ġeas ier
9 6
ci ence
Ġcontro vers
Ġscient ists
Ġmil es
Ġannoun ce
Ġneg ative
ĠA re
Ġ5 00
ĠSand ers
Ġacc used
Ġlegisl ation
U n
d om
i h
Ġs pl
Ġwe alth
ĠU k
Ġm ax
out hern
Ġsol id
Ġey e
Ġbecom ing
Ġt im
Ġact ive
ĠM ad
ĠSec urity
ĠL ike
ĠA dd
el ine
000064400000000000000000000 07
5 8
ĠWind ows
E x
Ġwin ning
Ġser ved
Ġinc red
ort hern
Ġsh ared
ag ues
Ġlim it
Ġman agement
Ġbott om
ĠO ver
Ġres ist
Ġh arm
Ġser ve
Ġr at
Ġredu ce
ĠF ox
Ġspec ies
Ġnot ice
ortun ately
Ġreturn ed
Ġdoc uments
ĠV ir
Ġfr ame
and er
Ġc ards
ĠD ist
Ġback ground
Ġsc ore
r ig
B A
Ġvict ory
Ġm ale
9 8
d c
Ġb ed
Ġ7 0
in ate
ad a
kn own
F C
B S
Ġm icro
Ġam b
com ing
ist ics
m ark
Ġexpl ain
Ġb omb
Ġcommun ities
if ul
Ġdanger ous
ĠS ince
Ġd ie
P ro
Ġloc ation
Ġconserv ative
r am
Ġphot o
Ġf resh
Ġte ach
ĠU s
ag n
Ġput ting
f c
Ġcom fort
Ġnot es
Ġhe aring
Ġpurp ose
Ġass ault
Ġdire ction
Ġexist ing
Ġinst ance
ur b
Ġbelie f
Ġc ore
Ġwatch ing
Ġneigh bor
G B
l ant
ĠG ame
Ġcandid ates
as ts
wit ch
Ġcamer a
ĠCanad ian
l ished
Ġsepar ate
ĠU N
Ġaud ience
Ġdoub t
Ġp urs
ĠCh urch
ing ly
v est
Ġmob ile
Ġdis m
Ġfa ith
Ġleaders hip
Ġapp eal
ĠP M
Ġanim als
Ġmar ijuana
Ġdefin itely
iss ions
ĠIn c
ĠC le
P S
f b
in ing
yr ight
Ġintern et
Ġco verage
Ġdrug s
Ġwor st
Ġcont ain
O L
Ġrepe ated
om as
Ġsupp orters
ac ity
Ġfl oor
N ot
9 4
Ġrad io
z a
ĠT re
Ġref ere
Ġarg ument
ili ar
Ġmach ine
Ġiss ued
Ġsuggest ed
Ġco al
E M
Ġview s
ĠJew ish
Ġcl osed
w ell
Ġsh ip
Ġgir ls
Ġpl ays
ampions hip
Ġlaun ched
Ġcommer cial
ĠH all
ĠR o
Ġtre nd
ĠT im
in ct
ĠB ank
Ġtrans fer
ĠCar ol
g ency
Ġd ed
ĠQ ue
ĠInst itute
Ġit ems
Ġst ated
op les
ĠJohn son
M y
our s
i est
ĠP C
Ġlab or
Ġbl ue
Ġcharg ed
Ġwe l
Ġd at
Ġsp oke
ber t
ĠF BI
ol id
Ġst ructure
ĠD irect
te red
gh an
i us
ĠA c
ul f
Ġtraff ic
ograph y
Ġn ine
9 2
Ġfar m
Ġcompet ition
Ġrequ ires
Ġple ase
ol f
Ġsmall er
Ġno vel
Ġdri ving
Ġn or
ĠD ec
and om
Ġh us
il ing
Ġepis ode
Ġtest ing
Ġt ask
z en
ĠL os
ĠP re
Ġtell ing
Ġh ack
Ġs un
Ġdou ble
Ġdise ase
ĠChr is
Ġdisc overed
k ins
Ġn one
Ġsupport ed
Ġentire ly
lin es
Ġg ay
Ġfind ing
Ġveh icle
ad y
S P
ĠM ont
Ġtool s
Ġcomp ar
as y
le ge
Ġlarge ly
se mb
Ġc ash
Ġc ateg
Ġconcer ned
ĠD N
ic y
ĠG ree
Ġactiv ities
ul ated
Ġtrans port
ĠM er
ĠIsrael i
Ġban ks
G et
ad s
or row
ĠUk rain
Ġstreng th
Ġex erc
Ġw all
ĠP ri
res p
h ouse
ĠJ im
Ġc aught
ĠV er
Ġstr ateg
Ġsp orts
iz es
Ġtr uly
Ġas pect
Ġsur face
ill er
Ġgr ant
Ġcon sequ
Ġold er
ĠS up
Ġallow ing
Ġrest aur
Ġbusiness es
Ġs an
Ġra ise
go ing
Ġst ock
ĠS ub
Ġacc ur
Ġcomm ittee
Ġmur der
ĠRober t
ĠS il
Ġdec ade
Ġhold ing
Ġmiss ing
ĠCon f
Ġaff ord
Ġn orth
rib ute
Ġ200 5
it able
Ġdec isions
Ġr ough
y m
itc oin
Ġconcer n
N N
oy al
c ks
Ġjust ice
ar io
ĠK en
ĠJ ones
Ġ4 5
and on
om an
Ġbelie ves
ĠH ere
Ġc atch
act ions
Ġcell s
ĠM iss
ck now
Ġorganiz ations
ar ant
ibr ary
ĠAfric an
Ġpres ence
ĠG ood
Ġins urance
oss ible
Ġch ann
ĠP ak
cept ion
Ġdep artment
Ġhom es
Ġconst ruction
Ġref uge
Ġ201 8
Ġann ual
ĠInst ead
Ġoff ensive
Ġph il
Ġf uel
ab b
Ġtell s
9 3
r ast
Ġw itness
os ure
Ġgu ess
Ġocc up
ĠK h
ĠG OP
Ġwa iting
M r
Ġse qu
Ġconflic t
Ġdel iver
Ġl ength
Ġatt end
Ġpl aced
Ġfour th
pect ive
P A
Ġe at
ĠKore a
ic i
Ġfil es
Ġgener ation
Ġprov iding
ĠS al
Ġplan ning
Ġuse ful
it z
Ġjoin ed
Ġun it
Ġmention ed
Ġrem oved
ang ing
ĠSt ep
ph one
l ig
9 0
Ġenforce ment
Ġass ess
Ġam azing
Ġupd ate
Ġsto pped
Ġf ant
Ġrecomm end
ĠJ eff
ĠF ore
up s
Ġsc ale
Ġestab lished
Ġinterest s
Ġhas nt
ĠJapan ese
Ġspokes man
ĠPro f
Im age
Ġinj ury
Ġhous ing
Ġintrodu ced
Ġinit i
u pp
ic on
Ġcan cer
Ġc ook
Ġspir it
Ġst ick
Ġmeas ures
Ġab use
Ġtrans l
ĠW il
ĠLe g
ĠCon st
ot ed
v ant
Ġe arn
Ġmod els
c ious
ĠC EO
Ġset ting
Ġe arth
Ġc oin
Ġdo g
n el
hen s
Ġcl ick
C on
ĠVir gin
Ġb ul
Ġgr aph
Ġpre fer
Ġconvers ation
Ġappro pri
oll y
re y
Ġdiscuss ion
Ġman aged
Ġha ir
Ġdown load
Ġsk ills
ĠAf ghan
ĠAngel es
ĠAssoci ation
Ġfin ished
ĠTH E
ĠMicro so
Ġa cknow
an cy
Ġfoc used
ĠJ ud
Ġcomm itted
Ġwe ak
Ġconc lud
ĠPalest in
ic ations
Ġthere fore
Ġident ified
k a
m as
ĠR ock
C H
Ġex clus
ĠCh ar
ĠAl though
ĠG roup
Ġ200 0
Ġkeep ing
Ġt ough
ĠM et
The se
g ers
Ġarri ved
Ġnews p
Ġs ides
a it
Ġdet ect
Ġrelative ly
Ġd aughter
y pe
w in
Ġtwe et
rid ge
Ġexch ange
Ġfund s
av a
Ġve ter
Ġslight ly
Ġfe els
Ġoper ation
Ġfig ures
ĠS ur
ĠM P
ĠF ire
Ġprotect ion
ens es
Ġident ity
ul ate
Ġg ender
ĠIn ter
Ġtri p
ĠP et
Ġdep end
is ation
Ġstep s
Ġag gress
Ġsc ri
itution al
! !
app ed
Ġk id
ĠSup reme
Ġthan ks
Ġother wise
Ġcont ext
Ġm ig
ĠO ut
and a
Ġsurve y
Ġg ain
t r
re es
ul a
Ġele ments
5 00
ĠB ern
is f
Ġme re
ĠK n
ĠLou is
dd en
Ġdef ensive
ic ation
ver se
Ġsee k
Ġcor ner
Ġconnect ion
Ġvol unt
Ġs ust
ron ic
Ġcirc um
Ġfail ure
Ġscient ific
Ġb od
D A
ĠS T
ĠThe ir
y p
Ġmark ets
Ġro ll
e ah
i ot
Ġtrans form
Ġs outh
w ing
Ġh ate
Ġstar ts
Ġkill ing
Ġphot os
e qu
Ġspe ct
ad ium
M ore
Ġsub m
Ġst ruct
Ġrem ind
Ġstri ke
2 00
Ġwind ow
Ġg e
ack s
Ġse asons
Ġp et
ĠN or
m akers
pl ace
ou ts
Ġs ch
ĠJ ose
b re
Ġtal ks
u ct
ĠAnd roid
Ġstand ing
Ġspe aking
Ġbig ger
anc ing
um n
R A
Ġsu dden
Ġcolle ction
Ġsugg ests
r ick
Ġimmig ration
Ġtax es
Ġplan ned
Ġstand ards
ĠL ast
h ow
Ġenvironment al
Ġm ental
Ġfam iliar
Ġf le
l or
Ġposs ibly
Ġsupp ly
at ures
k in
az on
ars h
Ġcar ried
k es
Ġcountry s
Ġdri ver
Ġw ish
ĠAfric a
Ġrev olution
ĠJ oe
ap ers
igh ter
ĠSecret ary
Ġsecond s
g u
Ġneigh b
Ġa ward
Ġhelp ing
az ine
Ġpart ner
Ġgu ard
Ġhappen ing
Ġunder st
im b
isc o
ĠCol lege
se ason
Ġimp ossible
u ate
Ġdec ide
ut ers
ĠM ary
Ġcre w
is er
ony m
r ations
ĠAl so
ĠB itcoin
c her
Ġabsolute ly
Ġshe s
Ġown er
Ġaltern ative
ĠAn y
Ġfil ed
Ġw ed
Ġr id
Ġdevelop ers
l a
yn am
ĠRes earch
el ess
ic ide
Ġac adem
Ġc old
Ġter rit
Ġun ivers
ĠTe am
Ġun less
D es
Ġfil ms
id ering
Ġdom estic
Ġapp re
ĠTh omas
ren cy
ĠT ime
Ġt ests
Ġr ich
Ġturn s
Ġneighbor hood
Ġvar iety
g n
Ġm ut
ĠAr my
Ġdro pped
Ġapparent ly
ĠJ on
hed ul
Ġb atter
st ream
s p
ĠD ont
Ġcomm ission
Ġhon est
Ġacc ounts
Ġsold iers
ig an
Ġ200 4
Ġv ul
ĠAt lant
Ġbal ance
Ġvot es
Ġsc r
Ġhe d
ĠU nder
r d
Ġreg ist
Ġqu e
Ġhum ans
ĠTh ose
ĠS ee
er ous
ĠH am
oc ol
a wn
uck y
i pping
ow l
g ar
Ġbeaut iful
ĠMex ico
Ġl osing
Ġbe er
Ġt ack
Ġcut s
ĠSyri an
Ġun its
Ġar my
Ġ3 00
Ġincreasing ly
Ġhealth y
Ġinn ov
ĠPr ime
im al
A meric
Ġpr inc
is ters
Ġphil os
Ġdeg ree
Ġapp ly
ĠD en
Ġclos er
m m
ad ed
ĠP ut
Ġwor ry
Ġexper ts
Ġapplic ations
Ġfell ow
Ġe c
u ke
ĠMart in
ĠT wo
Ġauthor ity
ed s
Ġtw ice
Ġprofess or
Ġcorpor ate
Ġp air
le ts
Ġad just
Ġoper ating
Ġsound s
it ect
ĠFran k
ĠM os
Ġag encies
Ġar ms
Ġap art
rast ructure
Ġl ived
Ġchang ing
Ġv ir
as hed
Ġult imately
Ġes c
9 1
Ġintern al
ol a
T C
p m
ict ed
ĠC amp
Ġat h
ĠA N
L e
ru it
ĠR yan
Ġv ast
Ġregard ing
Ġsc hedul
Ġpay ing
Ġrelig ion
ĠUS A
000064400000000000000000000 01
Ġdevelop ing
Ġl ands
Ġt ast
Ġsk in
Ġposs ibility
Ġexp ensive
ĠPl an
Ġimag ine
Ġequ ip
ĠGovern ment
Ġer ror
an ia
m ans
ĠO nce
ĠB ost
Ġsee king
ĠB ur
ans ion
Ġveh icles
Ġfl ight
ont o
ĠA ri
Ġv ision
ĠC ath
Ġy ards
c oh
H L
ĠD on
rou d
Ġel im
Ġelect ions
Ġs itting
ĠB ob
ay er
Ġhe at
ad er
L ast
Ġsy mb
ĠIm ages
ĠF e
I M
ĠCent ral
Ġinst it
p art
ĠPro t
um s
ĠWh o
Ġdist rict
O W
Ġsol ar
Ġc overed
Ġrespons ibility
Ġde ploy
olog ies
ĠP eter
ĠP lease
Th ats
ist ed
ĠP ublic
Ġthey ve
ĠJ es
Ġcap acity
ĠServ ice
Ġser ver
oc al
Ġf ol
ĠM ass
ĠM iddle
R ead
os en
Ġhy p
Ġbro ken
Ġsh all
an o
Ġsurpr ise
Ġf if
Ġpresent ed
Ġun ion
Ġst ars
Ġp il
ĠE gy
h i
Ġt on
Ġl ob
ur ation
Ġint ended
Ġhus band
Ġgu arant
Ġ2 02
Ġanim al
Ġfor ms
Ġspecific ally
Ġplan et
Ġdri vers
it ors
pro f
Ġfam ous
Ġtr ail
Ġt ight
P l
Ġun iversity
Ġwrit er
Ġo dd
ĠI N
por ary
Ġ ing
en ced
Ġse a
C l
Ġexper t
rib le
Ġstre ets
Ġfl ow
A A
ĠL at
ed er
Ġhelp s
I ON
Ġpot entially
Ġrap id
k er
Ġoccur red
ĠCh ief
Ġestim ated
av y
i pl
Ġdeter mine
Ġb reat
Ġf ired
Ġdep art
Ġloc ated
Ġpie ces
I V
Ġ3 4
o om
oin ted
L E
ov ing
ĠBrit ain
ĠDist rict
ĠM ur
ĠFound ation
ĠSoc ial
Ġpro ve
r ist
Ġcon ce
Ġr andom
Ġequ al
ĠS ing
ĠG al
c oin
Tr ump
Ġprep ared
Ġsc hem
Ġg ar
ĠOp en
Ġse lling
v is
ph as
ĠW in
EN T
Ġbring ing
ress ive
ĠR ub
Ġte en
I P
I G
p oint
Ġcons ult
re ens
ĠD an
Ġst ress
o ch
Ġtr ig
Ġcon clus
Ġsec ure
ĠPar is
Ġins p
Ġf aster
ĠF ree
Ġref used
Ġse ctor
Ġco oper
ill a
in ating
ne ys
ust er
ĠS ant
ĠM el
Ġ 44
Ġbo ost
ĠWe b
Ġoff ering
Ġd in
Ġcoun cil
Ġconduct ed
ĠR em
Ġtro ops
Ġorig inally
ain e
Ġt ourn
ĠF ederal
ĠCh arl
Ġpro secut
Ġvot ed
Ġpl enty
ĠRich ard
ĠCarol ina
Ġvul ner
Ġequip ment
Ġrem ove
Ġinf rastructure
ĠS pr
Ġcar bon
ĠB oth
ĠSt r
Ġbro ke
Ġmethod s
Ġj ail
Ġpos itions
Ġ id
Ġelect ed
Ġcult ural
Ġm arg
Ġexpress ed
ĠWilliam s
Ġrem ained
ĠC ur
D P
or age
Ġchalleng es
anc he
ĠMicroso ft
ĠD uring
Ġret ail
Ġgreat est
ĠR iver
ĠJ ournal
Ġem ails
Ġobvious ly
Ġchem ical
Ġpropos al
Ġco ord
ri e
Ġsignificant ly
or g
Ġcl in
uth ors
rel ated
Ġfin ish
em pts
ĠMed ic
ĠGu ard
Ġpl us
Ġpoin ted
Ġappear ance
Ġrul ing
ĠBost on
S p
ĠB ook
Ġsign s
Ġfact ors
Ġcl ot
Ġsp ort
ĠAustral ian
Ġexper iment
Ġredu ced
Ġcomb at
Ġher self
O f
ly mp
ort ion
ĠC ru
Ġyou th
ow nt
ash ion
Ġind eed
Ġdetermin ed
Ġte le
n oon
Ġs ale
n et
ĠH aw
Ġfac ing
Ġapp s
Ġm al
Ġpolit icians
ĠA C
Ġ3 3
Ġmod e
Ġvide os
Ġer a
Ġb ought
1 00000000000015
end ment
B l
ĠSte ve
ste in
Ġatt orney
Ġc as
Ġweap on
e y
ock ing
ĠIs land
ol ved
Ġwere nt
Ġth r
Ġaffect ed
Ġcon cent
igh ters
Ġinvol ve
idd en
Ġst ret
ut s
uc ks
Ġvot ing
Ġh urt
Ġlead s
Ġwe aring
Ġpercent age
Ġappre ci
au c
F rom
d en
ĠR ad
ru ption
Ġlong term
Ġsupport ing
Ġt act
Ġscri pt
ĠP ac
ĠCol or
Ġserious ly
ar p
Ġbas ically
Ġconsum ers
Ġliber al
Ġw ood
Ġ200 3
Ġsh ift
Ġplan ts
Ġemer gency
Ġrecord ed
Ġsh ape
st s
Ġb ound
Ġarg ued
Ġrem aining
Ġsurpr ising
Ġexpl os
Ġele ment
U s
Ġdiffere nces
Ġg rew
Ġopportun ities
Ġpros pect
Ġexc ited
ĠN AS
ĠFranc isco
ce an
Ġt urning
ve y
he red
Ġmin imum
Ġacc ident
Ġpe oples
Ġthan k
al ing
Ġcomb ined
ĠAm azon
Ġdis s
Ġmot iv
T H
ĠCons erv
Ġhand le
Ġ199 0
Ġexperien ced
ĠVirgin ia
ul s
Ġpull ed
Ġs witch
Ġgl ass
Ġp owers
Ġrep orters
ĠP ower
ess ions
Ġdr am
Ġpurch ase
Ġpr ime
ĠB et
ĠS aud
Ġident ify
ĠL ee
3 00000000000015
ĠTor onto
Ġm ort
Ġlist en
ĠD aily
ĠR oad
Ġcons idering
ĠN ov
ĠO lymp
Ġconst ruct
U p
Ġa id
Ġqu ant
it a
Ġd im
Ġ200 1
Ġbel ong
G o
Ġcoll abor
Ġend s
ĠEgy pt
Ġhop es
Ġn arr
Ġtre ated
Ġmin ute
Ġvis ual
ĠSp ace
ain ts
Ġpro ced
Ġcomple ted
Ġs ac
wh at
Ġre act
ĠR el
ĠG en
ĠSh ow
Ġafter noon
k et
Ġp ages
Ġpass ing
Ġsp ring
og ue
ter day
u ous
ĠGr and
m osp
Ġb urn
ly n
ĠFor ce
om pl
ive red
Ġf ra
coh ol
stand ing
Ġa st
Ġsupp l
Ġstrugg le
Ġdist ance
Ġre venue
Ġopp osed
es ters
Ġtrou ble
Ġwide ly
ĠSc ot
Ġlot s
Ġpan el
ĠOb amas
C ont
Ġt un
Ġpro ceed
Ġcal cul
Ġst orm
ĠB BC
E ven
Ġtyp ically
ĠPro ject
Ġref erence
Ġbab y
g ment
Ġdisc l
ri er
Ġre in
app ing
id el
Ġatt empts
Ġse at
Ġtalk ed
Ġse vere
Ġpriv acy
ang ed
is her
Ġtechn ical
Ġqu iet
Ġ3 6
ĠM a
os ite
Ġon going
ĠS qu
Ġc raz
se e
Ġem phas
Ġadv ance
ov es
Ġappro ved
ĠA T
Ġsubst ant
Ġcl oud
Ġdism iss
ĠM em
P ol
al ed
Ġm ent
Ġden ied
Ġfr ust
ĠThey re
ĠO k
ens ions
od d
l ers
Ġg ra
Ġsat isf
Ġeven ing
ra wn
Ġs ets
Ġag ent
Ġcap able
Ġm aster
Ġmov ies
Ġinstit utions
2 00000000000015
ro g
in as
Ġcontr ast
Ġappro x
ab ilities
Ġem p
ĠG M
ac he
ap ed
ĠY et
Ġpack age
ĠAmeric as
ĠM L
Ġfact or
ĠC NN
Ġreg ime
An other
Ġconf ident
Ġcop yright
S S
he w
F irst
Ġst ands
Ġwe ather
Ġent ertain
Ġz one
ĠS ol
ĠSy stem
ribut ed
Ġbuild ings
ĠP enn
ĠW al
Ġre action
ĠH uman
Ġup gr
Ġrespond ed
Ġmat ters
Ġcre ation
The res
in i
ad ow
ĠI D
Ġfor get
Ġbo ys
Ġinst ruct
Ġl it
Ġl augh
Ġconf idence
y th
Ġbod ies
Ġm and
Ġi Ph
ĠT ra
Ġfl o
Ġtrad ition
Ġnum erous
Ġun able
ĠS cience
Ġren ew
ce l
ok en
Ġval id
Ġfl ag
ĠD C
ell y
Ġb ull
ag ers
Ġcop y
ĠAnd rew
ĠS um
Ġexpl o
ok ing
Ġair craft
on om
un ction
ĠJ ul
resp ond
ĠB raz
ĠL in
Ġwrit es
c ont
Ġviol ent
ĠW he
ul ations
Ġread ers
Ġp itch
S ince
O ur
id ge
Ġopt im
Ġcr imes
ĠChrist mas
Ġenem y
ĠD ou
in als
Ġdef ault
at o
Ġf ly
Ġc art
ap ter
ĠB ack
Ġleg it
Ġad vert
m et
Ġcapt ion
Ġint ent
Ġfor g
as p
Ġdisc rim
O D
w ar
Ġdecl ared
Ġobject s
o oth
Ġdel ivered
Ġdec lined
Ġfac es
Ġexperien ces
Ġex cell
ang ers
Ġsuff ered
Ġp roud
is hes
Ġl oved
Ġdel ay
P R
Ġper man
Ġord ered
Ġinj ured
tern al
ĠDirect or
Ġterror ist
Ġshould nt
Ġreported ly
Ġro t
ĠS her
Ġthough ts
z er
Ġp ure
Ġreport ing
Ġpers pective
Ġse m
U T
crib e
ĠJew s
ob e
Ġpick ed
ĠK im
Ġadv ice
Ġv an
or al
ĠF ollow
ĠF er
ab in
Ġs am
Ġacc ompl
Ġpict ures
h ab
ĠMay be
Ġcircum st
Ġb rows
Ġtrans ition
Ġag ents
ĠPh ot
i xt
S c
Ġexpl ains
Ġplay off
Ġappropri ate
ĠR od
ĠMed ia
ĠT oday
ĠA v
ĠRe v
Ġadm itted
Ġar med
ed ia
Ġconnect ed
Ġpublic ly
Ġgun s
ĠW ood
ic ious
b ur
ĠV ict
Ġwalk ing
Ġg iant
Ġactiv ists
m ates
ĠB us
Ġs ad
Ġb att
l ook
ĠS ign
as tern
Ġmess ages
m ar
Ġr ail
Ġg ather
Ġconf irm
ĠL ets
em ploy
il ty
ĠMuslim s
W ell
Ġedit or
u ations
Ġmor al
Ġy ell
Ġrad ical
Ġev al
ound ed
ĠJack son
res ents
ab led
Ġarch itect
Ġrout e
Ġfind ings
ĠTe chn
u ild
amp ion
Ġupd ates
Ġnet works
Ġco ff
ion ally
ĠF ig
du le
Ġle aves
ani el
ĠW ork
r un
Ġte ch
Ġstate ments
p et
ĠL ife
Ġreal ize
Ġcr ack
g l
Ġf ish
ner gy
ĠN Y
Ġdo ctors
est ival
Ġf illed
Ġquarter back
Ġed ge
ĠL et
Ġdi pl
Ġpract ices
ans as
ĠSec ond
u nder
1 00
ĠOh io
ĠRe ad
Ġmiss ed
ĠS ov
Ġs ession
Ġd ynam
i at
Ġr ain
Ġ200 2
ĠH ou
Ġess entially
Ġalleg ations
Ġinc or
form ation
Ġarg ue
use um
ĠV ol
Ġexam ples
ĠOn ly
g a
as ure
p erson
Ġth inks
is ms
ac ter
Ġen h
Ġ7 5
ess or
cl ass
Ġeffect ively
er ves
ird s
om in
Ġwe ar
Ġd ial
ĠAn n
ot ic
Ġa uthors
ĠBl ue
Ġca uses
Ġour selves
Ġcont ains
ad or
ĠRe uters
Ġat mosp
ĠH en
ĠGeor g
Ġp ool
Ġmar ried
Ġs ke
Ġal t
Ġlab el
Ġexerc ise
Ġb are
Ġsecret ary
in ent
Ġwar m
ER S
ar row
Ġlawy er
Ġexp ansion
Ġre nt
ĠIt al
Ġtal ent
ev in
Ġphilos oph
Ġ19 80
Ġprom pt
Ġtot ally
ub s
Ġpre f
Ġsh op
ĠR E
Ġfac ed
D uring
Ġfac ts
Ġlist ed
Ġnewsp aper
ar ters
Ġconf ig
Ġm ir
Ġcritic ism
Ġinj uries
F ollow
Ġb ond
l o
Ġinit ially
c are
Ġmaterial s
Ġdipl om
Ġmod er
Ġaccept ed
Ġbeg ins
our ney
Ġdat ab
Ġlink ed
Ġadv anced
Ġwar ned
Ġsub sequ
Ġschedul ed
Ġne ither
Ġsu it
Ġart icles
Ġexpl an
Ġdeb ut
end a
Ġcent re
Ġres olution
ord ers
ĠSw ed
Ġsong s
am ental
ĠSp orts
Ġp arent
Ġmy ster
or ry
Ġin put
Ġab andon
Ġdes ire
I I
Ġsu c
Ġst ores
Ġath let
Ġsurpr ised
H is
ĠWe ek
Ġopp onents
ĠAfghan istan
Ġfor t
Ġnecess arily
Ġco ast
es ome
he dule
Ġimpro ved
T ube
Ġfl ood
Ġthreat s
Ġconsequ ences
ere nces
Ġmov es
Ġbut ton
T S
ĠH ist
ĠBar ack
ĠM s
er ry
Ġannounce ment
ĠM ount
Ġnear by
Ġst ood
Ġappl ied
am in
ĠSt an
Ġsp ons
Ġcompan ys
ĠW alk
or se
semb ly
Ġmag n
ill ance
Ġ4 9
ĠH ol
il it
Ġcreat ive
ĠT O
Ġp hen
Ġf ranch
ĠA ff
Ġp ra
Ġfollow s
ĠL ib
x ual
g ent
Ġrep resents
Ġincre ases
J ust
r as
Ġhead s
Ġf ill
Ġa f
ĠIS IS
Ġdemocr acy
Ġrem ark
ĠDe v
Ġperform ed
ĠDe velop
Ġsh ots
Ġt rib
T V
ĠAn other
ĠLab our
Ġt ree
Wh y
Ġrough ly
Ġadd s
Ġmot or
Ġent ry
Ġover w
ath an
Ġoff ense
Ġout put
Ġgr ab
Ġpus hed
az a
ĠAri z
us al
ĠIm age
ed y
ĠI P
Ġdec re
Ġn ative
A b
Ġs ought
Ġ4 00
Ġgu ilty
Ġb oss
Ġinvest ors
ĠP rem
Ġtarg ets
Ġbehav i
Ġconsist ent
Ġr ising
ĠCol umb
Ġreg ions
Ġbr ings
Ġhistor ical
Ġclass ic
O ther
ran k
Ġfun ctions
Ġmanufact ure
ĠC arl
Ġsc ored
iff s
Ġwar ning
ri p
ic ing
Ġcor respond
Ġres c
Ġart ists
Ġcomb ination
ĠL ake
Ġhigh light
Ġdist ribution
Ġsqu are
Ġbr ight
Ġunlike ly
iqu es
Ġsymb ol
ĠE ach
Ġent ered
Ġto m
Ġdiscuss ed
ro ad
w w
Ġexist ence
ĠO F
Ġhouse hold
Ġstr ing
as ters
T A
ĠPak istan
Ġcolle agues
Ġl ock
Ġwith d
ĠI re
M A
Ġpr int
ĠO l
Ġl ie
Ġsome what
Ġlaws uit
Ġrece iving
Ġres ident
Ġfair ly
Ġbre aking
Ġclass es
Ġwas te
al ty
A pp
Ġal cohol
Ġman age
du c
Ġill ust
Ġtemper ature
Ġmom ents
R ep
Ġd ownt
Ġfra ud
Ġs now
Ġconv in
act ive
s en
on n
Ġart ist
ĠA ut
Ġsch ol
ĠMich igan
Ġheav ily
ir ty
Ġro w
ĠR ights
ĠR ight
Ġsa v
en ger
ĠSu pp
oun g
Ġdef ined
Ġfem in
ard en
Ġl ibrary
Ġpro hib
Ġmot ion
L A
al a
Ġsuc ceed
ĠKore an
Ġbl ow
Ġl inks
Ġimport ance
Ġclub s
Ġbroad cast
R es
Ġem pt
Ġess ential
Ġparticip ants
f ortunately
Ġ4 8
Ġconsum er
Ġ3 7
ĠW ik
Ġprot ests
Ġ4 2
ens us
I nd
ĠD iv
ĠS P
olly wood
ĠBro ok
Ġst orage
O ver
Ġto w
ĠiPh one
Ġany where
Ġcont est
Ġcl ient
Ġrepl aced
Ġn av
Ġs ick
ĠBo ard
Ġr ally
ĠSe attle
ĠS omet
ĠCath olic
Ġcur rency
Ġdeath s
ĠO ld
Ġcour ts
A m
ock et
h ost
Ġc ere
0 44
Ġr ide
in em
Ġbu ying
A dd
ĠD ie
Ġrele vant
Ġmarket ing
ĠEx p
ic an
Ġalleged ly
Ġregul ations
l i
Ġfav our
Ġmet al
and al
ok ed
Ġyoung er
Ġfew er
p ass
Ġact s
ĠH el
ĠR am
Ġsh if
Ġprom ise
ĠG ar
Ġexpress ion
ĠM ot
Ġcity s
O RE
Ġspl it
ĠSaud i
Ġfac ility
het ic
Ġpl ot
ĠL ong
is p
Ġbit coin
Ġb ag
hip s
Ġcraz y
Ġclose ly
u zz
d o
Ġse es
ĠE lect
Ġan cient
ay ers
Ġc raft
Ġvers ions
ĠE ll
Ġad ults
h us
S pe
Ġp arliament
m ond
Al though
Ġtrans p
Ġmag azine
M any
Ġb ike
Ġhold s
ĠIn s
Ġr um
Ġacknow led
Ġf ashion
ĠE r
Ġplan e
Ġhop ing
ac le
Ġexper im
n ight
I F
Ġev olution
Ġis ol
H ere
Ġb on
Ġimmig rants
Ġb at
Ġemot ional
ĠTur key
Ġopp osite
ĠC ard
ĠS k
Ġsoc alled
Ġyou d
ill y
Ġexcell ent
Ġ15 0
et te
Ġtr ick
Ġw ave
Ġ ."
ĠIre land
Ġl ies
re al
on na
Ġcamp us
Ġ3 8
an ish
Ġimmedi ate
Ġdetail ed
Ġvirt ual
ĠA L
ĠH arr
Ġh ur
Ġindust rial
Ġevery body
Ġun us
Ġm ine
ĠS n
ĠW ild
D S
Ġdeep ly
Ġteac hers
Ġche ap
Ġch ain
ĠYou Tube
w ord
Ġv ice
Ġinst ru
Ġpost s
Ġfund amental
ĠH ome
ĠW atch
Ġg rown
Ġsuff ering
Ġtourn ament
ĠH ell
ef ully
Ġhard ware
Ġreturn s
Ġact ing
Ġcy cle
ĠBraz il
Ġcircumst ances
ĠSov iet
p an
h and
Ġhard er
Ġrestaur ant
Ġst range
e er
Ġp ed
ch o
Ġmain stream
t ion
Ġter min
Ġfl at
ĠD own
Ġw ins
Ġrelationship s
ĠE conom
ad el
ĠF ar
ĠE ric
Ġyes terday
Ġpus hing
el lect
ĠAg ain
Ġext ent
w ater
Ġrefer red
en a
ĠH y
Ġh at
ĠN BA
ĠP an
6 00000000000015
ol ve
Ġdec line
Ġcarry ing
Ġliter ally
ĠAs ia
Ġis land
Ġman ner
Ġme at
Ġad vent
Ġcontrovers ial
Ġur ban
Ġdiv ision
Ġrepeated ly
ĠB est
Ġpat ient
Ġm outh
st ate
Ġfor med
ĠHou ston
Ġfeat ured
ĠJes us
Ġcomfort able
ul ous
Ġconf ront
b ec
Ġoverw hel
Ġgu ide
g reg
ic ian
ĠT op
Ġem br
Ġalong side
ĠPalestin ian
ĠG ames
ĠL u
ĠPol it
ll s
Ġobs erv
ĠCl ass
Ġcompet itive
Ġfl u
ĠF il
Ġsh aring
ĠWe ve
Ġt iny
ĠAr ch
Ġra pe
Ġsign ing
Ġeff icient
Ġded icated
ĠG ra
ĠF am
Ġwom ens
Ġe gg
Ġear ned
Ġown ed
Ġdep th
Ġkind s
ĠUkrain e
Ġp ip
Ġattempt ed
et ime
Ġr ing
ang es
Ġreg ional
ll er
Ġpers ons
Ġca using
Ġcommit ment
n ic
Ġfrequ ently
an es
Ġreal ized
Ġw ire
u ated
Ġ6 4
4 00000000000015
olog ist
Ġdo ctor
Ġc ert
w est
ĠW ars
ĠM at
Ġtarget ed
Ġdescrib e
Ġmed ic
ĠWh ats
ĠC y
t op
Ġupd ated
F P
t a
ĠChar les
ĠDav is
p ret
Ġwalk ed
ĠN ations
ir ms
ĠS ky
Ġprotect ed
ĠW ay
ĠJ r
Ġf asc
7 00000000000015
ĠVal ley
Ġjoin t
Ġsk ill
Ġup coming
Ġsc hedule
ate ll
O C
ing u
Ġinsp ired
Ġt ort
Ġsurve illance
ĠT ay
ĠP R
ĠCl ub
ĠM S
Ġrep ut
ide o
Ġs and
Ġac ce
r ich
st ers
Ġser ving
ĠB at
iven ess
Ġsim pl
Ġchann el
Ġord ers
l aw
al le
Ġnews let
ut ch
ot es
ĠE nergy
es c
Ġdes k
D o
ĠTh ank
r ors
u able
Ġpl ed
ĠT it
ĠV an
Ġas ide
ĠJ ava
The n
Ġw al
om a
iz z
om ing
Ġus ual
Ġ6 5
ĠT al
Ġun employ
Ġpass ion
v in
Ġass ets
u gh
ĠDef ense
Ġknow ing
ĠL ook
ĠM ax
Ġne ut
Ġwat ched
Ġstru ck
g or
Ġl iqu
Ġsent ence
Ġobs erved
ĠM ic
ĠCru z
Ġwh os
Ġ 000
ici ency
Ġfix ed
Ġj ourney
Ġd u
ĠBr ad
Ġdo gs
ĠColor ado
r um
Ġg od
Ġsurround ing
ĠS ar
Ġcommunic ation
x y
Ġpre gn
Ġform at
Ġbas ket
ĠEn ter
ĠS C
Ġtest ed
Americ an
Ġh all
Ġexc iting
Ġd iet
Ġhe ight
b ut
Ġdeal ing
Ġpro te
Ġswe et
Ġre ward
Ġcl ients
ious ly
a ed
Ġs ending
Ġprec ise
Ġcustom er
ĠCh ild
Ġpro of
Ġfol ks
Ġag enda
Ġexpl ore
Ġappro val
ĠT w
I R
Ġf uck
l ife
Ġhot el
Q u
Ġcon ver
ĠL ord
ĠJ ord
Ġdefe at
ĠYou re
ograph ic
Ġsu icide
ian ts
Ġcon gress
ig er
end ers
Ġdom in
Ġapprox imately
ĠO S
ĠP S
Ġsubs id
or a
Ġun known
Ġprom ote
Des pite
h an
at i
Ġk ing
Ġext ended
Ġcr ash
ens ity
cer tain
Ġrefuge es
Ġ19 70
W ere
ĠW here
Ġ3 9
ĠD am
E very
Ġal ive
Ġw ake
Ġg ap
oc key
Ġcons cious
ri ve
Ġcol umn
Ġdestroy ed
Ġs ample
Ġprot esters
Ġchair man
Ġex hib
ver ty
Ġsh o
P D
ĠF our
V ER
Ġfor th
n am
Ġad ult
Ġmax imum
os is
ĠC ast
Ġmist ake
Ġvol ume
Ġmat ches
p ool
ĠAriz ona
D onald
Ġto days
Ġwin ter
Ġn arrow
Ġw id
Ġdisc over
Ġris ks
Ġbatter y
M ost
Ġslow ly
Ġrequire ments
Ġterror ism
Ġproper ties
Ġgovern or
Ġz ero
Ġnot iced
Ġattack ed
ac c
Ġprom ised
Ġhon or
Ġg ang
or ation
Ġpo verty
we ight
Ġput s
Ġe ating
ĠL ove
Ġ5 5
ĠStep hen
ĠClin tons
Ġsust ain
Ġun iverse
az i
Ġproper ly
Ġp al
Ġphen omen
Ġd ry
ĠC D
so le
Ġwel come
m pt
Ġtyp ical
Ġbill s
Ġrequ ests
Ġbl ame
Ġmere ly
ĠCont in
Ġinvol ving
Ġev il
Ġimp ressive
ĠH ollywood
Ġsudden ly
b urg
Ġlik es
ĠD etro
av or
Ġrecogn ize
Ġterrit ory
ĠK evin
Ġshe l
Ġob lig
ĠD un
ĠIn f
Ġloc ations
Ġany way
le vel
d ate
000000000000 01
Ġit em
i ro
ol it
Ġequ ival
Ġde als
d ing
ĠO N
Ġe ast
ren ce
on ic
ĠE nd
Ġdis ag
Ġvac c
ow ered
all as
Ġcontro lled
af e
Ġh unt
Ġrem ote
Ġ4 3
Ġselect ed
Ġw est
Ġse lection
um ber
Ġjournal ists
ap se
Ġthem e
Ġsupp orts
ĠRe al
aw a
Ġch ose
i i
ĠC amer
Ġpar am
Ġn orthern
ack ing
Ġh olid
Ġgood s
Ġdi agn
ot al
v a
M an
ĠC IA
ag an
ĠSt and
ĠIr ish
it als
Ġwor ried
Ġreason able
Ġall ies
O s
Ġconst ant
ĠDes pite
ub b
iam i
Ġstrong ly
E W
r ating
ph y
Ġcond em
k o
Ġsk y
ĠD i
ab is
Ġarg uments
onym ous
t es
ger y
it arian
ĠD ark
Ġret ire
Ġlic ense
Ġstud io
Ġsy n
ĠSp anish
Ġbe ar
Ġcrit ics
Ġ icon
a us
Ġpoll s
Ġ4 1
Ġperson ally
Ġdec ent
E n
Ġass ume
Ġfe es
u a
Ġpun ish
Ġhar ass
ĠTh ough
Ġtop ic
Ġb unch
Ġes cape
au g
Ġnom ine
Ġp ic
as ks
Ġobtain ed
f oot
Ġcoff ee
Ġad apt
Ġvill age
Ġlat ter
et her
Ġsome how
c ers
Ġunderst ood
ar ity
ĠTh anks
o z
Ġtre es
Ġfall ing
Ġsome where
Ġcut ting
Ġun w
Ġst im
Ġresist ance
w oman
Ġdr ag
ra id
ĠB ell
Ġch ampion
ĠC at
Ġcommunic ations
if orm
Ġf lex
Ġs ister
Ġf ake
ĠA R
Ġr ig
Ġhy d
c an
Ġempt y
ĠB as
Ġso le
Ġw age
z ens
Ġdes per
Ġmeet ings
ĠAs ian
Ġlim its
Ġexp osed
ĠAd minist
Ġv ent
Ġsqu ad
in ations
ĠC P
Ġcomp rom
ĠL and
Ġd ress
Ġfac ilities
l ong
ĠSe a
Ġsp in
c ol
GB T
Ġprof it
Ġint ellect
Ġb id
Ġf irms
Ġb oot
ĠServ ices
Ġencour age
Ġoffic ially
ĠL ew
ĠRom ney
Ġide al
Ġfif th
Ġclaim ing
Ġun p
ĠDN A
ĠN ight
Ġschem e
ult ure
ĠR og
int end
l v
Ġteac her
Ġch osen
oc ation
Ġdatab ase
Ġwrit ers
Ġdefin ition
ĠV iew
Ġdirect ed
Ġb le
D e
un ning
ĠB ru
Ġstrong er
Ġben ch
ort ed
Ġprim arily
Ġcompar ison
Ġcol on
Ġworld wide
Ġcontrol s
f ts
Ġph ase
Ġopp onent
ĠT urn
Ġgot ten
Ġre tain
Ġext ensive
Ġcomp onents
Ġvar i
ĠOr gan
Ġfield s
Ġdec k
Ġf old
Ġfind s
Ġ19 99
Ġs outhern
Ġp it
T wo
ar ry
Ġdri ven
ĠO K
us se
ĠM iller
st one
m ail
Ġmag ic
Ġde leg
ĠAc adem
ĠO per
ĠNet work
i very
Ġu pper
Ġh its
ĠY oung
Ġadminist r
y e
Ġthreat ened
Ġem issions
Ġstret ch
Ġaw esome
Ġelectric ity
Ġth read
Ġconst it
Ġd rawn
ĠO s
Ġwin ner
ci ples
Ġansw ers
Ġhous es
ĠC ivil
Ġany more
Ġmix ed
Ġeng age
Ġsol utions
Ġdist inct
in ch
ĠN HL
Ġf ighters
ĠT ake
ĠL ight
ĠVict or
Ġf lying
Ġin qu
ĠU t
ĠW ater
Ġthey ll
Ġpark ing
U R
ick en
Ġinter f
Ġpay ment
Ġpay ments
Ġperfect ly
Ġpurp oses
Ġm urd
ĠD aniel
Ġenem ies
Ġatmosp here
Ġtrad ing
Ġout come
L ike
ĠG all
ess ed
Ġam ounts
Ġg ro
Ġp od
Ġcapt ured
Ġan x
Ġreject ed
Ġend ing
Ġst ations
R el
ap es
Ġcont em
ob ile
ost er
Ġcho ices
Ġaspect s
O b
is an
Ġsign al
Ġab ortion
or ic
ĠTur k
Ġresult ing
Ġt ied
Ġrul ed
as er
ur a
Ġemploy ment
Ġs ight
Ġaggress ive
Ġwe ird
f riend
Ġt ies
ĠGeorg ia
Ġlo an
Ġreg ularly
ĠComp any
Ġph ones
Ġse ats
Ġestim ates
Ġnarr ative
Ġconclud ed
Ġprof ile
Ġlet ters
Ġ9 11
ow a
Ġtechn ologies
ĠA p
Ġconst antly
ĠA h
red it
Ġun n
ĠSoc iety
ĠDetro it
Ġter rible
ĠS outhern
Ġtr uck
rom e
He res
Ġkeep s
Ġap artment
f ree
k ay
Ġemploy ee
Ġincred ible
ĠB rian
Ġfranch ise
Ġincred ibly
ing ton
r ad
ĠCh ampionship
ĠItal ian
ĠM iami
Ġinn oc
ĠBe fore
ĠSpe cial
Ġmach ines
ow ed
ĠE p
pect ed
Ġcru cial
Ġst uck
ĠJer sey
ĠHe res
ĠC ome
ĠAg ency
Ġelse where
Ġcons pir
ep ing
Ġcontin uing
Ġex cess
Ġpro ved
Ġenc oun
Ġr ival
ĠPro gram
ĠE duc
Ġang ry
ĠY ear
ĠAd am
Ġinter pret
ĠRom an
Ġsy nt
b ar
I nt
Ġt ank
Ġepis odes
ig ation
Ġex ists
Ġcontribut ed
Ġsit uations
Ġmy th
al o
Ġinform ed
L C
Ġaccur ate
Ġcomp ens
Ġk il
ĠF C
Ġrepresent ed
ĠMin nes
Ġr us
ax y
Ġcateg ory
Ġst ead
Ġassist ant
e en
Ġdem ands
Ġbl ind
c hers
il arly
Ġrout ine
S ee
ĠPut in
Ġdrink ing
Ġent hus
ĠJose ph
ĠM en
Ġha bit
I ve
5 00000000000015
Ġ iron
Ġdep ending
ĠDemocr at
Ġconsum ption
ear ing
Ġind ex
Ġint ention
ĠIt aly
Ġexplan ation
Ġbase ball
Ġinf ect
ik es
Ġlawy ers
Ġman ip
Ġret urning
Ġro ot
Ġrec overy
Ġdo zen
Ġfeed back
ĠG er
Ġfound er
ĠB alt
Ġra ising
ld er
ĠC ross
ĠN BC
Ġpain t
Ġsu p
Ġim per
adel ph
e z
Pol ice
Ġdevelop er
Ġorgan ized
P e
ot ten
Ġtit les
C E
ĠT em
Ġgrant ed
ĠWil son
Ġpen alty
Ġnew ly
Ġassist ance
Ġg aming
o il
Ġcon ven
Ġcompl icated
l ights
ĠJ o
f ire
ĠD id
ĠMos c
Ġno body
Ġgener ate
ĠA uthor
Ġmon it
et ts
ĠL abor
Ġcompl aint
Ġconclus ion
in ity
t le
Ġregist ered
g ender
ĠH ot
Ġcon vent
ke l
Ġprogram ming
ĠJ osh
Ġant icip
ĠD allas
ĠC are
Ġsy mpt
gor ith
Ġperman ent
Ġpriv ile
Ġmove ments
ĠC all
ĠT est
Ġh idden
Ġsuccess fully
ĠJord an
Ġcapt ure
Ġtechn iques
Ġrac ial
ĠA S
ĠA D
in er
Ġacadem ic
u an
Ġr u
Ġw estern
Ġmark ed
Ġb es
Ġlaw makers
Ġn ut
ĠF ood
ĠDe ad
ĠSen ator
ĠAnt h
Ġt all
ĠC oll
Ġph r
ag ram
Ġtick et
Ġdeg rees
isc ons
isc al
Ġwar ming
anche ster
a o
ĠD ig
Ġsome body
000064400000000000000000000 2
ĠFore ign
ĠBus iness
ĠG ir
Ġsol ve
ĠC op
ĠZ eal
Ġteach ing
Ġequival ent
Ġro ster
Ġch ances
ĠPac ific
Ġbre w
Ġscen es
M L
Al so
Ġext rem
ĠT y
ĠF ord
m ont
Ġautom atically
ific ations
ĠMar c
Ġeng aged
Ġcampaign s
ack ed
Ġrep orter
w an
Ġacc omp
Ġmain ly
Ġcoal ition
Ġad s
Ġest ate
Ġr ating
Ġdoll ar
re hens
Ġsh ares
Ġregard less
Ġch ampionship
Ġbr ut
ar on
ĠB ull
ĠH T
ĠL GBT
Ġd ict
d ed
ĠF re
Ġprop ag
Ġcollect ed
Ġadv is
Ġatt ended
Ġb om
Ġoper ate
0000000000001 45
ĠI T
Ġact or
ĠA venue
Ġvulner able
if er
Ġand or
Ġcor ruption
Ġsh ips
id ency
Ġsurv ive
v y
Ġcomput ers
ĠN ick
reg on
ĠAr m
Ġaf raid
Ġtrou b
Ġen able
it ar
Ġaim ed
P er
Ġbl ocks
Ġdownt own
Ġins pir
ĠLin ux
ĠP arliament
Ġ4 6
ĠC ub
Ġun certain
ĠConst itution
Ġcamer as
r ific
ret t
re te
Ġrec ip
Ġaud io
ĠSt ill
Ġsuff icient
l ock
ĠIn vest
ever al
Ġreput ation
Ġt aught
ch ain
Ġs atell
Ġpl astic
rap h
Ġl ights
Ġval uable
ĠB oy
Ġtrack s
ĠH as
atur ally
Ġinst alled
o en
Ġrec ording
ĠM u
Ġprom inent
Ġint ense
Ġvis ited
Ġt ur
st yle
ind er
ĠAs h
ĠN orthern
Ġpass es
ĠB owl
he nt
ĠGree k
Ġ4 7
d it
Ġveter an
r ates
Ġover se
Ġunus ual
og an
s hip
m un
Ġenjoy ed
Ġent it
Ġp ace
Ġprocess es
ĠE astern
Ġd uty
Ġbus y
.... ....
Ġ25 0
Ġstr ict
ĠD ar
Ġth ick
O r
ĠK urd
d ef
Ġth in
Ġdis aster
Ġexp osure
Ġin ev
ic er
ĠT ony
ĠF red
ĠDis ney
al i
Ġcom ic
ĠF ort
Ġc od
Ġ5 2
Ġgener ated
Ġengine ering
Ġmed ium
Ġcontr acts
Ġnegoti ations
Ġp ounds
Ġtax p
ĠN ob
Ġpresident s
Ġap olog
Y es
Ġthe rap
U N
Ġemer ged
u ine
ĠN C
Ġc able
Ġcompet e
Ġadop ted
Ġen orm
Ġsp r
y stem
Ġc ow
Ġper ce
ath y
Ġc oc
Ġf ought
ib ilities
P s
az z
ĠHen ry
Ġel ite
ĠPhil adelph
Ġresult ed
Ġperson nel
as hes
Ġwork er
Ġprin ciples
Ġfun ny
Ġc up
ind ing
Ġtast e
Ġdescrib es
et ary
Ġne uro
Ġcry pt
Ġpattern s
Ġv en
em en
em an
ĠV is
H S
Ġ199 8
ĠGl obal
Ġpil ot
Ġshort ly
ĠN ote
Ġacce ler
Ġm el
qu arters
Ġh o
t witter
Ġport ion
Ġaff ili
Ġdisc ipl
ĠH om
ĠP ay
Ġrare ly
Ġsur gery
Ġevery where
ĠE s
c ies
Ġhad nt
Ġsh ock
eng ers
ĠR ay
os m
up id
c les
oun ced
Ġform al
Ġfeel ings
U L
Ġg all
ĠK ent
ĠSer ies
C an
Ġt ag
ĠR et
Ġimplement ation
ĠL o
Ġthous and
Ġc ited
Ġvis ible
ĠPol icy
Ġexpl icit
Ġparticip ate
Ġl oud
Ġdef ence
Ġal gorith
ĠV iet
Ġperm ission
ant ic
Ġhistor ic
Ġfin ance
ĠTh ree
k ed
Ġrid ic
if ies
Ġcomp onent
Ġcoun sel
Ġob st
i y
ĠF oot
ĠCo ast
Ġt or
Ġst able
ĠM ars
f ast
ĠS S
Ġve get
at ers
Ġexpect ations
Ġminor ity
ĠMinnes ota
Ġun com
or ough
h t
Ġsh arp
Ġdo zens
ĠW iscons
b our
ĠV eg
AT E
Ġto ler
Ġprior ity
l ist
Ġposs ession
Ġfarm ers
M ean
Ġele v
Ġsan ctions
b el
im a
ian a
idel ines
Ġsc oring
Ġloss es
ig en
ob s
Ġadvert ising
ĠR ef
Ġbrows er
Ġprov ince
Ġm ail
ĠL ive
Ġphot ograph
Ġcreat es
Ġfound ed
b al
ry pt
at hered
he ast
as ion
A G
B ec
el and
Ġwonder ful
ic ate
s es
Ġla id
Ġban ned
Ġdraw ing
se a
Ġrec ru
Ġpl ug
ĠI owa
Ġgen uine
im p
O nce
ĠScot land
Ġext ension
Ġy ield
ĠMo ore
re p
Get ty
ul es
Ġg ained
ĠAl ab
ĠM id
Ġbeh alf
Ġch art
p read
ĠM ajor
ĠR ick
ĠTh us
ĠG reg
b orn
ĠTay lor
ĠRep ort
ĠDevelop ment
Ph oto
Ġun iform
Ġst adium
Ġout r
M S
Ġscen ario
Ġag ric
ĠJ ac
ĠV R
Ġj u
Ġover t
Ġsa ved
Ġrel ief
ol is
D r
ĠE SP
Ġstri kes
Ġdo ors
ĠPer haps
Ġlangu ages
Ġbasket ball
Ġprinc iple
ĠO ak
Ġrecogn ized
ĠA BC
Ġdes cription
Ġg ift
ĠH un
Ġdin ner
ĠPrem ier
3 00
ĠM anchester
ri ers
ĠN ever
Ġprofess ion
Ġ5 1
ĠS now
og en
Ġw ides
ĠK elly
Ġneut ral
Ġw ing
ĠO regon
Ġmanufact uring
Ġdel iber
ĠAtt orney
ist ent
Ġ ?
ĠC O
ĠH ard
Ġexcept ion
ĠSp ain
Ġp ump
ĠH it
ĠM oh
Ġhead ed
Ġto x
Ġleg end
Ġbr idge
ure au
Ġpl ate
ol t
M P
Ġmay or
Ġext ract
ri a
ĠAb out
st r
Ġprogress ive
ĠR os
C S
b ell
ĠR oyal
m ers
ĠPhiladelph ia
Ġch a
Ġa ver
ĠAm endment
Ġfl aw
Ġinter face
ĠF und
a is
ĠK ir
ĠM ake
Ġtrans m
ink ing
ĠEm p
Mean while
u ce
Ġback ed
Ġwhe el
ĠRe view
Ġstrugg ling
ed ing
ili pp
ĠC BS
ou red
Ġlik ed
ĠF air
Ġcont aining
Ġbare ly
Ġw alls
ĠL ittle
Ġdef ine
Ġ 00
Ġsp ark
ĠInd epend
Ġbrother s
Ġwebs ites
Ġf inger
bur gh
Ġprocess ing
ose xual
Ġair port
Ġfore ver
ĠH or
Ġcann abis
Ġh ole
Ġpro port
Ġcount y
In st
Ġcy ber
m es
Ġindic ate
ĠG P
Ġfl ash
Ġr ub
Ġh ang
ĠHar ry
Ġre ly
Ġprodu cer
Ġro les
Ġstruct ures
og ether
ĠChrist ians
Ġh ired
Ġachie ved
c ons
Ġfe e
Ġestablish ment
Ġper pet
Ġc rop
ĠM ir
ĠNe xt
sel s
ĠP D
ĠAcadem y
Ġ19 60
Ġrac ist
Ġdest ruction
Ġfoot age
ĠH ay
Ġjournal ist
Ġed ition
Ġdiscrim ination
M s
Ġcorpor ations
Ġres ign
Ġeth nic
Ġgr ass
Ġredu ction
ul ating
Ġt ab
Ġphilosoph y
Ġwar rant
ĠJ ason
Ġex ternal
ĠMc G
Ġbelief s
im ore
Ġent ering
An y
Ġcon vention
ĠC H
um er
us ive
Ġb ath
ĠN AT
y ard
ĠR and
ĠMe an
ud es
ĠB ry
Ġup set
Ġterror ists
Ġintellect ual
O ff
e lect
Ġret ired
az e
Ġdel ivery
ĠMosc ow
es y
Ġb ra
Ġe uro
ĠS ir
Ġb orrow
Ġtack le
ĠCh inas
Ġhealth care
ter ing
Ġprodu cing
am ber
sy lv
Ġw ww
Ġinterview s
Ġ201 9
Ġpro ven
um es
prof it
re ll
J ohn
Ġ9 5
Ġwithd raw
Ġun ex
ĠU FC
ĠEduc ation
ĠC ore
le te
Ġr iver
Ġar range
f all
Ġrapid ly
ĠMark et
Ġcont ained
rent ly
Ġsm ooth
Ġnorm ally
Ġinc ent
Ġp apers
ĠTurk ish
Ġindic ated
ĠC irc
Ġfr ag
ĠL uc
ĠF ull
Ġwides pread
Ġshe d
ĠP ack
ĠWiscons in
M ay
P r
E A
Ġchalleng ing
Ġas ks
Ġop ens
Ġconv icted
Ġjud ges
Ġb urd
Ġmind s
Ġb ranch
C om
op her
ĠZeal and
ĠU lt
Ġoverwhel ming
Ġh un
L ets
ĠConf erence
Ġfriend ly
man n
ĠP en
Ġsm oke
ĠI R
Ġsett lement
Ġexclus ive
ĠBern ie
Ġh ide
Ġw ars
pr ise
Ġsens itive
ĠB rew
Ġill ness
Ġnot ion
Ġreview s
olog ists
Ġrecogn ition
Ġfound ation
Ġtechn ique
e ers
vious ly
ĠH D
ĠN ic
Ġut il
Ġcare fully
rou s
Ġ6 00
he ll
S ec
m ate
is ons
Ġh itting
et he
Ġinv ent
Ġfeat uring
ol en
y d
Ġsc ream
Ġs in
Ġunemploy ment
Ġm o
ĠF ield
Ġl oyal
Ġelect ronic
ĠF urther
ĠCent re
Ġb ail
Ġhe res
ĠN ation
Ġwe lf
Ġdev ast
Ġex ceed
abin et
Ġs orry
Ġpract ical
Ġsuggest ing
Ġst upid
Ġredu cing
u y
ĠI ce
ĠS at
ĠCommun ity
Ġrestrict ions
Ġsc reens
R ec
ĠN avy
ĠBe ach
Ġsubject s
ro c
Ġg onna
Ġf iscal
ach ing
Ġwelf are
ĠJud ge
Ġreach ing
Ġcoll apse
Ġro se
arr ass
ask a
ach us
ĠMatt hew
Ġo cean
Ġprep are
Ġsett le
ĠL ind
r ical
Ġview ers
Ġt ail
ent h
Ġlist ening
Ġplatform s
ĠDie go
Ġequ ally
Ġp in
Ġstrateg ic
Ġ199 7
Ġschol ars
ĠLat in
Ġrepresent ative
Ġunc lear
ay ing
Ġ199 6
it i
Ġnomine e
Ġre ven
Ġsc ores
Ġconst itutional
Ġh ook
Ġrec over
Ġ5 4
Ġcl imb
ĠO nt
Ġbeg un
Ġar ray
ĠMus ic
ĠAN D
ĠK ansas
aw ay
Ġhard ly
ĠPenn sylv
Ġcont ribute
less ly
Ġtem porary
Ġout s
Ġdemocr atic
Ġt rem
ĠR ose
ĠB all
ĠBro ther
itc hen
Ġdeep er
Ġst eal
g un
we et
Be fore
Ġrob ot
ĠD ata
n i
Ġl ists
es h
Ġconvin ced
ĠB attle
T e
Ġfear s
Ġfail ing
igh th
ĠG ov
Ġsh it
Ġcompl aints
Ġv ital
Ġtr ained
H A
l an
Ġsam ples
Ġrespect ively
Ġl uck
Ġframe work
ĠT enn
ab il
Ġshe ll
Ġlegit imate
ĠA le
w rit
Ġth rown
Ġact ors
Ġjoin ing
Ġpres um
Ġstat istics
n o
Ġcomp rehens
ol s
Ġaccomp an
ĠC ook
.. ."
ins on
Ġbehavi our
ĠChe ck
Ġtick ets
ĠAtlant a
Ġg am
Ġinvolve ment
ĠRad io
Ġf ab
ĠM ah
ĠESP N
Ġover s
ĠGold en
ĠSqu are
il ton
Ġmen u
Ġch at
ĠK at
Ġg athered
ust ed
Ġimprove ments
Ġinv ited
ĠMin istry
Ġattack ing
Ġfant asy
Ġr aces
j a
ĠX box
b n
Ġl es
un es
Ġincor por
ĠProf essor
a ire
1 01
anc ou
Ġroad s
Ġr ural
iz on
Ġdisc overy
ut ies
os it
ĠKing dom
Ġlay er
f ound
Ġcap tain
Ġrem em
Ġinvestig ate
Ġdep uty
Ġ5 3
ams ung
Ġal ien
Ġconnect ions
ĠB ab
Ġv ary
rodu ct
Ġno ise
ĠE xt
Ġsp aces
Ġsubstant ial
ivers ary
Ġrecomm ended
Ġsc andal
Ġs oph
el f
Ġf iction
Ġd iversity
Ġrefer ring
Ġleg s
ant ed
int erest
Ġcollect ive
Ġcas ual
Ġel ig
ĠA ction
P M
ĠJ ay
Ġimplement ed
ĠAlab ama
ow ing
Ġiniti ative
Ġpro sec
ĠM ill
Ġindepend ence
achus etts
ĠT ri
ĠS uch
ino is
Ġs oul
Ġpo ly
Ġtouch down
m al
ĠHist ory
Ġsuff er
ĠUn fortunately
Ġb ands
ĠSe ason
um a
4 00
Ġdynam ic
ĠW H
Ġvisit ors
Ġfact ory
Ġowners hip
C ol
Ġemb arrass
Ġing red
Ġmil k
ĠPat ri
Ġsur f
Ġcontrovers y
Ġsympt oms
P ost
ĠMed ical
Ġj ur
ĠT own
er ies
Ġt ip
Ġin ject
ĠMay or
Ġser ves
Ġpe ak
Ġw ages
Ġrank ed
i el
ĠSpr ing
Ġdisag ree
ĠDo es
Ġw ine
ĠP ent
Ġign ore
Ġattempt ing
Ġtrans gender
Ġdiscuss ions
Ġlic ens
r ance
Ġacc us
Ġsett ings
Ġbr ill
if est
Ġvers us
ĠAl bert
ĠSant a
Ġtweet ed
Ġult imate
E G
ro lled
ĠIn formation
Ġoffic es
Ġgen etic
ict ions
Ġan ger
l ad
Ġh am
Ġw ider
Ġenorm ous
Ġcivil ians
Ġmin ing
omm od
ell ing
Ġreg ulation
Ġlob by
Ġf ault
Ġ8 00
ec ut
Ġexpand ed
Ġadm it
Ġconspir acy
ĠPh ilipp
Ġf ro
ĠB ad
ĠAdminist ration
A F
Ġaware ness
Ġhead ing
ĠK ings
ec ess
Ġhyp ot
Ġdis pl
iv als
ĠW W
ph ones
ĠAnt on
Ġapp oint
Ġinter vention
P G
Ġsuspect ed
Ġh al
ĠWh ich
un ior
Ġ1 01
Ġentertain ment
Ġimprove ment
Ġassoci ation
ĠT ed
ĠFam ily
Ġf oss
ĠAP I
Ġmother s
Ġhand ful
Ġg ear
Ġt asks
Ġinfl ation
E P
Ġeas tern
Ġvirt ually
ĠVeg as
Ġcitiz en
ang el
Ġinvestig ators
Ġr aw
ĠAnth ony
Ġn ights
Ġabs ence
Ġt one
b ro
ih ad
Ġliqu id
Ġro ok
Pe ople
ĠBu ild
B O
Ġ5 6
Ġextra ord
Ġpurch ased
Ġst ake
ĠDiv ision
enn y
Ġopin ions
Ġatt ached
ĠD O
Ġrem arks
ien ces
Ġpublic ation
ov al
Ġb ars
Ġ9 9
Ġactiv ist
Ġest imate
app y
ĠWith out
Ġreg ister
Ġseem ingly
Ġexc lud
ĠA cc
o ft
Ġrec all
Ġsusp ended
Ġext end
Ġinvestig ating
av en
Ġlog ic
Ġd ance
Ġ199 5
ĠKen ned
ĠSt at
ĠRev olution
Ġholid ay
Ġaff airs
Ġview ed
Ġr ational
ĠR a
ĠHe ad
Ġadvoc ates
Ġne ck
ĠSt adium
Ġco aches
ĠF ed
Ġprov iders
Ġprof its
Ġrefere nd
Ġhuman ity
ĠSomet imes
Ġthrow ing
u its
ĠO tt
Ġtest im
Bec ause
ĠConserv ative
Ġany body
Ġdram atic
Ġorig in
Ġb acter
Ġsal ary
ick ing
Ġf ulf
ĠBalt imore
pl ed
Ġpet ition
ĠP it
Ġc ogn
ĠNAS A
ot ype
Ġshould er
Ġmar ks
Ġfall en
p es
ĠY eah
ĠMass achusetts
ĠR oss
Ġlo ans
ĠII I
Ġaddress ed
ition ally
Ġfore st
Ġsu gar
Ġmedic ine
Ġperson ality
ĠDe ath
Ġaut hent
ĠS af
Ġtri es
iver pool
S cript
ĠMar vel
Ġspirit ual
Ġ199 4
are t
Ġm aps
am med
Ġmon itor
Ġbu ff
ĠPennsylv ania
P resident
Ġam id
Ġread s
ic ity
l og
ann a
ĠT ro
m ary
Ġprinc ip
i ability
Ġgu est
re ts
av al
Ġstay ed
or neys
Ġcare ful
R ef
Ġlow est
Ġthey d
Ġ12 0
Ġatt itude
we red
l ah
Ġsp oken
Ġpre ced
Ġinvol ves
et ers
ĠM useum
Ġpass engers
T R
Ġdep ends
Ġfant astic
pre ne
ĠP ot
Ġconsist ently
ar ms
B ack
x it
z ed
Ġcl osing
Ġpre v
Ġground s
Ġw rest
Ġin ner
Ġnot ing
Ġcol ors
Ġch apter
ĠL as
Ġco vers
re prene
Ġg ains
ĠBro ad
Ġm ad
Ġwat ers
Ġmount ain
Ġacc ommod
ĠF reedom
ĠCh air
Ġ5 7
Ġinnov ation
Ġappreci ate
A Y
m aking
ĠC re
ĠL ist
ĠInd eed
ĠEn vironment
ĠIll inois
ĠSh are
Ġres ource
ric ts
Ġf ruit
Ġdiv ided
ou ch
Ġre ar
Ġl ucky
ĠV ancou
w orld
Ġspeak s
f ront
Ġinqu ir
c ling
ĠIran ian
Ġsh out
Ġencour aged
ĠD isc
ĠCle vel
Ġj ury
Ġ !
Ġr om
Ġmus ical
fl ix
Ġdep ression
Ġinter act
am i
ac on
Ġm os
ĠC ost
ĠR oy
s pe
um in
ĠG aza
Rel ated
Ġport ray
Ġtransport ation
Ġbu g
Ġclot hes
Ġab st
Ġhand ed
Ġguarant ee
ĠS cient
ĠU C
Ġd rew
Ġpar alle
ĠP op
Ġsw im
ĠB ang
h o
Ġk m
Ġdis rupt
Ġche cks
ĠL y
Ġconvers ations
own ed
Ġsw ing
Ġi P
Ġun ions
ĠAust in
ĠC C
Ġcontribut ions
Ġeff iciency
ĠInt elligence
am ac
Ġprotect ing
Ġyell ow
w orth
p orts
Ġinc idents
Ġcom edy
ĠR en
ĠH ospital
ĠD ub
u ction
Ġl ocked
Ġ7 00
Ġhand ling
Ġr het
Ġg ig
ut ed
ect ive
Ġobs er
ĠR on
ĠAll en
Ġmiss ile
ag g
Ġr anks
Ġord inary
ĠPro v
Ġj oke
ĠEng ine
un icip
Ġdist ributed
Ġinstru ment
Ġn aturally
ĠLew is
Ġvot er
Ġp orn
ĠB udd
Ġphot ograp
Ġg al
Ġi OS
Ġhor ror
Ġtemper atures
Ġcover ing
Ġprot ocol
Ġsc ope
ĠAd v
Ab out
Ġd ump
ĠP o
Th ose
Ġmist akes
Ġre vel
ann el
es ter
Ġimpro ving
Ġbl ast
Ġprom ises
r ine
Ġrespons es
Ġsc an
Ġcl im
Ġmonit oring
H T
ĠB uff
ĠA ud
ĠArab ia
Ġpl ain
ĠH ind
Ġins ist
er ted
Ġfall s
mon th
ĠSt one
ĠU se
ĠKe y
ĠColumb ia
m ad
Ġcom pe
ab eth
Ġc ust
Ġcommon ly
ĠN OT
Ġcooper ation
Ġline up
New s
ot yp
c ific
Ġl ying
Ġacknowled ged
Ġth rew
Ġast ron
Ġbro wn
og s
ĠOr ig
h ot
he im
Ġcent ers
F F
Ġcele b
Ġvir us
Ġbreak s
Ġhor se
ĠA st
Ġprem ium
ĠFoot ball
Ġliter ature
ĠL ow
ĠH ave
Ġreplace ment
Ġsubsequ ent
Ġleg acy
Ġex it
Ġ6 2
Ġset up
ĠJ am
Ġdr ama
Ġball ot
Ġg rav
Ġacqu ired
Ġreferend um
Ġ202 0
Ġst y
ĠMcC ain
Ġj e
ge on
p ower
r ison
ap ing
ĠMex ican
Ġso il
cl aim
ĠCon nect
d y
Ġske pt
Ġhom eless
osp itals
Ġdemonst rated
ĠN SA
ĠB a
Ġcon sole
Ġd ust
back s
ĠGuard ian
ĠC S
ri ent
Ġrac ism
ĠL yn
Ġpr on
Ġspokes person
ial s
ĠSt art
o ys
ĠM arsh
Ġnom ination
ĠD ream
iet ies
Ġabandon ed
Ġstri king
ĠPat rick
ix ed
Ġhelp ful
ĠN intend
Ġinc l
ĠH op
000064400000000 00000000000015
ĠAb b
Ġbo at
ĠS on
Ġd iverse
ĠN S
ĠN ev
Ġre nder
g ame
it age
Ġsil ver
Ġtrig ger
oun ce
Ġac id
ick et
Ġrat io
Ġsy mp
Ġcoun ts
ĠC apt
Ġser vers
ĠPl us
Ġpolit ically
om es
Ġst ages
Ġmat hem
Ġst olen
arr ing
Ġtrans actions
Ġt ie
Ġstud ied
ĠP ict
U nder
Ġm arch
Ġprosecut ors
Ġequ ality
O h
Ġrepresent ing
Ġass ert
is k
ĠW as
Ġf ing
Ġpartners hip
Ġprison ers
ĠD et
h our
Ġcap abilities
ES T
ĠB ron
V E
B oth
M c
Ġmeas ured
Ġste el
ĠHarr is
C s
pl oad
ĠRober ts
Ġign ored
Ġtr ave
ĠHow ard
Ġchann els
Ġcl ock
Ġperform ing
port ed
ĠA I
Ġst one
ĠP ass
Ġcan ce
ĠF all
Ġsuppl ies
Ġmid field
ĠW omen
Ġcritic ized
Ġtom orrow
Ġab road
yth on
Ġcop ies
ĠCont rol
t hen
Ġprote in
ĠF orm
ult ural
c ore
Ġfund ed
ĠH a
E d
Ġhy per
ĠE ag
Ġins isted
ct ic
Ġassess ment
rop ri
ĠPr ince
Ġtrack ing
Wh ats
ĠU r
C he
ĠCor por
Ġ8 5
ĠH o
Ġte a
ĠS amsung
Ġaccompl ish
ene z
Ġrepl ied
Ġresc ue
Ġdef icit
it ter
ĠFr ont
Ġin equ
T oday
er g
Ġconc rete
z y
ĠY OU
com es
D av
Ġread er
Ġhead quarters
Ġart ific
Ġh ung
Ġun pre
Ġabs or
Ġgu itar
Ġb read
Ġsho pping
Ġarri ve
hes is
il a
Ġr amp
Ġmechan ism
Ġapp ointed
ĠN orm
Ġhop ed
ĠWalk er
Ġus age
m ony
Ġt ape
ĠPro p
Ġrel iable
ĠC A
ĠS et
Ġlet ting
Ġgener ations
Ġtown s
at re
N A
8 00
arg o
ugh t
nt il
Ġveter ans
Ġupgr ade
ĠI C
ĠL A
Ġle an
ĠAnd erson
ak h
R I
ĠComm on
w r
en cing
ie ce
ĠM oon
Ġconvent ional
Ġbreat h
ĠA k
i ate
ĠH on
Ġbeaut y
Ġintrodu ction
Ġwar n
Ġconserv atives
m l
Ġunivers ities
ĠClevel and
Ġs alt
Ġentit led
Ġrestaur ants
Ġpop ulations
Ġm ole
Ġdom ain
Ġm ans
ord on
ĠM ach
Ġgr id
in ts
ĠD ave
Ġpres idency
ĠJer usal
in ction
st ar
Ġpropos als
ĠPort land
ĠCamer on
ĠEm ail
Ġdist ract
ĠGet ty
Ġa x
ass ador
ĠT rib
ĠC ow
er ts
ĠM aster
Ġb ow
ĠA ward
ĠIraq i
est ed
Ġke ys
ir ts
Ġcl ar
Ġbrill iant
Ġblock ed
Ġunivers al
ĠK ong
Ġur ged
d s
ĠOb amac
Ġcomp are
Ġdro ve
v ard
Ġrepresent atives
Ġsurv ival
Ġrece iver
ĠOlymp ic
ol ph
i ac
Ġtarget ing
6 00
m aker
Ġlands cape
Ġp ig
Ġdismiss ed
ĠJust in
Ġcongress ional
Ġp atch
Ġclass ified
d ated
ĠGree ce
ĠH ur
ĠNAT O
S en
oin ts
ĠEmp ire
A ss
ĠL am
Ġsh adow
ĠG un
ĠVancou ver
aw are
Ġj oy
il er
Ġ199 2
the less
sen al
Ġpurs ue
it ary
Ġpropag anda
Ġvis iting
Ġfor cing
e h
Ġden y
ack et
ues ts
Ġo kay
Ġd ates
ĠCo oper
ult ane
Ġdocument ary
Ġspokes woman
ĠA ge
Ġtact ics
Ġg ent
Ġsh ame
pl ate
ĠM ain
ĠL iverpool
Ġphr ase
Ġass ign
Ġexperim ents
Ġappear ances
ĠC ode
Ġf ool
Ġdisc our
ĠTechn ology
Ġre verse
Ġact ively
Ġ 01
Ġemploy ed
Ġprogram me
Ġintrodu ce
ĠAssoci ated
Ġ5 8
ar ia
ĠKenned y
ĠB ridge
Ġwhen ever
Ġf iring
Ġrock et
ĠB ible
ĠC hel
D s
Ġpredict ed
Ġal arm
Ġv es
Ġprodu cers
Ġm ac
ecut ive
n ame
Ġinnoc ent
Ġdemand ing
ĠUt ah
ab et
Ġpre par
ub ble
Ġth orough
Ġobject ive
ĠAm ong
ĠBer lin
p ost
Ġsa ving
Ġthreat ening
ĠBe ij
Ġlegisl ative
ĠLe ft
ound ing
ch ange
Ġr if
Ġm ath
Ġcelebr ate
c end
Ġtw enty
ĠH old
Ġ6 3
iz abeth
Ġroom s
Ġsm ile
ra h
ĠD V
E X
iam ond
Ġmembers hip
oen ix
Ġf estival
Ġb irds
I d
ro oms
Ġsequ ence
or ous
Ġsecond ary
Ġs ons
enn is
Ġcontr ad
Ġfocus ing
Ġse vent
Ġpopular ity
Ġsubs crib
im m
o j
u h
ĠEd ward
Ġfl ags
ĠWar ren
Ġa er
ĠAtlant ic
Ġ1 000
Ġtrans it
ĠDes ign
W ill
ĠB ureau
ol ves
o ice
Ġsett led
Ġdead ly
Ġrequest ed
est y
Ġprep aring
Ġn in
Ġsoc cer
p age
lah oma
rodu ction
Ġunex pected
ke ep
ik a
y er
Ġqu ote
ĠV ill
Ġchild hood
Ġviol ation
Ġdist urb
ĠSy d
Ġdesign s
Ġcou ples
Ġoutr age
F A
ro gen
ĠT our
sh ire
z ing
Ġsuspect s
Ġland ing
Ġappro ached
Ġcons ensus
ĠNet flix
Ġr ush
el a
Ġent reprene
ag h
em ed
Ġh ockey
Ġb ias
ir a
onn ell
Ġlo ose
Ġ11 0
Ġt ips
ĠP res
arch y
Ġphenomen on
Ġscient ist
S e
Ġt ens
Ġretire ment
ĠJerusal em
Ġ199 3
ĠC lick
ĠP erson
Ġw aves
c ase
om ed
ec k
Ġwind ows
or ge
Ġbon us
ĠD utch
f are
Ġplayoff s
Ġwe igh
Ġprov ision
Ġw ra
We ve
Ġtestim ony
Ġex ha
Ġsure ly
ĠBel g
AN D
oc ument
ĠO R
Ġarg ues
Ġinvestig ations
u j
Ġcirc le
b its
Ġ7 2
e als
ĠE qu
ĠGal axy
T P
Ġche st
Ġmonth ly
03 0
Ġann iversary
re f
Ġcons ent
Ġafford able
ĠB ase
Ġman agers
Ġtit led
Ġposs ess
Ġround s
Ġcomprehens ive
Ġc ig
Ġreform s
Ġdis order
p o
Ġqu oted
Y et
Ġbank ing
f ol
Ġquestion ed
ĠR un
Ġde lic
Ġs orts
Ġsil ence
Ġweek ly
Ġst ability
Ġcere mony
Ġhop efully
or ious
ĠSt ory
Ġfund ra
Ġmort g
Ġmaintain ed
Ġcivil ian
Ġdifferent ly
Ġl unch
Ġab ilities
Ġint im
te en
ĠB ud
ĠL ine
Ġrele ases
Ġf ighter
els on
Ġbroad er
Ġf ate
Ġag es
Ġm oon
Ġrel ax
ĠB ow
Ġer rors
Ġc ul
ĠTe ch
Ġtort ure
Ġro of
Ġdes erve
re ction
b ac
Ġtrem end
Ġt ut
Ġm it
Ġoverse as
h op
ames ex
ĠLiber al
ee k
ĠAlex ander
Ġharass ment
Ġpers u
Ġb urning
Ġarg uing
ĠS ure
Ġr h
Ġreve als
i ens
eder ation
ore t
ĠEx pl
Ġwealth y
ĠC amb
Ġh ospitals
Ġch icken
c est
ĠD er
Ġsp ots
St ill
Ġd ub
ĠKe ep
Ġgreat ly
ĠIndian a
ĠQue en
ĠM etro
Ġsmart phone
ĠHaw ai
F acebook
Ġadvent ure
c ar
Ġ6 1
ĠMar x
ic ts
Ġsh ield
ut en
Ġint r
Ġexec ution
Ġimportant ly
Ġdisp ute
Ġste pped
Ġsubm itted
Ġg if
Ġmin isters
ĠCr ime
ĠInd ust
Ġ6 6
he ld
b ered
ten ance
as ant
Ġrat ings
Ġp icks
Ġanx iety
Ġlong time
St ar
ĠS av
Ġcal m
b i
Ġstrugg led
? ?
Ġ18 0
Ġgrad uate
lf riend
ber ry
Ġwhere as
R C
Ġtr illion
Ġpoin ting
Ġaward ed
Ġencoun ter
Ġb orders
Ġdri ves
Ġ5 9
ĠS D
ĠDen ver
Ġdist ingu
hold ers
Ġg ross
Ġconsider ation
w ith
Ġsm oking
ĠMc K
Ġemer ging
Ġass igned
00000000000015 3
Ġimpl ications
ag a
ĠK ar
ous es
Ġwant ing
Ġpip eline
M e
Ġaut onom
ĠT en
Ġcoin c
ĠMag ic
Ġsatell ite
a ver
Ġsav ings
Ġass ass
Ġprecise ly
Ġvo ices
Ġcoord in
ĠObamac are
Ġprom ising
ian o
Ġkil omet
Ġinstruct ions
Ġb ot
ĠV ideo
j ud
Ġphys ically
Ar t
ĠMean while
Ġsim ultane
ĠSwed en
US T
1 99
Ġnon profit
est yle
ast y
Ġform ation
ĠTe le
Ġrepe at
Ġnewslet ter
Ġfood s
Ġstay ing
S m
Ġassum ed
ĠLe ader
ĠCap ital
ĠJ ere
Ġdial ogue
ĠTh rough
Ġan s
Ġp uzz
Ġathlet es
Ġodd s
Ġhigh lights
ĠSar ah
Ġremark able
rib utes
Ġkn ee
Ġpo ison
ann y
Ġparticip ation
Ġtrans action
ĠRuss ias
g ener
Ġsen ator
ĠQue ens
port ation
Ġcontact ed
ĠSil ver
is a
Ġrec re
E E
ĠBre xit
ĠM ORE
Ġcateg ories
ĠF al
ĠT es
Ġpromot ing
Ġeduc ational
Ġs ou
Ġdis h
ĠG ulf
od ox
r if
ie v
Ġmeaning ful
AL L
Ġfather s
1 02
ĠAr k
Ġenh ance
ors hip
Ġg ate
ĠScott ish
Ġar bit
Ġstream ing
ĠSte ven
Ġdemonst rate
cept ions
Ġst ored
Ġst em
Ġl ad
ke ys
Ġc ro
C ons
Ġse ar
Ġcompet ing
ĠL ink
Ġh ip
Ġmarg in
ĠS ab
Ġbl ank
Ġleg ally
Ġrook ie
Ġstrateg ies
Ġre vers
Ġdefe ated
Ġexecut ives
ĠI ron
Ġd ying
Ġo m
Ġhost ed
ocol ate
L ook
h att
Ġdef ending
Ġdifficult y
pt on
ĠJon athan
Ġt ap
at ar
ĠML S
Ġfoss il
ĠS ource
Ġ6 7
ĠPalestin ians
Ġr iding
Ġd ating
ĠGra ham
Ġend orse
ced ented
Ġins pect
Ġunf air
Ġstud ying
Ġmem ories
ĠAs sembly
ĠV ice
Ġmin istry
ĠS hes
Ġs amesex
ĠLe on
Ġcreat ures
Ġl ux
03 5
ĠM ess
Ġrec ipe
Ġe ase
P lease
Ġarchitect ure
Ġman aging
Ġbatt les
R L
ĠMr s
Ġw ounded
Ġd ad
ro ph
ĠG O
Ġv ig
o op
ĠOk lahoma
Ġaccess ible
Ġsuper ior
St ory
ĠE ff
Ġopen ly
ĠB al
Ġjud gment
Ġmem or
Ġdon ations
Ġproced ure
ĠC reat
M ar
ĠS us
Ġag ed
ĠSe an
Ġt ables
y o
n ot
ĠChild ren
ĠF riend
Ġtri als
T ER
Ġcr us
od ed
b rid
ĠGovern or
ile y
ier ce
vertise ments
Ġdise ases
ap olis
ou ri
H er
Ġn ic
Ġun con
ĠTenn es
Ġal ter
Ġfrequ ency
ic ism
Ġdepart ments
N ote
ĠB M
ĠC ra
Ġcre am
Ġt ired
ĠW ales
Ġmiss ions
ĠBru ce
Ġn erv
Ġinc hes
ater al
ĠG ary
it ol
Ġcont ribution
ĠS om
Ġextraord inary
ĠE th
Ġcent uries
Ġanaly st
S te
Ġgl ad
ĠS ony
Ġneighb ors
ĠI M
H z
04 5
Ġgu idelines
ig ate
ĠWhe ther
ĠB ox
Ġunpre cedented
ar ation
ĠA z
ĠHar vard
ĠOnt ario
it udes
Ġm ood
Ġdist ricts
Ġthe ories
Ġrac ing
Ġcust ody
Ġsign ature
Ġorgan ic
Ġfac ilit
Ġdam aged
Ġs ed
ĠL t
ĠC redit
Ġ19 50
Ġperce ived
Ġburd en
ĠBl oom
Ġimp ression
ĠT ok
ĠR T
Ġter r
pp ers
ĠT ai
Ġmoder ate
et ch
Ġdiscuss ing
Ġexpand ing
Ġman ifest
ĠMan agement
ent er
ĠG T
m o
Ġindic ates
Ġchar ity
se ct
qu est
Ġclot hing
ĠViet nam
Ġback ing
Ġdomin ant
ad ers
Ġspe ll
all ing
Ġl apt
ĠG il
Ġar r
ĠB oe
Ġsm ell
enez uel
Ġinvest ments
ep s
ĠK ick
om y
ĠMary land
Th ough
Ġse ed
ĠCap tain
ar re
as ury
le ys
os ystem
Ġobs c
ĠEx per
pr int
ĠInst agram
iz er
Ġ199 1
ĠAff airs
usse ll
R uss
Ġsh r
ĠV ik
Ġregul atory
Ġelig ible
Ġsubst ance
Ġemploy ers
iz za
av ed
Ġstop s
ĠC am
Ġf ur
S L
Ġpass age
ĠH ong
ĠEl izabeth
ĠL i
ĠTr ade
Ġaddress es
Ġpick ing
ĠF inal
Ġgraph ics
Ġbe ating
aed a
Ġblock chain
ĠNintend o
C omp
Ġre nd
Ġso vere
Ġpull ing
p en
Ġmem o
7 00
Ġfollow ers
Ġt iss
Ġp ill
Ġsurv iv
Ġ6 8
b ian
Ġunder lying
ri ors
Ġle agues
Ġbe ings
Ġdiv or
Ġstat ist
ib l
Ġmus cle
Ġn ons
Ġsh ipping
Ġk itchen
Ġl oves
Ġtwe ets
ge red
d oor
Ġbott le
Ġsix th
02 5
Ġp ocket
Ġro y
Ġspect rum
Ġe ager
ri x
Ġtim ing
Ġcoach ing
Ġbe ach
Ġteam mates
Ġgather ing
ass y
ĠRub y
ĠS ix
ĠN one
A B
ĠG iven
Ġcl er
b ow
C L
Ġpresent ation
P P
Ġint ellig
Ġt ons
Ġb in
01 4
ĠB i
au nt
ĠR oll
ĠR ather
ĠRep resent
ĠPh ill
Ġengine ers
ĠC B
ĠPri v
ĠP ers
ĠR s
Ġph arm
Ġclin ical
ish op
Ġmanufacture rs
er ia
it ure
Ġgr ade
Ġton ight
Ġprefer red
Ġridic ulous
Ġinter action
h ar
n ew
Ġinst ant
Ġc ock
Ġb old
Ġans wered
ĠPhot os
land o
Ġh ire
os a
Ġexpl aining
Ġar c
ĠPit ts
ĠPr ice
Ġhom osexual
Ġrec ruit
ak a
ĠSt ation
Ġlo op
yl um
st al
ĠUs ing
ĠO x
in f
Ġout lets
bre ak
Ġreb els
Ġacknow ledge
Ġcapital ism
Ġcomp at
h r
S ource
Ġhe lic
Ġfl ed
00 3
Ġar ts
Ġindust ries
igen ous
ac hel
ag ic
Ġegg s
ond er
Ġpart ly
Ġtem por
01 6
Ġesc al
inc ol
Ġrequ iring
Ġpunish ment
Ġdr one
Ġe cho
Ġarri val
Ġcor rupt
Ġsign als
Ġperm it
ĠAnd re
Ġover come
ĠBeij ing
pl us
ĠEx ecutive
ĠB on
Ġst ance
Ġmer ch
ĠSt ore
omp son
ĠC R
ĠP A
Ġscr ut
Ġcom ics
Ġ19 89
Ġst ere
Ġtherap y
unicip al
K E
Ġrem oval
re c
ĠJ enn
og y
or gan
um ble
Ġeconom ics
Ġcompens ation
oc a
Ġbad ly
Ġdisapp ointed
ĠCl ark
Ġmod ule
Ġunder t
Ġevery day
Ġweak ness
Ġvar iable
ĠPh oenix
Ġtox ic
Ġrhet oric
ll a
Ġs its
P art
Ġlab our
Ġfrequ ent
Ġproced ures
it ual
Ġgen es
Ġc ens
m ind
Ġcol our
alt ies
Ġsearch ing
ĠC arter
ĠP u
00 1
ple te
Ġmig rants
en ess
ĠG DP
Ġbill ions
Ġconv ince
Ġelim inate
V iew
ĠBat man
in ter
W atch
d es
c ut
Ġle ct
ĠS N
Ġattract ive
Ġl ift
Ġro lling
ĠEvery one
lin ing
ĠA ccess
ĠIsra els
ang le
ĠW olf
ĠT s
Ġm ask
ig g
Ġcoll aps
ol ving
ĠThere fore
Ġinv asion
Ġinst ances
Ġinst itution
Ġhelic op
aren cy
Ġcommand er
Ġrequire ment
r ac
ĠF estival
ov a
Ġocc urs
Ġut ility
ĠF inally
Ġsp an
Ġn urs
Ġg uests
m at
Ġperiod s
ĠH oll
S im
Ġcamp s
Ġdream s
al ysis
Ġnot able
ĠDig ital
ab s
Ġc iting
Ġcou p
Ġpoll ution
Ġanaly sts
Ġsh ocked
le e
Ġpsych ological
j s
Ġrec on
ĠY an
ĠC ro
ĠF A
er a
Ġtop ics
Ġse gment
l as
ĠE vent
Ġpost ing
Ġper ception
Ġcontem porary
Ġb ene
ĠBel ow
ĠJ ean
Ġaim s
ĠCharl ie
Ġd ies
min ute
ĠV en
Ġbul let
ĠSyd ney
Ġsent enced
ĠH ad
ag ger
Ġro ots
ph a
Ġcollabor ation
ĠGod s
01 7
Ġbu ck
Ġcar ries
ĠO cc
Ġdram atically
Ġfab ric
ah u
Ġfunction al
Ġb ure
Ġprospect s
g us
Ġtrend s
Ġe lder
and ed
pt ions
Ġdemand ed
ĠOr der
Ġex port
ĠB ul
Ġtal ented
Ġmain tenance
Ġun ve
augh ters
ik h
Ġdeploy ed
Ġpart ys
Ġencour aging
amp s
em ic
Ġshe et
Ġple ased
ĠK now
Ġbe ll
ĠT ax
R ed
Ġsh oes
Ġinf o
Ġse ctions
ĠT able
ĠS U
05 0
ĠH oly
Ġappro aches
Ġg est
00000000000015 4
11 2
D ont
Ġcon vert
H es
Y our
ĠP sych
Ġconce pts
ĠE st
Ġvolunt eers
ĠY emen
Ġcorrect ly
r ators
Ġcommunic ate
Ġkn ock
Ġinter pre
it o
Ġdr unk
Ġadv iser
ixt ure
Ġprincip al
Ġam endment
ĠW ould
Ġir re
al ia
ĠAr gent
E arlier
ĠHam ilton
p ed
r ons
Ġdiplom atic
ĠG ro
Ġpar ad
ĠSt ew
ĠW r
Ġpubl ishing
Ġu pload
uild ing
ĠB or
Ġres erved
Ġland ed
Ġinequ ality
Ġconstit u
ĠMor gan
is hers
Ġparalle l
ĠS ound
Ġec osystem
r in
ĠV enezuel
ĠEconom ic
Ġcogn itive
he nd
Ġs essions
ĠE ver
Ġpregn ant
Ġf er
Ġins ight
m od
ac les
ri ving
Ġprompt ed
Ġche aper
Ġconscious ness
Ġdisplay ed
Ġant ib
Ġexplos ion
ĠC ase
ĠLib ya
w alk
Ġrecommend ations
Ġbr ands
b ury
Ġut ter
un a
Ġmod ified
Ġrepresent ation
ative ly
Ġhero es
Ġbut ter
Ġ vert
ĠH al
F inally
Ġad equ
Ġengine er
ĠL ibrary
Ġfat al
Ġless ons
Ġbi ological
Ġdead line
Ġingred ients
Ġan onymous
B M
ĠW ord
C A
c asts
Ġartific ial
Ġmyster y
Ġg ene
Ġ1 02
ĠChel sea
ĠZ e
ri or
ail ed
th rop
Ġspeak ers
ĠC ON
p a
ĠOn line
Ġche ese
ĠU ber
ĠF ive
Ġopp osing
ĠC orn
ĠPlay er
ĠD ur
Ġv end
aw ks
Ġspeak er
ann on
v an
v ision
Ġp unch
ĠAd ams
Ġsil ent
o is
Ġassoci ate
vern ment
ĠL ear
Ġviol ations
Ġn ose
Ġmin imal
ĠE nt
Ġpeace ful
Ġtr aged
Ġown s
W here
u z
ĠOak land
ĠH and
N BC
is dom
Ġn a
se ction
Ġoccas ionally
on z
Ġf ights
Ġp ir
St ep
Ġconst itution
ĠDo ctor
Ġst ro
ere nt
Ġadop t
Ġrep air
Ġopp ose
Ġv oid
Ġbirth day
Ġinterview ed
ĠL im
Ġprofession als
ĠB urn
Ġsub ur
ĠFranc is
ĠHe y
M AN
Ġwed ding
ĠC ould
ak i
ĠJava Script
Ġref use
Ġperform ances
ĠF ant
Ġl ibr
Ġgen re
le ans
ĠK r
Ġconfig uration
Ġlif etime
Ġcomp r
04 7
ĠP ant
ĠE T
ĠBrook lyn
ĠSh ort
art ed
E l
ov en
Ġemphas is
ĠP age
Ġass et
Ġgu id
Ġse ized
ĠG ordon
ĠTennes see
ol as
ĠL incol
Ġv ocal
ĠG ib
03 7
Ġres olve
ĠH aving
Ġbre ast
Ġunder ground
ĠH art
i F
ĠSt aff
ab e
Ġmin im
ĠMar ine
at ics
Ġacc um
ĠT otal
01 2
Ġinquir y
Ġdescrib ing
og les
Ġin he
ĠSte el
Ġjump ed
Ġatt orneys
gr ade
ĠYou ll
Ġback up
ĠAl i
C o
ĠR ome
AR T
Ġoff season
ump h
Ġmaintain ing
Ġbrut al
Ġh anging
ĠM ove
ĠAuthor ity
ob b
ĠFollow ing
Ġgir lfriend
Ġdesper ate
G E
Ġisol ated
Ġbo ards
ĠAl an
Ġth ro
Ġj ihad
Ġstart up
Ġbox es
Ġrefere nces
ĠS H
amp amp
Ġadvoc ate
Ġcl ip
ĠProt ection
Ġsum mit
g ly
c os
ĠB an
ĠP oint
ot ing
Ġintegr ity
Ġgu ards
Ġconf used
el ing
Ġin du
Ġnerv ous
ĠJ oin
Ġst ack
Ġintegr ation
u per
ĠAn na
ĠDr agon
ĠPost s
ĠSim on
Ġless on
Ġsustain able
03 6
Ġp m
Ġgame play
ch ild
Ġimp osed
Ġinter ior
Ġcho osing
Ġprof ound
Ġp a
Ġcred its
Ġpat ri
Ġy eah
Ġstim ul
Ġemot ions
Ġm ice
Ġneighb our
ĠKent ucky
Ġconcer ning
ĠR ussell
ĠTr ust
ĠD ick
Ġload ed
ĠPitts burgh
ir s
ĠR est
Ġhost s
ĠRes erve
Ġdon ors
Ġv it
ĠIndepend ent
is d
Ġdef ender
ĠH u
Ġtravel ing
Ġrec alled
Ġan cest
Ġinterpret ation
Ġsurround ed
Ġpri ze
Ġd ual
play er
S C
Ġsen ators
ĠTh ompson
ĠMur ray
Ġadminist rations
Ġenthus ias
og a
ows ki
N ame
ig ious
v as
Ġth re
ĠOr lando
Ġeng ines
ĠA FP
Ġl in
Ġcharg ing
ke e
Ġdesign er
Ġ6 9
Ġs ne
Ġst ating
Ġexist ed
Ġaccept able
ĠMic hel
Ġdesk top
Ġmult i
Ġkick ed
ric ane
Ġfor um
Ġ7 6
Ġpromot ion
Ġrel ation
Ġdom inated
Ġinspir ation
Ġalgorith m
ĠC ustom
ist ant
Ġtremend ous
ag en
Ġj er
Ġg ut
ĠH ung
Ġback s
Ġcomprom ise
Ġembr ace
ĠPent agon
ĠP H
ĠE t
ĠKh an
ĠH an
Ġmoment um
ĠB ra
Ġsubs cribe
Ġdel ight
Ġclos est
ĠCap itol
on ed
ac her
Ġoccas ional
th odox
Ġexecut ed
ĠLe ban
Ġbom bs
ĠMount ain
Ġchildren s
ĠN azi
ĠRuss ians
Ġqu it
O K
ĠN on
ĠH amp
ĠTal ib
ac re
ol i
Ġrem oving
p at
Ġmilit ants
Ġcharacter istics
Ġpr ide
ĠSp ir
Ġs wit
02 7
ress ing
Ġref ers
ER E
g ets
Ġm ile
end ar
ari os
Ġev ident
Ġch ronic
ĠSh ould
Ġrob ust
T ON
ĠB arn
Ġsh irt
Ġat he
ĠDel hi
Ġlob b
Ġeng aging
ĠCo al
C lick
old s
ĠInd ones
ĠEvery thing
Ġelect oral
ĠL ater
Ġwond ering
D ef
Ġh arsh
Ġcontr ary
ĠA aron
Ġspec ulation
Ġbur ied
ĠL es
ĠOr leans
ĠNot hing
Ġrefuge e
Ġcreat ure
Ġdisapp ear
V P
ĠPak ist
Ġbrief ly
Ġsub mit
ĠE ve
Ġas sembly
ol ar
ĠPort ug
U C
ĠT R
D em
Ġte eth
Ġide ology
er ving
ĠCh ange
ĠMan hatt
Ġrevolution ary
od ing
Ġout comes
Ġexclus ively
i ated
ĠO cean
Ġann oy
Ġh oles
Ġabst ract
Ġfl our
Ġcy cl
ĠR aj
Ġconsider able
Ġg ri
Ġsurv ived
Ġcha os
iz ations
Ġphys ics
Ġregist ration
od ge
ĠE b
Dav id
Ġpro st
Ġrout es
Ġpro be
ig ration
ĠTh ink
Ġstrugg les
ĠT el
ĠC ant
ult y
Ġmet h
Ġprin ted
Ġunn ecess
Ġjust ify
Ġhousehold s
Ġme al
con f
Ġcrim inals
Ġsoph istic
Ġsubsequ ently
ĠBar b
Ġh iring
Ġbank rupt
ĠAnton io
Ġacqu is
Ġconcer t
ĠSing ap
N e
Ġtaxp ayers
oin ting
P re
th rough
Ġstead y
Ġple asure
Ġlog o
Ġf el
Ġpat ent
Ġbure auc
Ġev ac
ĠCh annel
ĠAll iance
Ġcap s
ar o
at tered
Ġsex ually
gr ad
ĠCo le
Ġkey board
Ġstreng then
Ġend ors
Ġexp ense
ĠCon vention
ĠY ears
Ġep ic
A ct
Ġm ens
P C
ĠAre a
Ġl os
ĠM orm
ĠBe ing
ĠM ult
Ġelect ron
ĠU b
ĠL og
w ed
Ġrad iation
ĠG iants
ĠN O
ri v
Ġfle et
Ġign or
Ġdef ended
Ġo xy
Ġchalleng ed
Ġaut o
Ġas ylum
Ġpack ages
ĠM un
oc ated
ĠTh ings
Ġre ass
ĠPer ry
ĠR h
r ics
ment ed
Ġcur ious
T op
ern and
O ut
Ġb ird
Ġatt ending
ĠE C
ĠOb s
Ġjournal ism
Ġconf usion
ĠJere my
Ġw et
Ġanim ation
1 07
05 5
ĠCanad as
off s
N T
Ġnow here
Ġle aked
04 6
Ġde emed
Ġdro pping
Ġch ip
Spe aking
11 5
ĠComm and
Ġfle e
Ġfail s
ĠD M
ĠFl ash
Ġorgan is
Ġagree ments
Ġm art
Ġb owl
St ation
li hood
ĠAb d
Ġmon ster
Ġdevelop ments
F l
Ġsold ier
Ġbomb ing
Ġcol leg
ĠS ci
Ġdo ct
Ġcourt esy
he ro
ĠB and
ades h
St ate
el ve
Ġr ic
Ġin her
m ble
ĠP ope
Ġprodu ces
ou b
ĠMiss ouri
h ire
om ic
Ġem bed
ĠF uture
Ġbacter ia
Ġeng agement
a uthor
ĠG h
Ġpack ed
Ġintegr ated
ĠD E
ĠNet her
R eg
Ġpan els
row ing
Ġsl ot
ĠFig ure
w ich
Ġplan ets
Ġpres ents
ĠM other
ĠO sc
ik i
ĠMont real
ĠMP s
Ġcheck ing
ĠUkrain ian
Ġmir ror
Ġrec overed
Ġintim id
Ġd aughters
12 5
Ġinev itable
Ġguarant eed
Ġcour age
Ġfig ured
Ġright wing
ist le
Ġexp enses
N ext
ĠF O
Ġrepe al
Ġattract ed
Ġdepend ent
ll ers
Ġfing ers
Ġen act
01 3
Ġd a
ĠBl ood
i ar
ag u
Ġc osm
app ropri
Ġforg otten
K e
st arter
Ġf ert
ĠV lad
Ġsc ared
Ġra ises
Ġsusp ension
res hold
Ġpubl ish
Ġrest ore
oph ob
ĠS a
re ck
ĠB C
IL L
Ġsc ar
Ġsurprising ly
M od
Ġp itc
el le
Ġfl ights
Ġedit orial
ĠStud ies
Ġsimultane ously
ĠR y
Ġj unior
ĠAnd y
ĠUn ivers
Ġaccur acy
im mer
Ġt ear
Up date
Ġfl avor
M us
Ġal ert
Ġang le
im ir
Ġdes p
Sh are
Ġk iss
Ġkill er
Ġbo om
Ġhunt ing
ĠJer ry
d ad
ĠCra ig
1 47
Ġt anks
Ġwitness es
Ġdoub led
G ener
ĠPl ace
crib ed
C ur
13 0
Ġoccup ied
ty pe
Ġav o
Ġproduct ive
Ġb iz
ĠO pp
am ous
Ġcon secut
if ier
b oy
Ġc abinet
Ġneighborhood s
Ġsol o
Ġblock ing
part y
Ġabs urd
Ġst atic
Ġdecre ase
Ch rist
m ath
Ġproport ion
AT CH
Ġsh ops
m ade
Ġcontin u
1 03
Ġ19 88
ĠEnter tain
Ġpromot ed
cript ions
Ġrank ing
ĠT ype
ĠF ather
ĠMore over
Ġresearc her
Ġad j
01 9
U M
ĠQu est
Ġt ent
Ġmotiv ated
Ġexam ine
Ġexpect s
inc ome
ĠN A
P aul
Ġvis its
D R
Ġtransp arency
Ġ7 7
ĠNev ada
ate ful
im s
Ġconcent ration
Ġsur ge
u els
ĠTre asury
Ġch ips
ĠPr in
ĠJohn s
1 05
ĠM ail
Ġnation wide
en h
ĠK l
Ġexpect ing
ĠMod el
Ġrec k
ĠChrist opher
ĠI V
Ġkn ife
Ġqual ified
Ġprivile ge
ĠC old
Ġbl amed
ell ow
1 04
ach ment
ĠAb u
ĠM arg
Ġas semb
ĠBrown s
Ġvari ables
ĠP ir
Ġconflic ts
Ġoccas ion
Ġall y
ĠLe vel
o vers
Ġen abled
Ġimp acts
Ġc inem
ĠE PA
Ġfl av
ĠJ un
Ġident ical
Ġm ales
Ġres erv
t arian
f ather
Ġprov isions
Ġcor rel
Inst ead
Ġmod est
Ġburn ed
Ġb its
Ġv oc
gg ed
ard o
Ġuncertain ty
Wh o
Ġcert ific
Ġ19 84
ĠD uke
Ġsc rew
ĠOlymp ics
ĠEd it
ĠGr iff
Ġdet ention
w a
Ġin ex
Ġinflu enced
Ġuncom fort
Ġinvestig ated
Ġin aug
Ġorgan isation
ĠCanad ians
ul se
Ġb ases
00000000000001 47
ĠP a
ĠG ill
Ġsy nd
ĠApp les
Ġearth qu
ĠOff icer
ĠH ug
ĠMiss iss
ĠUn like
Ġpass enger
Ġrel uct
Ġev olved
che ck
ĠCapt ion
ĠCl imate
R em
ĠD a
Ġm useum
u ating
Ġl ens
Ġexplicit ly
Ġdepart ure
Ġsu ck
Ġlif estyle
d em
Ġrele asing
Ġo rient
Ġcheck ed
Ġfunction ality
Ġl ane
ĠC as
Ġappl ies
ix el
1 06
Ġover l
Ġtransfer red
Ġsim ilarly
b ound
ĠIm m
Ġall iance
12 3
ĠH ans
Ġis lands
Ġb ol
Ġdim in
Ġout f
Ġdirect ors
Ġd iver
ass ion
ethe less
mer ce
ĠD rug
Ġbab ies
Ġanal ys
Ġacc ord
re nd
Ġtele phone
ĠRed s
in ite
Ġo ught
Ġvent ure
Ġtr ains
Ġbureauc r
Q L
Ġb arg
le ep
Ġfil ter
Ġlux ury
Ġd irty
Ġcrit eria
ĠComm ons
ll or
ĠManhatt an
ĠPro duct
u i
il ation
Ġ19 86
C omm
Ġdest ro
Ġimp ressed
io x
Ġro lled
ĠLincol n
qu es
ĠChair man
Ġme g
ĠD ak
rif ice
02 6
Ġmet ers
Ġsusp ic
ĠWar ner
ĠFil m
ĠPatri ots
Ġhead lines
ĠJim my
02 4
Ġconsecut ive
ur ches
ĠC ry
p in
Ġdist ribut
Ġimm une
Ġhand led
W he
ĠEd ition
ĠN az
le ading
Ġpass word
Ġst ats
Ġguid ance
bo ys
03 4
Ġg arden
ĠT ower
ĠH unt
Ġaccept ing
ren a
Ġa wards
ĠW om
ĠC ars
ĠD rive
ĠSupp ort
Ġregard ed
Ġsa ke
L ist
e le
ĠG ard
ĠS everal
For mer
c hest
Ġfuck ing
ĠMar io
Ġf ed
B N
Ġoper ated
Ġpain ting
Go ogle
ĠSum mer
ĠS EC
an im
Ġball s
ĠN ich
z s
Ġsole ly
Ġreal istic
ĠTh ird
Ġcons ists
Ġin box
Ġrese mb
ĠS in
ĠD al
ĠMedic aid
ĠNether lands
Ġcompe lling
ĠStand ard
Ġsust ained
ĠFin ancial
ĠEgypt ian
M ich
in stein
Ġent rance
Ġcoin s
Ġen for
Ġdis abled
Ġlaunch ing
ot te
Ġstri p
Ġf its
Ġ7 8
app er
Ġ3 60
Ġb icy
olit an
ĠE mer
arg et
ĠM ap
ig e
Ġit er
07 5
ok er
00 5
ĠL ad
Ġwin ners
ĠT am
Ġbel t
ĠD omin
ie re
Ġ7 4
Ġconv iction
ĠD u
amp a
r ition
Ġinvest ed
Ġinflu ential
ist ol
ĠInt el
g ate
ĠCh ampions
ĠS E
ĠRe agan
Ġbene ath
Ġpres erve
Ġimm un
Ġlay ers
ĠOther s
Ġsupposed ly
ĠB L
ĠO il
ch ing
Ġpol ar
gr aph
Ġdr um
ag ine
B s
l aim
Ġsub tle
Ġexc use
ĠAr senal
Ġt ears
Th anks
ĠN iger
ĠIn n
Ġor bit
Ġw ise
ia h
Ġsec ular
Ġent ity
ĠMal ays
Ġoper ators
Ġprevent ing
Ġdec or
Ġf ires
Ġunf ortunately
ĠFor ces
Ġbul k
Ġtrail er
ĠR angers
Ġpoll ing
Ġpar ks
ĠF a
ick ed
ĠSingap ore
ĠGo ogles
e lection
viron ments
on ing
Ġinnov ative
Ġdest ination
Ġimp rison
p ack
Ġke en
bour ne
Ġb other
Ġresident ial
Ġphotograph s
Ġb ip
201 6
ĠTalib an
Ġtow er
il st
Ġsto pping
Ġtraged y
Ġshel ter
Ġwire less
A g
Ġm m
ĠTr ue
Ġmiss iles
Ġmand ate
ĠCome y
ĠC itiz
Ġreflect s
ubl ished
Ġaccompan ied
Ġform ula
Ġrec ession
Ġoper ator
ĠSing h
ĠHit ler
Ġpost er
ĠN ash
ter y
Ġin hab
ĠB ir
cc a
Ġnewsp apers
Ġad ap
Ġjur isd
ĠH IV
Ġor ange
Ġman ual
06 5
ĠM ind
Ġaccus ations
Ġfin ishing
ĠOrgan ization
Ġd ressed
ĠChr on
Ġt ension
Ġthe oret
Ġb ump
ur se
Ġexam ined
Ġkid n
ĠP ear
ĠCorpor ation
Ġj et
Ġel abor
Ġle ak
Ġinf ection
ĠPlay Station
ĠHar per
ĠS ex
itt ees
ĠF R
ĠMedic are
Ġwal ks
J P
ect s
Ġch ocolate
ist a
Ġcompl ained
Ġb one
ĠF OR
am ents
ĠF ro
A re
Ġpo et
ĠSo ft
ĠL arry
Ġdocument ed
Ġexperim ental
Ġfavour ite
ĠWin ter
Ġspeed s
ĠGr ant
Ġcle ared
Ġbeat en
i ors
Ġg ym
ĠL ocal
ĠSt ock
ĠBec k
Ġintellig ent
m ir
Ġan ch
Ġto ss
oll ar
Ġoccup ation
Ġsee ks
ĠK a
ĠS ac
Ġpain ful
Ġass ists
ar ians
E s
03 3
Ġpolit ician
uck er
Ġde ce
Ġparticip ating
Ġ7 1
ĠV in
ĠStan ford
th ur
Ġout standing
Ġcop s
03 2
ĠM A
ix on
ĠiP ad
ite ment
Ġreview ed
f r
Ġsignific ance
id al
Ġproject ed
ĠPhilipp ines
ĠE D
ĠContin ue
Ġbe ef
Ġspot ted
f s
Ġm ouse
ĠPet ers
ipp i
p ace
ĠB ol
ra el
Ġcontain er
oc ur
ree k
Ġpra ised
ĠKurd ish
ĠSte am
w ords
le ted
Ġal ign
Ġconstruct ed
Ġmyster ious
Ġreg ret
Ġdis g
ond uct
Ġtrad ed
Ġautom atic
Ġne ur
Ġ13 0
ro ck
Ġfore cast
1 45
Ġth reshold
Ġb ags
ĠCom b
ĠPe oples
Ġoccas ions
ĠEntertain ment
Ġ7 3
ĠCor p
Ġcirc uit
N et
ust ing
Ġconver ted
ĠW right
Ġprov ider
ĠRed dit
Ġicon ic
Ġhor rible
ef ul
Ġp ose
Ġw isdom
bit ious
Ġposs ibilities
0000644000000000000000000001 2
for ward
ĠC L
ĠJ ane
Ġf ishing
Ġcook ing
12 2
em it
ĠS M
Ġp our
Ġhear ts
Ġcat ast
Ġf ut
ell er
ber y
a very
Ġliber ty
Ġgra ve
Ġplan es
Ġbiz arre
ĠAir port
Ġsleep ing
Ġdispl ays
c ular
Ġan arch
inc ial
Ġdevast ating
X X
Ġaffect s
Ġear ning
1 44
ri k
w ind
11 7
Ġdeal t
Ġm ic
1 46
Ġaw ful
Ġinter actions
Ġint rig
Ġold est
eral d
Ġsp ray
c itation
Ġb ubble
Ġreflect ed
c ott
Ġn u
am ine
04 2
ĠN ik
ĠHT ML
ĠFore st
itt y
Ġins ult
ĠO m
00 2
ab a
ĠT an
25 6
Ġr anging
Ġfil ing
ĠHamp shire
Ġsl ide
Ġbet a
ĠLe v
Ġcross ing
ĠR ound
Ġcompet itors
Ġprosec ution
m ons
ri ke
Am ong
o ons
Follow ing
Ġpr ayer
ĠPol and
Ġcalcul ated
ĠWik i
B ook
Ġcross ed
Ġthe ater
ĠB ah
Ġr iders
S ub
Ġrenew able
n an
Ġrob ots
Ġfor b
Ġdrop s
ĠStew art
Ġit ll
ug by
Ġgraph ic
bre aking
is ive
Ġt ale
ing e
Ġchemical s
00 7
u ably
ut er
ĠP rom
ĠR onald
Ġen vironments
Ġnot ably
Ġbe ars
Ġwh is
ĠUS B
ĠMod ern
Ġh iding
ug s
ar at
Ġ8 2
Ġtri ps
Ġbuy ers
ĠPh ys
Ġcomm od
Ġre ign
ĠOtt awa
ĠP y
angu age
ĠF le
05 7
ats on
Ġcru el
Ġres erve
b es
ĠDe ep
ĠChristian ity
ĠMad rid
Ġ7 9
in os
ĠK y
ĠK al
P al
ĠS aint
Ġuncomfort able
ĠH amas
Ġself d
11 4
Ġconven ient
Ġg olf
ĠS ection
Ġreven ues
out heast
Ġ19 87
ĠO B
Ġsepar ated
ĠHawai i
Ġcor n
Ġgold en
Ġcontro ller
ĠAl aska
Ġexpl oring
ĠY ah
ĠSwed ish
ĠO w
Ġrestrict ed
r ary
Ġproduct ivity
Ġamong st
Ġaddress ing
AS H
Ġdes erves
ĠN ature
Ġcollect ing
unt u
ĠC rit
Ġfund ament
Ġgent le
Ġnewslet ters
Ġr ivals
z one
ĠKn ight
Ġbr ains
c r
ut her
Ġmurd ered
00 4
Ġexplo it
ĠN av
Ġthe r
Ġprepar ation
Ġinf ant
Ġover night
ĠN ative
EM ENT
ĠG re
Ġwell known
Ġlibr aries
id en
sel ess
ĠRem ember
h ard
ĠAss ad
ĠBer ke
ĠW y
Ġdocument ation
Ġindic ation
ĠJ ess
f ish
ar med
Ġhy brid
ĠPro gress
Ġmortg age
ĠB enn
Ġearn ings
Ġv iable
Ġer u
Ġp ending
ĠFurther more
Ġrel ie
Ġappear ing
Ġc ra
Ġassum ing
ip edia
Ġadministr ative
cent ury
G e
Ġincor rect
09 9
03 9
ĠIm p
Ġfull time
F urther
Ġun l
Ġm unicipal
Ġtou g
Ġsophistic ated
11 6
ĠAT T
ĠMc Donald
25 5
Ġas pir
Ġcur ve
ist ance
Ġact ed
ĠM and
ot ion
th al
Ġbur st
G A
com m
Ġw ore
00 9
Ġquiet ly
k ward
Ġdisc ount
Ġequ ipped
Ġarrest s
ĠL en
Ġover look
05 6
ĠBl ock
Ġdes ert
b ase
Ġme ets
Ġam bitious
T ime
Ġsafe ly
13 5
Ġcomb ine
ĠMot or
ĠA B
ĠN ap
Ġinter ven
Tr ans
Ġsupp lement
g ence
Ġdelay ed
Ġdet ained
rim inal
ĠRob inson
Ġreb el
f unction
02 9
Ġco found
ard ed
Ġm isc
ay a
om ach
Ġ19 85
Ġd il
T E
Ġlimit ations
ĠInd ias
pp y
Ġrel atives
Ġmarg inal
ch arg
Ġhapp iness
Ġ19 79
ob by
B r
M ark
Ġdemonst ration
Ġadop tion
Ġcelebr ated
Ġca ution
ĠQue bec
j amin
Ġhost ile
ĠM as
05 2
Ġpro l
ĠTre k
Ġun e
Ġs izes
Ġse eds
lin s
ĠL ions
Ġres igned
ail able
Ġre wards
Ġpart ially
Ġmean while
Ġg host
ĠF act
ĠStan ley
lim ited
Ġpod cast
ĠN ame
Ġcount less
Ġl ady
N D
Ġinc omp
Ġt orn
Ġor g
Ġdisapp eared
04 3
Ġcomplex ity
Ġres ort
Ġce ase
Ġre cept
Ġview ing
F S
Ġens uring
Ġdeb ates
ĠG ene
ren cies
Ġgl obe
al id
ĠEag les
le ments
Ġsuggest ions
it ivity
C or
Ġaud iences
N C
02 2
c our
Ġpsych iat
ĠF ight
ĠColl ins
ĠP od
ĠR ap
Ġcomm ands
Ġarg uably
les h
ĠP ython
ĠCon n
Ġscrut iny
out ing
Ġbuild s
Ġcreat or
ĠBudd h
ay ed
Ġst arter
ĠM D
l en
ĠL ady
ĠLouis iana
Ġdeliver ing
Ġtechn ological
Ġver ify
ĠHe art
ĠF ederation
ĠPe ace
Ġthem es
Ġr itual
ath on
Ġab und
ĠCor ps
DA Y
ĠG ab
Ġp ow
F O
Ġm akers
Ġlight ing
AT ED
ĠTok yo
l u
Ġc ave
ant e
Ġmar ry
Ġs od
Ġtransp arent
Ġd uties
es ides
Ġan onym
Ġhost ing
Ġgrad ually
Ġlog ical
Ġparam eters
Ġcomment ary
ĠCl oud
ĠNet any
ĠF ind
ear ly
ĠRes p
ĠSaf ety
ĠAr ts
06 7
Ġsty les
Ġend less
ĠP el
ĠSt orm
ĠS port
ĠS wit
ĠCom put
amb ling
Ġfire arms
ĠN a
ĠFer gus
Per haps
Ġ8 8
g ments
ac o
Ġmechan isms
Ġfemin ist
ĠP oll
Ġpoor ly
ĠH ills
Ġbu gs
Ġtiss ue
i per
11 3
Ġsa uce
Ġimp ose
Ġwitness ed
ĠT ry
Ġpled ge
ĠW at
ĠSt ev
ĠL ie
T O
qu er
d ict
Ġcour ses
ĠH uff
Ġcrowd s
Ġc ats
Ġunnecess ary
Ġelect rical
Ġquestion ing
Ġdam n
07 7
Ġhighlight ed
ĠD or
00 6
sc reen
C op
ĠR C
ĠP arent
ĠOx ford
ĠM uch
Ġexpl oration
Ġmig ration
ĠW rit
Ġmin i
r ams
E ach
ĠL aur
ĠO range
t own
ect or
Ġcitizens hip
ĠSub s
Ġviol ated
ĠN elson
ov s
Ġcompl ain
Ġoxy gen
ĠF arm
Ġfr act
ĠCongress ional
ĠTes la
I ll
ed e
ĠA y
C OM
ĠRich ards
Ġremem bered
ĠD og
ĠY ang
Ġcon ced
Ġmount ains
Ad vertisements
Ġover d
ĠS ud
Ġha z
Ġcom ed
Ġsac rifice
ĠL uke
12 4
08 9
Ġavail ability
Ġsum mary
Che ck
Ġsuggest ion
Ġquant um
x x
Ġdiscipl ine
Ġt ends
Ġg rants
Ġt u
Ġact ress
Ġpr icing
ĠCamp bell
ĠI ss
Ġpra ise
Ġpre season
ĠF CC
Ġtr ucks
Ġinst antly
ĠV ar
Ġst unning
u ates
AC K
Ġpre view
Th ree
as m
er ver
Ġfrust ration
ĠPD F
05 4
D own
ast e
Ġcult ures
olog ically
Ġthe ft
Ġfasc inating
ĠAm b
Ġin appropri
ert o
ĠAdd itionally
ers ion
Ġdesign ated
06 6
Ġal ike
Ġsh ocking
ĠInd ians
ir l
Ġtransl ation
Ġcirc les
Ġvacc ine
Ġceleb ration
02 3
ĠWh it
ĠExp ress
Ġf o
le an
ĠS W
sec urity
Ġw ound
wh ich
12 7
Ġy e
ĠAgain st
ail ing
Ġhonest ly
Ġte x
Ġt empt
Ġst ressed
A nt
S U
Ġp ension
08 5
ist ing
Ġdeleg ates
Ġas h
r ust
Ġbath room
itc hell
arm a
Ġrepl acing
sh ore
Ġro cks
Ġprevent ed
Le aks
Ġt um
aw s
Ġpress ing
Ġann ually
Ġcoordin ator
ut ter
ĠVlad imir
Ġcult iv
Ġven ue
09 5
Ġperm itted
G r
Ġf reed
Ġalbum s
ĠVictor ia
Ġmand atory
b urn
Ġwe aken
ig ure
Ġdem o
if i
Ġrad ar
ĠMor ris
auc us
ĠWay ne
ĠMag azine
ĠEnvironment al
Ġsevent h
Th ank
Ġ1 15
Ġcont ents
Ġcomput ing
ĠCh all
Ġc rown
ĠRog er
ĠH ann
Ġagric ulture
Ġcomp osition
ĠSp ider
Ġp ink
we ek
Ġc ous
ĠAl t
Ġobserv ations
I O
y on
Ġenter prise
ĠM om
Ġaw kward
Ġin eff
Ġg reet
Ġadv ised
Ġr ice
ĠB h
ra it
Ġline back
Ġadvoc acy
S omet
ĠT odd
ĠR av
ad i
Ġpros per
Ġdr ones
Ġbound aries
or ia
ĠJ en
Ġalt ogether
Ġm ild
Ġst ir
ĠD J
Ġdr inks
Ġdev oted
Ġf et
are r
Ġbond s
Ġce iling
ur ities
ĠU I
Ġd ensity
ac ies
ru p
at al
Ġcar rier
Ġl one
ut t
a ults
Ġpop ul
Ġtransm ission
Ġz omb
ĠG a
Ġamb assador
Ġy ard
ĠBe at
Ġaccompl ished
Ġder ived
pl ing
Ġsupp orter
Ġcap ability
Ġfle w
iF i
otyp es
Ġh ors
ĠTe a
im ents
Ġpartic les
Ġprotect ions
Ġtable t
ĠS ide
Ġp owered
Ġu gly
Ġlapt op
Ġre actions
Ġf urn
Ġhistor ically
Ġcon j
Ġst omach
ar ts
ĠC a
Ġilleg ally
w all
ĠKick starter
Ġcomp osed
st op
12 6
Ġinstall ation
k ers
ĠHis pan
Ġhuman itarian
or ate
ĠC row
Ġwh ites
Ġeth ics
Ġreveal ing
AT ION
Ġbal anced
Ġpregn ancy
ĠE lection
ro t
Ġcont am
C ar
at ical
at oes
ock er
Ġpubl isher
Ġ9 00
ĠF if
roduct ive
Ġsp y
Ġbu nd
Ġd ign
Ġrespond ing
on ly
Ġk it
Ġsusp icious
ĠMississ ippi
Ġpain ted
Ġconfirm ation
ĠA rena
Ġdep os
Ġun ac
form ance
Ġf rank
Ġsc ary
bo ards
Ġsup rem
Ġer r
z es
Ġbre ach
ĠEv ans
ĠN eed
ĠBe h
Ġsub t
Ġdraft ed
ĠB eng
Ġfrust rated
Ġinf ring
Ġcontribut ing
om er
ĠE c
Is rael
Ġsing ing
Ġassum ption
Ġappoint ment
ĠBar cel
erv ice
Ġd uration
Ġv ague
Ġpen alties
S E
ĠE ls
Ġep id
Ġexpert ise
mark et
Ġmotiv ation
T IS
ĠBr us
ĠSm art
it ate
Ġad vertisement
Ġto ll
Ġrespect ed
Ġprin ting
Ġch amber
Ġapp lying
ĠV ery
Ġpresum ably
Ġch urches
Ġdiv ide
Ġovers ight
ĠQ ual
ĠS aints
ow ell
Ġprosecut or
ĠN atural
oy d
or ical
Ġpict ured
ĠWom ens
ab ling
Ġrespond ents
Ġexperien cing
prof ile
Ġent ities
Ġoper ational
um m
Ġfocus es
Ġins ane
Ġenjoy ing
Ġmechan ics
a fter
m are
Ġiniti atives
Ġl ung
el come
Ġbit ter
ĠMan ager
ĠA w
ĠW ard
15 5
e u
Ġlong est
Ġscr atch
p x
Ġtravel ed
Ġs her
ĠF un
ast ed
Ġrespect ive
ac ular
ĠLeg isl
Ġflex ible
Ġ19 30
Ġconserv ation
ĠP ur
Ġt ill
Ġconclus ions
Ġunderst ands
Ġto bac
Ġsh ake
ĠIs lands
Ġp ion
Ġare na
Ġpe ers
07 6
ĠSm all
Ġcrypt ocur
ĠMcC onnell
ĠSnow den
C O
ĠMor ning
Ġstrong est
Ġcondem ned
ĠA wards
Ġn ode
Ġb ones
Ġachieve ment
Ġint ensity
ect ed
ĠP ok
ĠCP U
Ġsa fer
13 2
Ġexplos ive
ĠCub a
ĠArt icle
Ġemer ge
Ġorient ation
ĠH P
ĠMc M
Ġjud icial
p ress
Ġl yr
em in
S everal
Ġfr ight
be at
en z
Ġmet aph
o ard
d og
ĠE arly
Ġtut orial
Ġdesign ers
Ġrot ation
ag raph
Ġcontro lling
ĠS essions
ĠOcc up
ĠT M
ust ers
Ġpl acing
g al
ĠS ong
ĠSwit zer
Ġtobac co
ĠH ond
ĠR ain
Ġw ings
ier re
ĠHe at
ĠCh ance
Ġhigh way
er r
ĠSw iss
b od
ĠHot el
ĠE mb
Ġsent ences
ĠBerke ley
ĠT alk
ĠM itt
Ġconvers ion
09 6
Ġf est
Ġhack ing
com ed
abb ing
ig ers
ĠR oc
ĠMarsh all
ĠT ampa
Ġfast est
Ġscen arios
Ġexp ed
D is
th at
Ġdirect ions
Ġfac ulty
Ġmon etary
tr ack
Ġsh orter
Ġess ay
ĠR ow
Ġsw ord
Ġdes ired
PD ATE
Ġabs ent
Ġtou ched
lyn n
Ġe arl
Ġsatisf ied
ĠBl og
ĠM M
Ġcrop s
id th
ĠCommission er
Ġex em
Ġdist ant
Ġaccept ance
ĠBuild ing
az ines
ern el
Ġcal endar
Ġcle ver
06 4
ĠU ntil
abet es
Ġdefend ers
ue z
Ġcount ies
Ġsl avery
Ġf illing
ater n
ĠBr and
ĠMur phy
Ġto ile
Ġexch anges
be ing
Ġcomple tion
Ġacquis ition
Ġtun nel
Ġcolleg es
ĠW atson
Ġqual ify
ĠRog ers
I E
am an
Ġarm or
Ġtreat ing
ac er
Ġanim ated
Ġinstru ments
ĠAr ctic
Ġformer ly
Ġg aining
Ġform ally
M edia
Ġwid th
idd ing
U D
ortun ate
en cer
Ġc am
Ġdis par
Ġadd iction
ĠJ ets
Ġgro cer
Ġide ological
ĠAl b
ĠN i
ĠTai wan
G u
ĠSpe aker
Ġsec ured
or ph
tt es
k m
Ġinter rog
Ġdiscl osure
ĠBl ake
lim inary
Ġo h
Ġinvest ing
ĠJac ob
Ġp ays
Ġinc ons
Ġtransform ation
Ġoper ates
Ġref using
ĠCamp aign
Ġdist inction
ĠMan ning
ĠLaw rence
il ateral
Ġbu zz
R ight
Ġg rip
ĠK erry
L Y
Ġto ken
Ġdeliber ately
Ġsing er
ĠK arl
Ġanticip ated
Ġshoot er
Ġgr ateful
Ġsent iment
05 3
Ġvolunt eer
Ġmax im
ĠT un
Ġl un
Ġappro ve
Ġworth y
Ġexcess ive
Ġflex ibility
Ġflo ating
Ġm amm
Ġn ull
ell a
Ġqu otes
al g
TH E
Ġfree ly
Ġra id
Ġcomp os
ĠE V
Ġapp eals
O G
Ġmag ical
Ġmut ual
Ġ3 50
ĠM obile
ĠBar ry
Ġf ru
Ġn an
ip her
ĠM ov
13 4
ĠR aid
ĠPart ners
Ġspread ing
ĠD raft
Ġprot otype
ĠNC AA
b rew
ore r
Ġn aked
Ġher itage
Ġatt ributed
22 3
ĠMc D
Ġagric ultural
" ,
iv an
Ġres olved
Ġpan ic
Ġe ars
Ġgr asp
Ġz ones
ĠB E
Ġs ends
Ġenthus i
ĠB uck
Ġh ier
Ġp or
Ġal Q
r ained
Ġconsequ ence
ĠR ail
Ġpress ed
Ġp izza
Ġrece ives
L et
ere n
Ġtempor arily
ock ets
Ġattend ance
Ġ8 4
Ġcondem n
ĠH ide
ĠF ried
Ġdecl are
Ġdetect ed
Ġrum ors
ĠBen jamin
lect ed
ĠLa ure
Ġt urb
Ġres erves
Ġemploy er
ĠRec ords
ĠSte in
ĠHun ter
ĠMorm on
ĠTem ple
Sec ond
ĠD om
Ġhat red
ast ing
Ġharm ful
Ġt ar
Ġdisturb ing
im ens
Ġdifficult ies
Ġelder ly
IS T
Ġgar b
Ġt une
Ġj okes
on ia
Ġsocial ist
Ġflu id
Ġlegend ary
Ġshort term
ĠPl at
Ġrus hed
ri ven
Ġb ass
ĠT a
Ġch ampions
000064400000000000000000000 015
ĠB ond
te xt
Ġimper ial
a ac
Ġhe nce
Ġgreen house
Ġprior ities
Ġl anes
ĠI an
Ġadvant ages
und ed
At t
ort heast
Ġser ial
ĠT reat
ĠB ears
ĠCoal ition
oc us
ĠK as
25 0
Ġwel comed
ĠM oney
Ġtrust ed
13 7
Ġaff air
Ġtex ts
ch ron
mind ed
ĠCent ury
Ġenh anced
gl as
ĠD R
ĠSt ars
ĠCommun ist
Ġoff set
Ġres idence
Ġpro c
Ġ8 3
ĠDe an
Ġparticip ated
Ġexc itement
Ġacqu ire
i ary
Ġch ap
Ġsc rap
m ap
ch i
friend ly
Ġtechn ically
Ġha bits
ĠCount ry
Ġinst inct
ĠRub io
ip h
Ġunder min
ĠC M
Ġcr ude
Ġimm ense
fl ow
Ġt el
Ġt ensions
ĠK u
Ġsurviv ors
Ġannoun cing
09 7
Ġindic ating
ĠMedic ine
Ġh ub
06 2
Ġtrig gered
Ġsu itable
f rom
Ġ9 7
Ġab ol
Ġtr apped
Ġequ ity
ĠPark er
On ly
ĠB und
Ġeconom ies
Ġstruct ural
IC E
Ġre aches
Ġgrab bed
Ġdisp os
ĠCh ap
ĠE P
S upp
r at
ĠTr ude
22 2
ĠFergus on
ĠB art
Ġeconom ists
book s
Ġs isters
Ġmet ab
Ġkn ocked
Ġtend ency
Ġrep ly
Ġrom antic
ĠE X
Ġprov incial
ĠBr andon
Ġf are
ĠDe b
st orm
Ġpled ged
Ġc ake
Ġl ib
Ġident ifying
ĠSc ar
h ill
umb led
000064400000000000000000000 044
Ġremind ed
Ġpil ots
Ġb ran
12 0
Ġinter rupt
ll i
Ġunf ortunate
M art
Ġ vel
Ġch ains
ĠKir k
07 4
le m
ere r
ĠB it
ĠMod i
ac ent
13 3
ĠCor by
B R
Ġimag ination
ĠE ss
Ġpri est
Ġvir al
Ġtradition ally
Ġwra pped
j an
ation ally
Ġass ured
ĠMel bourne
form ed
Ġprob ability
m art
op es
Un fortunately
01 1
u ccess
Ġp osed
Ġoptim istic
ĠBrit ains
ĠG arden
p iece
04 9
Ġdecl aration
ĠK yle
i ots
Ġund ers
es is
az y
ĠM ans
Ġaltern atives
Ġ19 83
Ġedit ors
08 7
ĠDown load
ror ism
ĠA th
Ġped est
ĠTh or
inc inn
Ġearl iest
Ġport fol
ĠO d
Ġstr ain
ĠCirc uit
ĠB ou
VER TIS
Ġf t
ĠP ed
Ġ14 0
ĠDak ota
Ġh orm
N G
it ably
ĠOff icial
Ġbl ess
Ġess ence
Ġident ification
17 5
ĠTer ry
Ġedit ing
Ġdeploy ment
Ġin hib
Ġmechan ical
o os
Ġ8 6
ec d
Ġ8 9
ry ption
ĠLyn ch
Ġremind er
Ġdisapp oint
Ġorganis ations
11 0
Ġvert ical
se ud
Ġwor ship
Ġcast ing
Ġcofound er
Ġsubsid ies
13 6
Ġconduct ing
Ġpurs uit
is ode
Ġretail ers
Ġconst rain
ra ham
ous ing
Ġdet ain
Ġn ick
Ġv ibr
re ated
ĠH end
Ġobserv ation
Ġst un
Ġ19 82
ĠW orks
Ġdivor ce
Ġlif ted
Ġhead line
Ġbel oved
Ġimmig rant
Ġshif ted
at ile
Ġd umb
ul pt
S D
Ġbar rier
ĠW iFi
Ġexp orts
ĠPlay ers
Ġ9 8
Ġthere by
ĠMil itary
Ġpure ly
ĠCh uck
Ġr all
Ġatt itudes
ĠBrus sels
or ient
Ġbreak fast
Ġhar vest
Ġsqu ee
l arge
Ġm asc
14 2
ici ary
st an
Ġwh istle
Ġinn ings
Ġsoc ieties
Ġwa ited
Ġa est
Ġbut tons
Ġavo ided
06 3
15 2
Ġclick ing
Ġfire f
Ġgl ob
G l
Ġfro zen
ĠR io
Ġthrow s
Ġmeant ime
Ġf itness
ĠP ap
ĠM itchell
Ġteen ager
Ġt rop
Ġpassion ate
11 1
Ġm ixture
ĠB aker
Ġpref erence
Ġdraw s
Ġvill ages
Ġhack ers
own ers
Ġun h
w estern
com mun
Ġev angel
07 2
Ġt ang
ver ning
ne red
Ġve gan
qu is
Ġp p
iv est
! ,
Ġdam aging
ĠIR S
ĠBuff alo
ĠBarcel ona
Ġunder mine
ĠU RL
Ġparliament ary
T ION
Ġw ishes
ĠK rist
Ġinfect ed
ĠSwitzer land
Ġ8 1
ĠH ed
Ġdec iding
oc ate
Ġpurch ases
re ls
Ġ9 2
Ġbreak down
Ġpart ial
Ġadm its
le ton
Ġh oney
A V
c ard
Ġ9 3
ĠCh o
15 0
Ġres on
h uman
Ġout er
ic ut
04 8
Ġ12 5
Ġembed ded
ĠB R
ll y
ĠD ate
ell o
j i
Ġc odes
Ġregul ators
Ġsac rific
ĠPu erto
Ġsec rets
ĠWiki Leaks
Ġrif le
in itely
Ġpre val
O V
Ġbar riers
Ġfl ip
Ġst ocks
Ġsupp ose
Ġmed ian
rop olitan
ĠRe id
Ġcart oon
v ation
Ġpen et
ĠM ission
Ġs illy
Ġre hab
ĠIm per
Ġfem ales
Ġrec onst
y es
Ġcapital ist
ĠBloom berg
ch a
ĠIr ans
Ġbatter ies
Ġtour ists
ĠS alt
t ics
Ġfail ures
Ġtr agic
ĠCamb ridge
Ġliber als
Ġam pl
Ġag greg
Ġcontin uous
be it
ĠLiber ty
Ġeth ical
Ġhum or
Ġapproach ing
ĠWar riors
01 8
ĠPhil ip
ĠC and
ĠC ut
Ġspace craft
Ġre un
ĠT ob
Ġcount ing
ĠC z
Ġpurs uing
Ġfar ms
Ġste ep
Ġsens or
ĠFriend s
B L
Ġdec ides
Ġnovel s
are ttes
ig hed
Ġ9 6
Ġlicens ed
w au
ĠStud ios
ĠGir l
e or
Ġst abil
ĠCan n
iz able
ĠMu ham
ĠR ic
in ces
o a
Ġspark ed
Ġmon sters
Ġdem ol
ch arge
ĠAd vent
Ġcare ers
Ġminor ities
16 5
ard ing
ĠArk ansas
ĠSomet hing
ir able
ĠColumb us
Ġcorrespond ing
bor ne
Ġlack ing
Ġt ong
Ġh ill
Ġcolle ague
Ġexec ute
Ġbott les
ĠRod rig
ĠWik ipedia
Ġperm its
B el
Ġbe ers
ud ge
Ġun ity
Ġdon ated
ĠConserv atives
00 8
Ġgen et
Ġwind s
ur red
Ġfr action
ĠC rown
Ġcompl iance
Ġcomp ly
Mich ael
ĠKe ith
Ġafter math
Ġscreen ing
Ġsucceed ed
Ġdestro ying
Ġdis pro
ĠD est
ĠHind u
Ġd ys
Ġur ge
05 9
Ġgif ts
par ts
M on
ĠCommun ications
ĠGu ide
ĠZ h
Ġaccount able
Ġarri ving
win ning
ĠFire f
ĠDep uty
AD VERTIS
T witter
Ġret reat
Ġsepar ation
B ar
Ġpe er
Ġlif es
r c
Ġbenef icial
i oc
ne g
Ġfe ared
est one
Ġdo se
Ġblack s
ĠTy ler
at ched
ĠP T
ĠAn im
Ġgrow s
ĠWith in
ĠProf ile
Ġfundra ising
k h
ool s
08 6
ĠEarth s
Ġtrans f
Ġl ake
val id
Ġunder w
Ġf ierce
ĠJ u
g ary
Ġfeed ing
W S
k ind
ĠC elt
ĠN in
ĠE S
Ġinst itutional
ĠTe xt
is ers
G iven
or i
ĠV e
Ġche er
bl ock
ĠG host
Ġed ited
Ġsl ave
Ġwarn ings
ĠN G
Ġlast ed
ĠInt erest
Ġgener ous
Ġtransl ated
ble m
l ash
Ġvar iation
Ġboy friend
Rep ublic
Ġcomp aring
Ġcred ibility
ĠCow boys
ah s
ĠIslam ist
Ġeconom ist
Ġprocess or
Ġind ict
ĠDou g
ĠStev ens
Ġwond ered
ĠGer mans
ĠCol omb
Ġlegisl ature
ocr atic
Ġse ctors
ĠSci ences
Ġden ial
Ġr ib
orm al
D C
Ġdirect ory
The ir
Ġb oring
04 0
force ment
Ġsolid arity
P ress
v o
ĠDN C
Ġ8 7
Ġtreat y
Ġathlet ic
ĠTh under
ĠFrank lin
orn s
D ata
oc ial
Ġrec y
j o
Ġisol ation
Ġtr ash
Ġadv ances
un ct
ĠLe af
ĠE M
Ġle verage
Ġbar rel
er m
ĠPol ish
Ġment ally
ĠD anny
ĠPolit ical
Ġsh ar
arent ly
ĠM C
Ġcont acts
cept able
Ġstre ak
Ġexp end
ĠSt op
D E
Ġb ust
her ic
P L
ĠOb viously
ĠMem orial
Ġinterf erence
ĠSh a
N ET
y ou
Ġmanufacture r
Ġinappropri ate
U E
ount ered
ĠYou ve
Ġsp awn
Ġte ens
ĠM aine
ĠSh an
Ġintent ions
Ġfirm ly
Ġemp ire
Ġag ing
Ġin sect
Ġdisapp ointing
Ġex empt
Ġf ence
F e
ĠW R
C lin
Ġcl uster
Ġconclud e
ĠW iz
14 3
Ġmass es
ĠSpir it
Ġcollaps ed
Ġreal m
Ġclean ing
vers ion
Ġbreat hing
Ġcivil ization
ĠT oy
un s
Ġsoon er
Ġa uction
0000644000000000000000000001 3
ĠNe il
ĠHar vey
ĠC hen
Ġdiagn osed
Ġdam ages
Ġtra its
Ġanti S
ĠEb ola
Ġeduc ated
Ġgo verning
ĠFant asy
Ġ19 20
Ġsl ower
i op
Ġstatist ical
Ġa ired
on ts
ĠFor mer
Ġdon ation
Ġmagn etic
H ist
ĠS ad
Ġag rees
fe ld
Ġgam ers
ĠB B
ĠZ ion
ĠCo hen
Ġst amp
ĠSpe ed
m illion
17 6
Ġwal let
Ġmill enn
IV E
ĠC incinn
Ġfound ing
on i
ot ton
ĠT ol
Ġlobb ying
ĠPr inc
ĠR ice
ĠG i
em ark
m other
Ġfin ancing
Ġprov inces
Ġcry ing
Ġp upp
ĠF DA
Ġauthor ized
Ġenc ountered
Ġwar fare
ĠOsc ar
an as
Ġsmart phones
ruct ive
w atch
st ock
Ġtransform ed
v ia
Ġr iot
Ġd irt
ad ows
Ġh oly
ĠBu y
Ġele ph
Ġcons iders
Ġemot ion
um ing
ĠK am
it ative
Ġl aser
ĠGr ay
Ġc m
urn ed
17 7
keep er
ĠP L
Ġun rest
ĠUb untu
ran e
Ġtreat ments
Ġl au
Ġroutine ly
Ġmagn itude
Ġfamily s
Ġsu ed
b en
ĠRob in
ĠOper ation
9 00
ĠBl ues
Ġsuspic ion
Ġbet ray
Ġgrav ity
ĠS ep
ĠNetany ahu
ĠThey ve
ad vant
ĠRE UT
ĠB os
Ġple aded
ut ical
Ġmusic ians
ĠSus an
r ator
ĠMc L
Ġspons ored
ĠLuc as
Ġinv ented
Ġcomp ound
Ġf ict
Ġover h
Ġwell being
qu ality
16 7
Ġcomp assion
d ale
Ġmis leading
ĠP interest
ĠW ol
Ġrus hing
Ġsn aps
Ġsens ors
Ġout right
Ġincl usion
ub es
Ġlab els
Ġgr ace
Ġdis orders
Ġadequ ate
07 3
eng u
Ġeval uate
Ġsequ el
Ġaw a
Ġin mates
b art
Ġo l
Ġun st
Ġur ging
Ġbelie ving
ĠF el
Ġwrest ling
Ġcomp iled
ear chers
26 4
ĠUn iverse
Ġconnect ing
Ġsp are
Ġwork place
Ġaver aged
H ave
Ġexcept ions
Ġcompar able
Ġscream ing
M in
ĠM ust
ke es
Ġam end
Ġm erc
W orld
ol o
ĠDV D
Ġentreprene urs
Ġins urg
ĠGu y
Ġhelicop ter
are st
Ġavoid ing
ur i
Ġelim inated
Ġ19 67
Ġwhe els
ef e
Ref erences
Ġ19 75
Ġsm ugg
15 4
ew s
uss ion
Ġwilling ness
ĠTurn er
ĠC I
ĠH um
Ġcreat ors
ĠConnect icut
enn a
Ġ19 68
Ġten ure
11 9
Ġmag azines
Ġgovern ors
Ġprohib ited
Ġlyr ics
ĠGM T
in ance
07 9
Ġc ents
ĠB Y
ĠB ash
Ġjust ified
Ġinv ite
Ġtr ace
Ġgr ain
Ġjump ing
Ġe ighth
ĠJ a
Ġlaugh ing
Ġdec ks
ĠBron cos
Ġmake up
ĠMad ison
ĠBro s
Ġpre liminary
Ġappeal ing
ĠBelg ium
Ġshe er
Ġf ib
ĠS or
f old
03 8
ig nt
06 9
Ġcor ners
and ers
pr ising
ĠC BC
ol utions
Ġinter active
Ġsl aves
Ġd iox
Ġd ivers
ur able
Ġshif ts
Ġtw ist
Ġincent ive
claim ed
Ġd ivid
Ġwork force
Ġ19 76
Ġm ock
Ġen ables
Ġwild life
Ġreg ards
Ġsevere ly
Ġpath s
ĠN eb
Ġre election
Ġ19 40
ast ically
ai res
ĠSe ah
Ġintrodu cing
ĠSer ge
ĠC her
N S
Ġrecru iting
ĠJ oy
Ġun ch
ace utical
ĠUp date
Ġunve iled
Ġcomm ittees
ĠS el
is ible
if ting
Ġtermin al
Ġint u
Ġless er
ĠP as
Ġun re
Ġpubl ishers
vis or
r ative
erv ation
K ey
Ġproblem atic
in is
ĠBook s
Ġmon op
Ġbra ve
Ġinst ruction
ĠWW E
Ġlay out
ĠE rd
ĠM ort
Ġlength y
Ġaccur ately
ĠSol ar
ĠSo x
Ġt att
ĠSund ays
ADVERTIS EMENT
N EW
ĠT ell
15 6
Ġes p
ĠP AC
Ġ19 81
Ġvac ation
Ġwor n
let t
Ġmatch ing
Ġsubs cription
on er
Ġtraff icking
l ow
Ġarch ae
Ġconvin cing
ĠPakist ani
olph ins
Ġtim eline
ed ed
ĠIn v
Ġclass ical
Ġfollow up
Ġgener ating
em on
Ġorgan izing
ĠL ED
ĠPro du
Ġbes ides
Ġtouchdown s
Ġd ot
ĠHigh way
Ġproceed ings
ĠYah oo
Ġlicens ing
v als
Ġw reck
ĠGl ass
Ġstraight forward
Ġhypot hesis
L a
Ġtaxp ayer
Ġrep rodu
ĠAnt i
Ġcelebr ity
Ġfold er
t ail
ĠSh adow
ĠG onz
Th rough
c s
ĠBull s
Ġestablish ing
17 2
Ġthreat en
16 6
Ġind igenous
Ġshould ers
02 8
Ġfin an
Ġb io
ĠHoll and
Ġo x
Ġdub bed
Ġendors ed
ĠMar ia
Ġcomment ed
Ġimplement ing
g t
Ġfun eral
Ġform ing
22 7
Ġind irect
ĠGl enn
P at
Ġb ikes
Ġle ather
Ġlaws uits
Ġdet ection
Ġshif ting
Ġaccount ing
ĠRe ading
ĠAlbert a
Ġv on
Ġincent ives
str ong
ate ur
Ġhe aling
ĠEm ploy
Ġgod s
ĠBr ady
ĠFin ance
ul ative
ĠEd itor
ĠL ock
Ġtrad itions
ĠF at
ĠStud io
25 7
09 8
Ġobs erve
ou st
Ġrel ating
Ġste am
Ġprec ious
t ic
ĠAC L
Ġbran ches
ĠThe atre
Ġclimb ing
g iving
Ġcommission er
ĠC ond
Ġcreat ivity
wau kee
Ġ q
Ġsc ulpt
ĠS ay
ĠJ ake
Ġsh apes
Ġref lection
Ġdi abetes
Ġadjust ed
Ġarrange ment
h igh
08 8
Ġhigh profile
Ġsl ip
Ġdem on
cul es
ĠM ack
Ġ9 4
08 4
Ġme als
oc ity
Ġac res
Ġcounter parts
Ġdetermin ation
ugg ed
an ium
oc c
Ġunac ceptable
Ġimp ress
ĠJ e
D id
Ġin ch
ĠF ab
au x
ĠB ased
ĠCo ach
iv ic
00 01
ĠL ess
Ġsh aped
T ake
ro se
ĠAr thur
Ġcount ed
Ġspec ified
Ġh ij
ĠA ve
ĠAbb ott
ĠC ass
ĠY orks
15 7
Ġnegoti ate
Ġlike lihood
Ġrep ublic
ĠMe et
Ġsa il
Ġ19 72
Ġorig ins
ĠVer mont
ul um
u er
Ġhop eful
ec hes
M en
Ġrec alls
ir k
w al
back ed
Ġautonom ous
Ġbroad band
ab ad
ĠRo om
Ġcar riers
Ġmar ine
G ood
Ġdecre ased
Ġveget ables
G M
Ġmort ality
re nder
Ġmidfield er
Ġn od
Ġwom ans
09 4
Ġshoot ings
it is
it ated
Ġrenew ed
22 4
Ġ19 73
IT Y
ĠL iving
ĠTit le
ĠJ oh
OS T
Ġcre ep
Ġth irty
Ġresign ation
M ed
ĠR ams
Ġaggress ion
S ign
ard less
Ġgarb age
Ġtri umph
Ġwood en
ĠCarl os
Ġpl aint
ĠG reens
Ġgr ay
ĠM MA
ĠF lynn
C al
ell ar
ĠC arr
Ġtem plate
Ġrh yth
ĠDou glas
ĠNob ody
26 5
ĠJeff erson
ĠDou ble
L ink
ĠSen ior
Ġswim ming
c at
Ġtem ple
Ġn it
D B
Ġfor ums
w idth
Ġexp ose
al og
eb ook
op ard
Ġf uels
Ġsuper hero
ĠR osen
ple x
Ġesc aped
Ġp seud
Ġaud it
Ġdark ness
ĠR ah
ĠBrazil ian
P H
ĠOl iver
ig m
Ġle af
Ġap ology
ĠT ill
Ġsac red
Ġthorough ly
Ġj ew
umb ling
E m
Ġinvest or
ol ine
Ġfol k
p se
H aving
ĠBet ween
Ġm ph
Ġloc als
Ġpract ically
Ġres ume
12 1
Wh ich
con nect
Us ing
ĠC u
Ġwhere ver
Ġteen age
oc aly
ĠEx change
Ġspecial ist
Ġearthqu ake
Ġmount ed
Ġroy al
V al
Ġc her
ĠI l
ĠR oth
ĠBr ig
ĠG R
m arks
ĠC oin
17 4
ĠPh one
Ġconsum ed
h ol
Ġsu its
Ġp ants
Ġ19 78
m i
Ġoblig ation
es ity
Ġ ..
Ġdiv isions
ĠBern ard
Ġsan ct
Ġpsych ology
ank a
Ġopt ional
Ġcelebr ating
Ġ9 1
Ġ19 77
ĠAr men
ul ent
ac ious
iv a
ord able
0000644000000000000000000001 4
Ġindepend ently
Ġmem orial
Ġrank ings
ĠBud get
Ġfilm ing
Ġab used
Ġmod es
Ġliter ary
ĠE dd
ĠCharl otte
oca ust
v i
ugg ing
ne ath
m outh
B ER
Ġoff shore
Ġconsult ant
ĠS L
Ġlect ure
Ġpurch asing
Ġpre st
ĠM ason
Ġsupport ive
p ing
ĠV irt
pe red
Ġreason ing
ĠM erc
Ġs ie
Ġmob il
ĠSeah awks
ĠWe iss
Ġaffect ing
Ġloc ally
15 3
osit ory
Ġstr ings
Ġpar agraph
Ġsw ift
Ġl ap
ĠUnivers al
Ġne at
Ġver dict
ĠA qu
ig s
Ġpre jud
Ġtr ap
ry s
Ġcompat ible
ĠPalest ine
Ġkill s
V ideo
ĠCh rome
ĠG PS
Ġdel ays
ĠEd wards
ĠCincinn ati
Ġd ash
Ġr ated
22 6
Ġchar ts
Ġpron ounced
Ġbip art
it utes
Ġsound ed
F our
Ġl oving
ĠAr n
Ġterrit ories
Ġcr ashed
ĠTo o
Ġal beit
Ġaltern ate
U PDATE
c over
Ġinf er
Ġpro x
Ġdoct rine
Ġm s
roll er
ĠJ S
13 1
ig ma
Ġinf amous
Ġsk illed
ĠPict ure
ag ons
Ġc ort
Ġmotor cy
Ġ19 69
Ġfar ming
Ġshut down
ĠUS D
Ġadapt ation
d am
Ġto y
ĠAustral ias
ĠL ane
Ġexha ust
ĠJ uan
Ġunder way
Ġobser vers
Ġplug in
l ass
Ġfin als
ĠHom eland
c hen
it bart
Ġafter wards
b ands
Ġcoc aine
ale y
u ilt
Ġatt ributes
ĠF isher
Ġgr at
Ġqual ities
ocument ed
ĠN ep
air y
Ġdeal ers
Ġn uts
Ġun anim
ik ing
Ġ16 0
16 2
st ring
ĠR at
Ġl ip
Ġp orts
Ob ama
Ġint end
Ġexcept ional
us er
Ġbankrupt cy
ĠV eter
B re
Ġim pe
Ġadm ission
Ġdisp ens
Ġfundament ally
h al
Ġh alt
Ġpriv ately
Ġdefend ants
M att
ĠR ou
Ġed ges
Ġlegit im
Ġhors es
Ġout break
ĠN EW
per or
Ġcost ly
Ġemb assy
ĠConf eder
25 4
ĠN ex
Ġvis a
ĠRaid ers
Ġpe pper
ĠBe yond
ignt y
in st
ili ation
iz ont
ĠD A
ab y
Ġqu ad
ĠH em
og g
Ġaccommod ate
ĠBrad ley
O rig
w as
mun ition
Ġd ated
ĠK le
ĠJohn ny
ĠWal ter
Ġd angers
ĠG it
Ġdis advant
Ġan ime
ĠN umber
act or
Ġpredict ions
33 3
ĠM ember
ĠCom ics
Ġpow der
ĠMichel le
Ġtra uma
Ġor chest
ĠG ate
Ġh ood
ĠRes ources
w art
ĠH R
ĠG ay
ĠAn ne
Ġexam ination
ĠD ennis
act ic
ĠTrib une
Ġdiox ide
Ġstat ue
Ġprocess ed
Ġteen agers
IG HT
p oints
Ġsubstant ially
Ġrein for
ab ul
Ġaccount ability
ĠAut o
? !
ter ior
ĠG ates
Ġign oring
Ġunf old
Ġnom inated
Ġsh ore
ĠTr uth
Ġvol umes
ah a
Ġm aker
Ġcons olid
Ġmat ched
Ġfrust rating
ĠVik ings
Ġ19 74
ID S
ĠAg ree
27 5
Ġun le
u ced
26 7
Ġassum ptions
Ġcertific ate
Ġclos ure
ĠP i
Ġins ists
ĠSubs cribe
Ġimag ined
Ġal tered
Ġle aks
Ġorgan ize
iff erent
In c
RE AD
Ġvulner ability
ic ers
ĠSystem s
Ġb urg
Ġint ake
Ġenthusias m
13 9
RE S
ĠSt ring
ĠParent hood
Cop yright
ĠG ive
Ġteam mate
Ġcolon ial
Ġcon vey
ĠSh ield
umb l
ĠC reek
ĠN E
Ġredu ces
sh ot
Ġeval uation
cl osure
Ġwh ilst
Ġp iv
Ġn odes
S et
Ġconf using
17 3
Ġalgorith ms
ĠA gr
Ġdelic ious
Ġbus es
25 2
i ology
g ree
ĠL ost
ĠBet ter
Ġf ame
ĠW ATCH
Ġst ab
Ġname ly
Ġve to
U I
Ġsk ull
Ġ0 2
Ġfl owers
Ġsens itivity
Ġth umb
Ġaccident ally
u um
? ,
Ġsh y
ĠCl ar
iss ance
ut o
Ġperman ently
Gener al
ĠCh arg
AM E
oub ted
Ġlist ing
ĠSh ar
om atic
Ġconsum e
Ġportfol io
ill ery
Ġbehavi ors
Ġlim iting
Ġun limited
16 4
Ġblood y
aff e
AR D
ak u
Ġinev itably
ĠF ile
Ġdemonst rations
ĠNor way
ĠK el
Ġdiagn osis
W ar
lev ant
Ġbed room
Ġhung ry
r ament
ĠK ind
Ġunc ons
Ġloyal ty
Ġyour s
Ġrub ber
oot ing
ĠN PR
Ġdesper ately
ĠLt d
Ġju ice
May be
Ġelabor ate
ĠC ou
Ġcy cling
pe ction
ĠC OM
Ġlast ing
16 3
on el
ĠF L
min ation
ĠV A
iss a
Ġcloud s
Ġb er
Ġb ind
ig o
ĠMuham mad
ill o
th a
Ġexerc ises
Ġtrib al
Ġex agger
As ked
iber al
ĠRel ations
Ġc u
lement ary
Ġlock er
Ġsp ill
Ġclass room
we alth
Ġanalys es
Ġg rey
Ġreason ably
p owered
Ġart if
Ġlabor atory
Ġschem es
ri en
ĠBill y
ĠBu zz
Ġspect acular
ĠW onder
Ġse iz
Ġgar age
ĠL oad
ian g
ĠH ait
Ġm asters
az ed
Ġswit ched
Ġinhab it
ĠT ory
Ġdis k
Ġhe ter
Ġb ite
Ġdem ographic
ĠI v
26 6
r int
2 015
ess ional
ĠArgent ina
Ġs ink
ĠTrans portation
ĠAm y
Ġst ays
ĠWh atever
Ġenc ryption
33 5
Ġmed ication
Ġskept ical
ios ity
Ġexpress ing
b ably
et a
Ġrev ised
32 4
ĠRet urn
ential s
red ict
ull ivan
ft en
ĠL uck
Ġreb ell
Ġautom ated
Con n
Ġoccur ring
Ġbrief ing
Ġl oses
Ġstri ker
ell s
th s
Ġhistor ian
Ġn ond
ĠF ast
Ġqu ery
Ġspot light
Ġup t
Ġbelong s
Ġfulf ill
ĠUr ban
Ġfriends hip
Ġfr ames
ĠIn side
Ġmod ules
ĠBr un
Ġvari ations
ĠMove ment
Ġlineback er
ĠTrude au
Ġre de
Ġmid st
H D
Ġdiff er
Ġr ings
ĠSil icon
Ġvig il
ĠI b
ĠLiber als
Ġm ature
ion ed
ĠM ue
ĠB JP
Ġregul ate
Ġb inary
C R
ĠH alf
Ġbr id
Ġfan cy
ĠSher iffs
Ġlabel ed
ĠP ast
ĠD S
Ġstrict ly
ĠUn it
ap y
on ge
ur ring
ĠL isa
Ġsear ches
Ġse l
ĠMil waukee
ĠG as
Ġf iber
Ġphotograp her
Ġthird party
Ġre ception
ap or
Ġre op
Ġkill ings
ie g
ro ots
ĠRec ord
re r
ĠP ence
ĠK och
Y eah
qu al
St ud
ĠH ig
Ġeffect iveness
Ġpublic ations
Ġm elt
Ġgener ic
Ġrap ed
Ġr age
ĠGall ery
09 2
Ġorganiz ers
Ġfresh man
put ed
Ġchem istry
Ġgovern ance
t ra
00000000000015 5
ĠMet hod
Pro f
Ġlove ly
F R
Ġsh ipped
Ġch ase
Americ ans
Ġtest ified
AN T
ĠPhot ograph
Ġutter ly
Ġtack les
ĠJ ar
ĠCars on
Ġstart ups
Ġarr anged
09 3
Ġpred omin
Ġbattle field
pp o
ĠCal gary
s is
Ġheav en
Ġrest ored
ĠG ear
spe ed
Ġi T
Ġsymbol s
as se
ĠRepresent atives
14 0
sh irt
arth y
Ġden ying
h at
ĠPri ze
ĠN DP
ĠOr thodox
Ġrel ies
Ġp ile
ian ces
ĠMar co
Ġmeasure ments
Ġsol ved
s m
Ġret rie
Ġl uc
ĠP K
Ġspir its
Ġam munition
Ġclin ic
Ġs ixt
Ġad vers
Ġexhib ition
Ġconsider ably
Ġstream s
ĠPack ers
Ġl ined
Whe ther
ĠAtt ack
Ġmisc onduct
Ġsurve ys
Ġf lesh
oll ah
Ġb inding
ĠJenn ifer
ĠLeban on
au er
ĠPlan ned
est ing
Ġmet res
ĠSer ver
ĠH at
ĠSur vey
Ġc ute
Ġsp ite
Ġto ys
ĠJ av
ĠBrook s
pe cific
ĠAL L
Ġgall ery
Ġdec lining
Ġwr ap
b in
enc ys
Ġt ier
Ġmon ument
ĠS elf
Ġmed al
be an
ĠR ank
pe lled
ins ula
Ġtoler ance
ĠG and
ick ets
ag ging
ĠZ ero
ĠGir ls
ĠCz ech
ĠG B
pl ess
af a
Ġfort un
c ap
ĠP un
Ġconfident ial
ĠF ly
Ġent ries
oubted ly
ĠS O
Ġcor rid
IC K
Ġcorpor ation
w er
Ġtun ed
25 3
Ġmilit ant
ĠPal ace
Ġman ages
IN E
ĠS ent
Ġout lined
Ġw ounds
ĠO D
ĠRich mond
k ens
Ġlin ear
00006440000000000000000000002 5
Ġd rought
Ġdiscl ose
Ġspe eches
ĠBrother s
OR T
Ġemp ower
ĠPok mon
Ġall time
EL L
ĠOb ject
Ġoblig ations
ath s
IT H
n ik
Ġp ipe
he astern
ĠH ockey
Ġpart isan
ĠA ld
Ġrel ate
ie val
Ġwithdraw al
uls ion
ĠF ame
ING TON
ett a
Ġde leted
Ġtri ple
ĠBre ak
ov ic
Ġgenuine ly
ĠP ere
Ġout door
08 3
et e
ĠPant hers
ĠIn valid
Ġrespons ibilities
c ount
Ġpres cription
ather ine
Ġn arc
Ġnew est
Ġtrib es
ĠC art
d r
Ġd ancing
pro t
Ġrender ing
Ġad verse
Ġst er
Wh ite
ĠH ud
Ġin ability
Ġtrave lling
Ġhun ger
ĠI de
ĠK ill
ĠO wn
ĠREUT ERS
000064400000000000000000000 3
Ġhon our
Ġlaugh s
ĠStud y
ĠDub lin
27 7
Ġbipart isan
U P
ran ean
Ġmaintain s
12 8
Ġt ribute
Ġfunction ing
Ġart ic
ĠR O
com p
ret ion
99 9
u v
p ers
op ular
ĠShe l
Ġair line
12 9
Ġun ited
Ġpar ade
Ġvolunt ary
Ġw ip
pr ing
Ġgen ius
Ġdef ic
Ġcr icket
Ġab oard
Ġplay back
Ġweek ends
ĠChrist ie
ĠSoft ware
ar ound
ĠS earch
oth irds
Ġfil med
Ġext ends
201 7
000064400000000 00000000
Ġste pping
Ġgu ilt
Ġfel ony
Ġpl ates
ĠWork ers
ĠCorby n
Ġunder neath
ol er
ĠR A
Ġc ure
ac a
ĠP ick
14 1
W ork
ĠBang l
Ġj ack
ĠBob by
in ery
St art
oth y
Ġmurd ers
ĠAfrican American
Ġp airs
Ġconsist ency
Ġp ound
ĠA G
Ġdefin ing
Ġfacilit ate
ah l
Ġdemonst rates
!! !
Ġdisc on
re ach
T ype
Ġmid night
ĠVer izon
E uro
Ġp add
Ġhear ings
Ġ ic
Ġris en
Ġves sels
Ġassoci ations
ĠV P
Ġind ef
ĠEvent ually
Ġd ive
ĠB ed
ĠHur ricane
Look ing
n esty
S ch
Ġk ernel
Ġsovere ignty
ĠPhill ips
Ġtact ical
ĠD od
ur as
Ġattack ers
Ġsign atures
wr itten
ĠCle an
ĠUS S
ĠIndones ia
v ar
A ust
l ay
Ġves sel
agh dad
A lex
C D
ut ing
ĠN at
Ġa ide
Ġm ate
Ġtourn aments
Ġad min
Ġle ap
Ġtour ism
B en
Ġse ct
Ġsteal ing
f ed
ĠO t
ig a
Ġsp ends
26 3
ane ous
ack er
ĠCard inals
Ġ19 71
Ġarri ves
ĠML B
d iv
ron es
ES S
ro d
Ġnegoti ating
Ġh ol
Ġfl ows
ah n
Ġattack er
hem ical
Ġsubject ed
Ġd ense
24 3
c ill
Ġbo ats
Ġmarket place
Ġtransl ate
ĠSt ra
ĠCom merce
wh ite
ĠB P
row th
Ġsn ap
Ġlic enses
ĠPlan et
Ġabsor b
Ġqu o
Ġprotect ive
Ġvend ors
Ġanaly zed
uk i
se lling
Ġback lash
Ġastron aut
Ġstro ke
Ġcance lled
Ġsell s
ĠVill age
Ġfrank ly
0000000000001 44
Ġantib iot
clus ion
W A
r ans
oc ide
Ġpat rol
m id
ew ay
elt a
Ġd un
Ġrecommend ation
ĠS i
Ġpret end
E ng
ic he
head s
Ġcontract ors
l ie
ĠM aj
N orth
Ġhas h
af i
44 6
ĠP ad
Ġsexual ity
z o
ur u
Ġvict ories
raw l
Ġath lete
ĠR AM
Ġu seless
ĠH ear
" .
Ġcred ible
Ġspons ors
lud ing
s l
Ġhe m
03 1
ĠGold man
Ġliber tarian
2 02
Ġfin es
Ġpuzz le
Ġinfl amm
ĠElect ric
Ġarbit rary
06 0
gu ard
ĠD iamond
Ġcatch ing
Ġswitch ing
ĠFor um
Ġdign ity
ĠT ru
ĠSp ot
Ġinter cept
ĠM all
Ġhe al
Ġdon ate
Ġp ale
Ġsuccess or
ĠM IT
let ter
Ġlack s
ĠDen mark
ol an
Ġevery ones
ĠBe ast
Ġment ions
ĠPr im
yn c
d ec
Ġinc umb
ĠV ent
Ġo d
Ġmus cles
ĠO P
Ġcl arity
ĠCh amber
Ġconfront ed
Ġlong standing
Ġg ard
G ame
head ed
Ġdoub ts
ĠF itz
Ġca res
ĠNe ither
ach s
Ġexhib it
ag ged
c al
ĠR ush
Ġen abling
ĠE ither
am bers
Ġac ute
r us
ĠD ays
ĠAl f
Ġobject ives
ĠF ish
Ġsport ing
Ġdiscl osed
w ick
Ġfire arm
Ġdr illing
Ġl aug
Ġag g
ĠD awn
Ġhard est
esc ale
ung le
Ġoverh aul
Ġnecess ity
ĠSur v
Ġembr aced
ĠW ii
Ġnight mare
ĠFran ces
Ġins ure
uc le
writ er
Ġdes c
Bl ack
RE L
ĠChron icle
ĠImper ial
Ġsettle ments
26 2
Art icle
ĠK rem
ĠT igers
z b
ac hers
ĠS ou
ĠRe ed
Ġref usal
man uel
33 7
Ġart istic
Ġprem iere
ĠD ue
ĠL LC
ĠV iol
ĠL ang
form ing
ĠM itch
Ġcrew s
Ġcontin ent
Ġhold ers
Ġl iability
ĠSo on
Ġroll s
Ġportray ed
Ġt ube
ĠJoin ed
ort ions
ĠP oly
o pp
Ġphot ography
od ies
Ġcharacter ized
Ġp ause
Ġread ily
35 5
ĠS F
pl an
ist ically
Ġflood ing
Ġext ending
Ġgrocer y
ĠA x
greg ation
Ġaffili ate
33 6
Ġsubm ar
ĠHarr ison
Ġcasual ties
01 0
Ġanonym ity
Ġa ston
ch air
Ġm ant
op ing
Ġur gent
Ġint ens
Ġpr ay
Ġmist aken
Ġarrange ments
Ġnot orious
ad os
Ġcon cess
ĠClass ic
Ġbe aring
ĠAss istant
ri el
Ġgl ory
Ġlegisl ators
Ġc os
Ġh ind
ĠWork ing
Ġinc oming
Ġhyd rogen
Ġachie ving
ill es
Ġtext ure
Ġl ately
ĠNever theless
O O
ĠVenezuel a
Ġinc on
ĠMarc us
Ġlist ened
Ġtable ts
ĠV i
Ġtre asure
Ġend e
ĠJul ian
Ġw are
Ġlaug hed
ĠCh apter
ĠH orn
ri pp
Ġprop ri
ĠAl most
w ill
ĠM ul
ĠSoc cer
uster ity
ĠiT unes
ĠBl u
Ġf art
ĠB order
upp orted
Ġdetermin ing
Ġre iter
Ġblog s
35 7
M al
Ġtroub led
m aster
Ġfore sts
ĠantiS emit
Ġal iens
Ġelectron ics
C ity
Ġrefere n
Ġr ides
ĠU P
Ġsp at
ĠSand y
ĠQ B
ĠDef ence
ĠM E
Ġve t
Ġcoast al
J ames
Ġpost p
Ġinv isible
is y
ĠSun ni
Ġco at
Ġequ ation
Ġjurisd iction
el ed
run ner
Ġa qu
Ġair pl
Ġse am
ĠCl ose
R ober
ur an
Ġc argo
ĠSuper man
Ġsal aries
Ġst ark
Ġple a
ĠChief s
Ġbl own
Ġendorse ment
Ġhero in
Ġb ru
Ġprote ins
Ġs lic
W r
M et
Ġst raw
Ġhe y
ĠNe g
Ġreven ge
Ġtw in
In ter
ĠReg ional
acc ur
Ġe leg
um ns
ĠAl tern
Ġreview ing
ĠM VP
Ġmal ware
Ġflo at
ĠM I
ĠH ope
B est
and ering
Ġglob ally
Ġ1 75
ĠH amm
Ġking dom
B ay
Ġnew er
Ġbi ology
Ġart work
Ġcool ing
ĠW inn
Ġstud ios
ĠFour th
ĠS ave
ĠTh ail
36 5
ĠBrew ing
Ġred ist
Ġhot els
ĠAll Star
ĠSim ilarly
Ġsoc ially
27 6
ernand ez
in ted
Ġspe lls
ĠJ obs
ĠTO DAY
Ġuncon st
ĠA bs
Ġpref erences
Ġintention ally
st ep
Ġdr ill
u ity
v ol
ĠB att
ĠT ar
ul k
Ġa ster
ĠBarb ara
Ġqu arters
at hetic
ĠB anks
ĠR B
os ures
for mer
04 1
ĠMin or
Ġc ab
ĠMem bers
Ġnav igate
Ġins ights
Ġtheoret ical
ĠN ancy
ier ra
at on
Ġd iamond
st he
Ġrevel ation
g roup
ĠT her
Ġtr icks
ĠC ab
f il
ĠCh and
Ġbul lets
R T
Ġs id
Ġpass ive
ĠCol lect
aret te
Ġcomple ting
Ġdes cend
ĠCh ile
ĠContin ued
ĠRe ally
Ġkick ing
Ġout let
Ġtw elve
a ired
or us
ĠS A
ĠHol ocaust
Ġp sy
RE E
Ġdom inate
Ġpers istent
Ġr ats
uten ant
bor ough
Ind eed
Ġrel ent
Ġlay ing
Ġsubscrib ing
Ġmal icious
Ġreb uild
ant ing
ĠMalays ia
p it
t i
Ġc ache
ĠCitiz ens
M B
201 4
Ġsynd rome
an ch
Ġswe eping
out ed
Ġshort age
ĠB ird
ant o
in ers
Ġapolog ize
ow een
bod ys
ĠO pt
ĠGP U
Ġd rown
ĠRe form
Ġstimul us
Ġha unt
37 5
16 0
Ġfinan cially
Ġsomet ime
Ġspec ify
Ġglass es
Ġrecip es
Ġfavor able
Ġmob ility
Ġmemor able
ĠN ag
Ġadap ted
T om
ar cer
Ġpers ist
ĠSe ven
A h
Ġre ct
ĠC ape
Ġf ond
ĠM ode
Ġb out
ĠK ell
Ġviol ating
ĠLeg end
Ġelev ated
Ġup s
Ġexpect ation
st age
Ġor al
E mail
Ġca ut
ĠW oman
ĠSp urs
Ġst icks
ĠProt est
Ġpr isons
Ġreal time
Ġret ro
11 8
Ġprem ier
Ġbillion aire
k g
R O
Ġprevent ion
Ġ10 5
Ġdeter ior
ĠArab ic
ĠR achel
Ġant ic
val ue
Ġnation ally
Ġexclud ed
00006440000000000000000000003 5
ell ed
hold er
ak y
ĠPolit ics
Ġimpl ies
27 3
ss on
us k
Ġauthent ic
Ġtax i
Ġdeb ris
Ġbreak through
Ġtong ue
Ġal umin
Ġenc rypt
l ies
ĠEd ge
writ ing
f ly
h ole
Ġinflu ences
d rop
Ġp uck
05 8
ĠMach ine
ri ages
ĠPresident s
port ion
Ġuns uccess
Ġrel ied
Ġpro ving
ĠF IF
ĠCub an
Ġp ockets
Ġevolution ary
Ġa ides
ĠD aw
Ġsepar ately
ĠYan kees
05 1
Ġrece ivers
Ġv owed
ĠStud ents
ce ans
Ġob esity
33 4
ĠA K
Ġinter section
k le
ĠBre itbart
ĠK az
27 2
Ġcred ited
ĠSn ap
ĠBry an
Ġ19 65
Ġm im
Ġspons or
S uch
ul ates
uff icient
Ġreluct ant
Ġpre y
ĠInvest ig
Ġsur pass
Ġha ul
Ġpat ience
Ġdistingu ish
Ġneur ons
ĠI G
he alth
Ġl ighter
Ġfact ories
Ġmis under
Ġsubscrib ers
Ġdynam ics
ĠCat al
Ġfict ional
L D
ĠD I
Ġcur s
j e
Ġsk ip
ĠOccup y
ra pe
Ġcomm itting
T or
Ġen v
Ġsum mon
Ġwas h
ĠTra vel
N ever
Ġrent al
Ġdr ain
Ġdecl aring
Ġst arring
35 0
ĠR ace
ĠMer kel
ec onom
Ġinhe rent
ĠBenn ett
ne x
h as
Ġd read
aus ible
Ġsubst itute
AS T
Ġexplo itation
Ġhel met
35 4
Ġfort une
Ġbes ide
F T
Ġassemb led
Ġback ers
ĠComput er
h s
Ġdiss ent
o an
Ġprof itable
C P
Ġk icks
Ġcur b
ĠBe er
Ġdefin itive
ĠL an
ASH INGTON
Ġchar ter
Ġpitc her
E arly
ĠN ixon
Ġpos es
ĠT ib
p ot
Ġ19 45
Post ed
B et
ĠAff ordable
ĠAr c
Ġn ost
Ġcl ause
ĠM asters
D ay
ĠIm agine
ĠMag n
ĠPri or
ĠAny one
ĠI L
ĠA ven
Ġover th
Ġevangel ical
W H
or able
Ġcomm em
27 4
Ġbuff er
Ġles bian
Ġh int
Ġlarg escale
Ġman eu
rib ly
W eb
h ner
on ies
as ma
Ġre lying
ĠAgr icult
Ġour s
ose vel
ĠL G
Ġtour ist
Ġover see
Ġaut ism
ul ator
R ich
ĠG A
ĠKore as
ĠCl ay
Ag ain
Ġbl end
ced es
Ph ot
ĠCast le
Ġse al
Ġload ing
ĠHol mes
Ġvary ing
16 8
Ġban ner
bd a
00006440000000000000000000001 7
Ġacc using
Ġund oubtedly
Ġval ued
Ġtw othirds
Ġrevel ations
Ġinter im
b ys
Ġan throp
Ġbusiness man
Ġanal og
Ġaim ing
Ġc yn
ĠAl ong
Ġviol ate
Ġb atch
ĠC SS
ĠZ en
Ġun aware
07 8
resp ons
ul in
g i
ain ted
os i
ĠBrother hood
ĠM es
ul u
Ġinter medi
arc ia
sc ale
ĠWall ace
Ġtoile t
Ġgrad uated
ĠEls a
Ġland l
45 5
Ġsum mar
ĠIsrael is
Ġtw itter
06 8
Ġoff s
se mble
ming ham
Ġw ard
Ġp up
our ge
ĠQu ick
f ile
Ġhor izont
Ġnons ense
ĠG am
pro of
EC T
Ġint act
Ġprov es
Ġr ou
ĠInd ex
Ġinterpre ted
Ġignor ance
Ġhead er
Ġg re
Ġ19 64
Ġrisk y
Ġnetwork ing
Ġover time
Ġen roll
roph ic
Ġp etro
ĠJ ong
Ġevent ual
ĠQ aeda
Ġbroad ly
Ġinvent ory
ĠHispan ic
Ġinc omes
Ġmulti player
Ġrun ner
qu ire
Ġmass acre
ĠH E
ĠAn imal
W est
ĠV atic
ĠTit an
S l
Ġfam ously
ĠSp encer
ĠE RA
orient ed
Ġf isher
ĠAust ria
ĠComp an
Ġg au
Ġphilosoph ical
Ġar ise
ĠS em
am ation
Ġins ert
Ġmac ro
ri ver
Ġinsp ire
Ġf oster
Ġgrass roots
ĠL ives
C ap
Ġr ivers
Ġvar ied
Ġcy cles
ĠP il
h ots
ĠRod gers
Ġmart ial
cl osed
35 6
n ames
y ang
I X
f unded
Ġpr ayers
Ġvill ain
er ting
Ġhand y
Ġdiv ine
Ġstar ters
Ġpred ec
od ays
ĠJam ie
Ġsw ept
id as
Ġcont ing
ĠL ic
Ġun lock
Ġinv itation
Ġun int
so ever
Ġstick ing
Ġkilomet ers
Ġvar iant
Ġdiscour se
ĠBry ant
Ġr am
ai ro
Ġsubm ission
ĠSud an
A uthor
ĠS ens
z i
Ġdis ability
am o
17 0
Ġrecre ational
ĠPro s
ĠLaur a
Ġm all
ĠSh ah
ir i
ĠR ud
Ġnational ist
Ġrend ered
Ġanaly ze
ĠM O
Ġuncons cious
Ġch ron
ĠK ate
omet own
Sp orts
here um
ĠPict ures
ĠC av
Ġident ities
m ile
Ġv ib
Ġfac ial
ĠMicroso fts
ĠIce land
f ive
Ġtrick y
Ġconfront ation
Ġm ush
Ġban ning
Ġexpress ions
Ch ina
ro lling
Ġsk etch
rep resent
b ull
Ġmeas uring
umbl r
gener ation
ĠN HS
Ġg reed
ang o
ipp ers
Ġassass ination
Ġn er
Ġquant ity
ĠS pect
ĠWell s
ĠMcC arthy
Ġc ord
Ġse min
Ġne ural
Ġcontribut or
Ġsem if
ĠK ath
Ġobst acles
ĠNex us
ĠG ot
ĠBase ball
ĠA round
us ions
Ġgrand father
ĠFiref ox
G S
Ġworry ing
Ġboot s
Down load
Ġcontain ers
ash i
ĠAle ppo
Ġdomin ance
Ġparam eter
ĠA V
ĠK or
Ġinv alid
ĠBut ler
Ġtact ic
osp el
us iness
Ġbar rels
Ġmatch up
u cc
0000644000000000000000000001 6
Ġbroad c
cri pts
ĠSh i
Ġlow income
ĠHer o
Ġf itting
ĠS eb
ĠSt re
Ġmod ify
Ġinf lic
ĠF ac
Ġhus bands
Ġbicy cle
Ġo k
ar is
Ġter rain
Ġpredec essor
Ġor b
de gree
Ġflaw s
Ġm aj
ĠNaz is
ful ness
Ġp ond
ĠP ath
Ġiniti ated
B E
ĠL l
Ġsur render
Ġcomple ment
Ġpitch ing
ĠQ atar
ĠFer r
Ġhe ated
iz ers
........ ........
33 2
Ġeuro s
Ġdisappoint ment
Ġwor ries
we g
Ġepid emic
Ġsa ves
ĠDe al
Ġren ov
Ġdis in
14 9
ĠB ills
Ġun bel
ĠGriff in
ĠMcDonald s
l arg
ĠD rew
Ġembarrass ing
Ġle thal
ĠFO X
Ġa ka
he art
Ġpresent ing
Ġsing les
Ġscri pts
ra fts
ĠSh in
ĠM aking
Ġmind set
Ġham mer
ĠFl ight
Ġregul ated
ĠWood s
d ie
3 45
Ġrec ount
ĠSe lect
ĠTe h
Ġvo iced
ĠNob el
Ġcan cel
Ġentreprene ur
Ġover ly
b ul
Ġtr ump
ĠR ico
ĠAngel a
ĠAth let
H ill
ar ious
Ġmer it
ĠAM D
art ments
Ġint imate
ĠRo osevel
Ġn urse
z h
Ġh ated
ĠR ing
cul us
ĠGO OD
Ġto kens
ĠT arget
22 0
Ġmos que
Ġcur rencies
Ġeru pt
Ġp ars
Ġa pt
Ġpur ple
ĠP ubl
Ġtrad emark
ĠL uther
ee red
ĠJ oint
on gh
om i
ade qu
ĠEnter prise
Ġinc arcer
Ġs ab
Ġ1 11
Ġd iam
Ġst ones
Ġsatisf action
ĠNash ville
ĠF inn
ĠChall enge
ĠT D
st art
ibl ical
Ġant is
Russ ian
ĠD ise
Ġunc overed
ĠS old
ĠR S
Ġv icious
ĠMS NBC
ĠA F
ĠBl air
Ġattract ion
ĠR aw
Ġconf erences
ĠEngine ering
ĠSac rament
Ġwhat soever
M em
os c
Ġbr ick
32 3
Ġsecret ly
Ġg aps
Ġg ly
ri ans
or ig
Ġ0 9
Ġassault ed
ĠC T
m ph
Ġn asty
Ġ1 12
Ġyoung est
um bers
Mus lim
Ġpriv at
00006440000000000000000000002 7
OR K
Ġdu o
ine z
Ġquestion able
Ġrelig ions
am y
ment ation
Ġimp orts
ĠPro cess
06 1
Ġchild s
Ġbas eline
36 4
us hing
24 2
ren ts
Ġfix es
Ġcl ash
Ġoutf it
Ġver b
Ġconsult ing
ĠHT TP
ĠT S
Ġadministr ators
Ġcrowd ed
s ons
ĠMan n
Ġcous in
ĠT rav
Ġaggress ively
Ġpack s
Ġsuppl ied
ĠTra il
vent ions
ĠPal in
Ġpreced ent
ĠAgree ment
c ulation
Ġext r
B uy
Ġprec ision
ĠK enn
ĠCol in
Ġin accur
Ġcur ric
Ġat e
ĠC ertain
Ġdesign ing
Ġbelong ing
Ġmin ers
Ġentertain ing
ĠEuro pes
Ġcorrel ation
Ġsc al
add y
ere k
Ġdispro portion
Ġremind s
Ġa usterity
Ġunconst itutional
Ġachieve ments
se x
Ġorgan ised
C are
ĠR PG
ne apolis
Ġgrand mother
Ġatt ribute
ĠMot ors
Ġant it
ĠPar ks
Ġextrem ist
E r
ens on
J ack
Ġb ay
un ks
Ġev olve
Ġanch or
ĠC ox
ĠC abinet
ĠM ine
ĠP ink
A K
Ġmanufact ured
ĠAss ange
Ġconven ience
Ġsear ched
Clin ton
b ee
Ġdu pl
Ġdef ines
Ġsubur ban
Ġshar ply
Ġthe aters
Ġstr anger
Ġinj ust
Ġflaw ed
ĠM atter
Ġcommit ments
Ġtroub ling
H igh
ĠL O
ong o
ĠJess ica
Ġsol ving
Ġcontract or
Ġp el
ĠD ynam
Off icial
Ġsu ited
Ġtrib e
ĠStr ong
Ġdim ensions
Ġrecon c
ĠU TC
Ġadvis ers
Ġbeh ave
ĠSt al
ĠHall oween
Ch ris
Ġamb ul
ah o
Ġirre levant
Ġthro at
Ġback wards
Will iam
ĠNeb r
Ġneutral ity
Ġswe at
Ġphys ician
Ġdon or
Ġlif ting
ĠEr n
A c
b ie
look ing
Ġhack ed
ĠApp lic
Ġpred iction
Ġsome ones
Ġremem bers
Ġshe ets
Ġqual ifying
ĠUs er
Ġfin ale
Ġto oth
Ġab uses
Ġoff enders
ĠH ERE
Ġsw all
Ġnav igation
ĠL ore
ĠLook ing
Ġmole cules
Ġl as
00000000000001 46
g ov
ĠG round
d eb
Ġup side
Ġtouch ing
ĠB iden
Ġse aled
Ġhor rific
Ġrhyth m
Ġelim inating
Ġconcent rated
15 1
08 2
Ġble w
Ġm g
Ġbud gets
Ġstead ily
yr am
Ġtransf ers
Ġir rit
Ġvac uum
ĠSatur days
Ġcred entials
c or
ĠV I
ĠLeg al
ĠR ivers
ast rous
Ġholid ays
Ġsince re
You re
ĠW ade
ag os
Ġrob bery
Ġl azy
lick r
Ġdecent ral
J oin
ĠG rey
Ġpublic ity
ĠJap ans
Ġdism ant
ange red
ĠAn aly
ir med
D ec
Ġdest ructive
ĠCur rently
ĠHung ary
ĠOk ay
Ġtow ers
Ġcryptocur rency
Ġris es
S outh
r ide
Ġwell s
Ġcomprom ised
Ġwr ist
G reen
t or
im eter
ĠW es
Ġbr ush
Ġbo oth
Ġneighbour hood
Ġl ips
out e
amm ar
ĠMoh ammed
Ġthe or
Ġarch ive
Ġwould ve
Cl ass
J an
T s
Ġhand gun
Ġres ur
D ep
ve t
Ġacc idents
47 5
ĠN athan
Ġpost season
ĠHug hes
46 5
Ġopt ed
ĠThail and
ĠM ons
ĠBe aut
ĠR al
Ġopp ression
Ġpick up
L ater
Ġpharm aceutical
Ġtrack ed
less ness
Ġjust ification
ĠT ask
ĠF an
Ġelect ro
Ġsle e
ĠW a
Ġreject ion
sec ond
Ġunw illing
ĠBroad way
ĠB ear
ĠBir mingham
ĠM B
Ġde lete
Ġpro long
ĠT on
Ġcorrespond ent
ver ted
Ġfre el
ĠBangl adesh
Ġres et
Ġin adequ
34 2
19 4
Ġmult ip
Ġdef enses
ĠD ra
Ġpro xy
Ġcol umns
Ġbre ed
Ġpress ures
ĠHop efully
Ġhaz ard
ri ved
p y
Ġfemin ism
Ġsovere ign
as ures
ic ides
ĠP in
el ong
Ġprot agon
Ġlink ing
i w
Ġbase ment
anc ies
ĠW ire
ĠEd mont
Ġrecord ings
R et
ĠW ing
Ġdisc ont
Ġpun ished
Ġimpl icit
Ġmult ipl
36 6
Ġout of
Ġcompan ion
amp ed
17 1
p ound
st ra
Ġunder go
B ig
Ġa ug
Ġfound ations
Ġnav al
ĠB esides
Ġapp et
ĠIn iti
II I
Ġinfect ions
Ġr abb
Ġout look
Ġrandom ly
ĠM umb
id o
ĠH appy
us c
Ġemot ionally
Ġc attle
Ġcow ork
rit ies
16 1
Ġshow er
ĠB ishop
Ġj am
Ġun law
Somet imes
ric ks
ĠSen ators
atter ing
Ġh ilar
Ġle ver
Ġover head
ĠP owell
am ily
Ġres id
Ġbuilt in
35 2
Ġmess aging
Ġconclud es
ĠPrin cess
ĠB aghdad
ĠCar ib
int age
Ġhomosexual ity
if iable
ĠE arlier
Ġnice ly
ed a
pt ic
Ġkn ees
Ġneighb oring
Ġinject ion
ĠW alt
hand ed
im ated
Ġtroub les
Ġby pass
Ġcor ps
Ġcou pled
ĠEv il
ob i
Ġdrag ged
E vent
Ġt ire
Ġintern ationally
ĠK os
Ġdis astrous
Ġf oul
Ġsub way
iter ranean
Con f
ov ich
ĠB annon
ĠCh ip
St ring
ĠK aren
Ġ19 66
Ġtra um
Ġsubur bs
ĠW or
Ġc ups
om o
ĠQu inn
Ġsequ ences
Ġs add
Ġder iv
ĠS ierra
ĠJ ed
ĠOver all
gg le
ĠComm ander
ĠR u
Ġent ers
Ġcommission ed
ĠAll ah
Ġclar ify
Ġg ru
ĠChance llor
Ġconstrain ts
F ree
er als
Ġdict ators
ĠE sp
ne ver
ĠK an
Ġam ateur
r ise
so ft
Ġprev ents
Ġupgr ades
Ġg iants
ment ioned
w he
Ġjoin s
Ġadj acent
ĠHer itage
Ġcat ches
are z
ĠPet e
Ġmathem atical
Ġj acket
cast le
Ġnin th
Ġcens orship
et ition
ic ating
Ġaff irm
Ġmanip ulation
ĠC ubs
ar u
ĠPresident ial
lud e
Ġcal ories
ĠZ immer
ĠUK s
ĠAct iv
e ment
Ġte aches
Ġwho ever
Ġstory t
ott o
T im
W ASHINGTON
Ġretain ed
Ġbut t
36 7
Ġant ip
L ab
Ġo un
ĠBo ys
02 1
16 9
Un like
p ur
ĠTele graph
Ġexam ining
D oes
ed In
22 1
ĠTra ff
ĠImm igration
Ġrock ets
ĠSpider Man
ide os
Ġst iff
Ġk g
Ġsatell ites
op y
k ill
ah an
34 3
Ġsp oil
Ġel ites
ĠAir lines
if ully
Ġj ets
Ġdiscon nect
Ġtwo year
L eg
b one
Ġpl ag
Ġcalcul ate
2 25
ĠM i
Ġcompl aining
Ġsurv iving
ĠWeek ly
ĠR D
ĠIndian apolis
Ġextrem ists
Ġsocial ism
Ġconcent rations
Ġtel esc
em et
07 0
ĠS ullivan
Ġint ends
Ġcont empt
Ġpres erved
it ches
Ġcalcul ations
Ġsur plus
Ġcost ume
ĠAcc ount
14 8
n ut
ch ar
Ġfe as
tr ans
ĠB ald
Ġinf inite
ol ics
Ġdist ribute
ĠDemocr acy
Ġhed ge
Ġprop ose
ĠGl obe
Ġsc roll
pl ant
ĠP red
ĠW ait
Ġinc om
r ays
Ġvirt ue
Ġsymb olic
ĠA ub
os ity
Ġob l
Ġvacc ines
Ġboss es
44 5
ĠFin land
ĠC riminal
Ġsubst ances
Ġprof iles
ĠHel p
Ġspecial ized
ĠT ogether
ĠN V
ĠN as
ok o
Ġte lev
M icro
37 7
ig ue
Ġman us
ĠMo z
ĠSam uel
Ġl ending
Ġb ans
Ġfor k
15 9
Ġprom in
F igure
ĠM urd
ĠE ight
02 0
it ations
M er
Ġcent res
Ġeconom ically
v ised
ĠI BM
Ġmet ric
Ġden ies
M ENT
ĠB elt
Ġp ad
Ġexpl oded
Ġsc are
els h
47 7
Ġforeign ers
Ġdownload ed
B ased
IM E
Ġprem ise
Ġgu ided
Ġenact ed
ll o
Ġball ots
ĠEp isode
per t
Ġunemploy ed
Ġlegal ization
Ġtoug her
Ġannoy ing
op t
ĠWorld s
OM E
Ġland mark
Ġad oles
Ġim min
Ġindict ment
00006440000000000000000000004 5
Ġdeliber ate
ia z
Ġdisc retion
Ġfree ze
ĠB ent
Ġrevers ed
ĠJo el
ĠKrem lin
Ġcomp ounds
ĠV M
com s
ĠBre nd
Ġd well
Ġdisp utes
Ġgrad uates
and o
H ub
Up dated
Ġthread s
Ġincorpor ated
Ġey eb
Pl ay
ĠC arm
Ġsk i
Ġstri pped
ab lish
ĠNAS As
ĠSome one
col m
Ġencour ages
Ġra ids
Ġshare holders
Ġf ont
Ġmed itation
P ublic
Ġple asant
ĠM ade
Ġr ugby
ĠH erald
Ġlaun ches
35 3
Ġt ender
Ġb ats
Ġstorm s
ĠCost a
Ġcl ashes
ĠMin neapolis
Ġgal axy
ing ing
ĠPro per
E v
37 4
Ġtrad es
oot s
Ġamb ig
Ġl iver
Ġdel ivers
Ġsan ction
in ho
Ġterr ifying
Ġcomp act
Ġfl ower
v or
ĠAr med
Ġoverwhelming ly
in law
Ġany time
on al
as ive
pr ises
ol k
Ġpot ent
Ġch unk
Pol it
ĠVatic an
Ġcrit ique
Ġnon etheless
l ation
if iers
and y
08 0
Ġconv ictions
p her
Ġcrit ically
00006440000000000000000000001 6
l ib
Ġ0 4
ĠPortug al
ĠM ath
ĠJ ared
Ġbl unt
Ġprofess ors
ĠJes se
ophob ia
Ġsl ice
ĠAdv anced
00006440000000000000000000002 6
REL ATED
Ġm ast
ĠO L
Ġun cle
Ġcommun ist
Ġdep icted
Ġle ase
ĠAs k
OU R
ĠLu is
G erman
c ode
Ġfav ored
Ġh ometown
O ct
ĠMe g
37 6
ĠGerman ys
ĠAh mad
M ake
Ġd ough
per m
ĠWe bs
ĠK er
lin t
ĠK ids
Ġencoun ters
ĠD im
Ġgl ance
ĠMed iterranean
Ġprec ip
ĠRodrig uez
U ntil
ĠH BO
Ġsup reme
ĠCreat ive
ĠBoe ing
on ut
ĠD w
ĠO ri
Ġaccord ance
Ġcollect ions
ĠAb raham
Ġapplic able
min ster
ĠPal mer
Ġhor izon
ĠK ay
Ġsuper n
D et
Ġr ab
S y
at able
Ġhigh s
eal ous
Ġdig it
Ġund ocumented
Ġintegr ate
Ġintrig uing
Ġsoc iet
Ġcontin ually
Over all
ĠRav ens
Ġprosper ity
im age
ĠO z
ĠG ran
Ġthr illed
Ġsimpl er
Ġtu ition
Ġpost ers
Ġdep ict
Ġaccess ed
ĠTr aining
ĠH TC
Ġturn out
Ġreal ised
Ġrecru ited
Ġj unk
Ġproceed s
Ġj azz
M arc
Ġconst itute
Ġcontrad ict
Ġmor ality
Ġreg imes
Ġdown s
ograph ical
ĠSqu ad
M ike
os aur
uff ed
ĠCommon wealth
oun cing
Ġref uses
Ġfact ions
Ġrest rain
Ġhel m
ĠAnt ar
ĠEurope ans
ĠMer cedes
ĠTh om
Ġmet a
Ġnot ified
ĠWe ap
ĠWhe el
ĠK ash
ĠInc re
Ġstrength s
Ġbe ans
Ġst ole
Ġoff ence
Ġtravel s
ĠC ulture
ubs cribe
ul ously
ĠZ ach
Ġwhe at
ĠAh med
Ġcampaign ing
imp se
Ġoffer ings
Ġorder ing
Ġlight ning
Ġwe aker
ĠAl ice
00006440000000000000000000003 7
Ġadjust ment
Ġassess ed
B rit
Ġsu cc
Ġgl impse
Ġpack aging
ĠS ett
Ġatt ach
H ouse
ar se
ĠS B
ĠDun can
fr ame
F ixed
ĠPriv acy
b uilding
ight ing
ĠVal ent
akes pe
Ġcrack down
Ġscholars hip
ur rent
Ġtr im
25 1
Ġexpl ored
ĠM is
Ġinvestig ative
ĠForm ula
us hed
Ġh ike
Ġtal ents
ĠCont ent
Ġwas ted
ĠD rop
ĠY ellow
13 8
Ġthreat ens
ĠFIF A
p g
Ġfru its
ĠCons ider
ĠC ell
sec ution
Ġemphas ized
Ġdim ension
07 1
Ġmult im
Ġl ivest
Ġbe ast
com pass
ott om
Ġwhistle bl
Ġd war
d on
ĠZ one
Ġforth coming
ĠG arcia
Ġcig arettes
Ġefficient ly
Ġflow ing
A ng
Ġiss uing
orth y
th is
Ġc ables
ĠLe ave
Ġphys icians
ĠSchool s
Ġm old
Ġch airs
c m
ĠSacrament o
ĠNY C
ĠCry stal
omet er
Ġappreci ated
Ġprison er
it ial
Ġsatisf y
om on
Ġe rect
Ġgr im
Ġfurn iture
ĠFred er
ĠNebr aska
imens ional
Euro pe
US A
Ġ19 63
Ġcharacter istic
Ġse gments
Ġsc ales
med ia
Ġve ctor
ĠId ent
Sm ith
ad h
ĠCo ff
res pect
ost ic
ĠWe ather
g ue
Ġnorm s
ĠS K
Ġun se
Ġsw ap
i ological
Ġc ub
ĠR af
Ġcance led
U se
Ġco pper
ĠNew ton
Ġind ie
Ġcar ing
ĠT yp
ĠM ull
ĠD ian
45 6
Ġint ensive
Ġpract icing
ĠCom ic
Ġhalf way
Ġmix ing
v s
Ġ18 00
Ġreal ise
Ġgest ure
ĠL E
Ġd awn
Ġa irst
Ġdis hes
Ġhabit at
ere rs
ĠG or
Ġn ont
Ġw itch
Ġsh orts
ĠR ule
ĠV oice
anche z
velop ment
Ġref res
Ġcar n
E Y
ĠC it
ĠF oster
ĠK um
ĠAlex and
l ink
ĠP ret
e ks
ond e
Ġro oted
Ġn aming
Ġpo le
W ashing
n as
ĠL ower
Ġch im
Ġlack ed
Ġpurs ued
asc us
ĠEdmont on
ra vel
re cy
ip se
ĠG az
Ġkilomet res
In vest
ĠTex ans
ĠUn ity
iction ary
ocr acy
I ES
Ġch ick
ĠCol lection
Ġmin es
17 9
Ġcon gr
Ġhas ht
Ġbackground s
olit ical
Ġshout ing
Ġflee ing
Ġthe atre
ĠB ren
ud ed
ĠOrig inal
Ġbe ats
ac ist
23 1
Ġm apping
Ġ12 8
ĠMont ana
Ġaccount ed
Ġver bal
are nd
0000644000000000000000000001 7
Ġb arr
Ġreb ounds
T ur
Ġm ud
S an
or ne
Ġfl ames
e ering
Ġman ually
Ġstr angers
ĠSh aw
ĠAl pha
Ġinf ilt
ĠCent ers
Ġpr one
Ġshe ep
18 9
Ġrall ies
Ġcoll ision
Ġn erve
Ġpredict able
ab i
Ġsystem atic
Ġspread s
Ġcommod ity
Ġneg lig
T Y
ac ept
Ġimport ed
ĠEdd ie
is en
ourn als
Ġload s
ar in
L ife
ang s
18 5
Ġ0 3
ĠNe uro
ĠMet al
ib les
L ong
Ġnurs es
ĠTeh ran
L aw
ur ry
Ġporn ography
re ate
Ġl ing
Ġdis gu
Ġven ues
Ġch rom
l ings
op ic
Ġcome back
Ġhe els
Ġconfir ms
g om
Ġdepos its
Ġ0 8
ĠCh ase
ling ton
Ġcompar isons
ivid ual
b ra
Ġcontr acept
Ġfif ty
ĠMue ller
at isf
ĠS witch
Ġplace ment
ac s
am pton
Ġcop e
Ġobsc ure
Ġfix ing
ĠP ic
Ġrecip ients
Ġsc attered
Ġdes ires
ĠYou th
ograp her
ĠStat istics
Ġsm iling
Ġtra ject
AS S
Ġswe ep
Ġru in
ĠAn a
R ob
ĠA er
ĠG N
46 7
Ġlit igation
M C
ĠC ool
19 5
ĠMov ie
Ġcolumn ist
ch t
19 2
They re
ĠQueens land
ain er
Ġadvent ures
Ġun iqu
Ġapart ments
Ġdis puted
ft y
ĠHell o
Ġb ored
J on
Ġneed ing
Ġrep ository
ĠCons umer
Ġ7 50
ĠR acing
ĠVis it
ĠS id
Ġeas iest
Ġcontribut ors
wr ite
Ġwh oles
36 0
Ġpromot ional
Ġir ony
ĠGreat er
Ġactiv ated
Ġshout ed
ĠP ract
Ġgener als
Ġimag ery
ĠMil an
ĠReds kins
Ġhy pe
ri kes
ĠF ace
Ġcons cience
emet ery
T w
im port
Ġins pection
Ġappreci ation
Ġsec uring
st ore
ĠJeff rey
S ur
33 0
Ġactiv ism
Ġl ied
Ġguarant ees
ix els
23 0
le ased
ĠC F
Ġsurvey ed
Ġgen ocide
ĠOther wise
et on
ĠK it
und ing
ĠAct ually
Ġl i
Ġpat ents
D irect
ĠW ings
Ġdes cent
ĠH S
ĠBab y
Ġtrop ical
Ġbrid ges
by e
ĠFin als
os ph
Ġbull ying
Ġvel ocity
es ville
Ġag encys
Ġdist ress
at ility
ĠT ouch
Ġres il
Ġbatt ling
Ġfavor ites
Ġpoet ry
ĠApp arently
Ġ1 03
Ġcooper ate
Ġfe ver
26 1
ĠEff ect
ĠSpr ings
p ath
Ġunh appy
Ġtransport ed
j u
ĠPriv ate
ort ing
ĠS eth
Ġdep uties
Ġup hold
ĠUp on
Ġinstruct ed
Ġremain der
Ġapplic ants
Ġlad der
ĠH im
32 0
y ers
Ġd ining
ogen ic
ĠP etro
Ġsu ite
ĠJ ama
Ġur anium
et o
ĠC urt
ĠI Q
Ġmarg ins
ik ed
Ġaffili ated
ĠC ash
Ġwood s
Ġd are
Ġd ug
ĠD j
ĠL ot
ĠPh D
Ġing ame
Ġcontinu ously
Ġfin ances
otten ham
ĠBM W
Ġcritic ised
atch ing
Ġinspir ing
Ġorg ans
Ġsp o
Ġcook ed
Ġl inem
ĠWashing tons
Ġstaff ers
Ġmathem atics
Ġic ons
Ġbl at
ust ain
Ġsh oe
Ch ar
Ġdefend ant
Ġm a
el ines
ident ified
Ġan om
ĠTH IS
ĠLat ino
M uch
Ġaest hetic
Ġ4 50
ĠSh akespe
ĠBen gh
ĠPot ter
ĠCarib bean
u ber
Ġc aucus
ĠB omb
ĠMart inez
ĠW als
ĠMarg aret
ĠEs pecially
Ġsl aughter
Ġliber ties
Ġboy cott
Ġdis ruption
Ġar rog
Ġair ports
ĠW E
Ġinstall ing
ov o
ĠK ap
om ers
Ġacadem ics
ĠM aur
44 7
ĠRe yn
Ġpar as
Ġinhe rently
Ġdress ing
Ġble eding
f irst
ĠL ate
h um
Ġwat ches
b est
Ġpull s
Ġschol ar
ĠHe zb
36 2
ab ased
Ġimmin ent
Ġproject ions
V er
Ġceleb rities
Ġauthor itarian
Ġund erest
ĠClar ke
47 6
H ar
M I
U G
Ġgot ta
P ut
it le
Ġpass port
Ġment ality
ĠPal m
se ys
Ġforg ot
y t
ĠH B
Ġmet eor
Ġamend ments
Ġn ucle
Ġmy st
Ġl ingu
Ġsu e
Ġhand les
Ġbrew ery
Ġv ag
Ġsp here
Ġaccording ly
ĠCol ts
raw ling
Ġmeasure ment
ĠBush s
an ne
Ġ2 30
Ġst aring
Ġcle aring
Ġge omet
Ġnut rition
r ising
Ġcand y
Ġsh adows
Ġconce aled
Ġrein force
ec a
ĠUn less
and ing
ĠG raph
sc he
c ost
ĠM ob
Ġsh ook
Ġqu ot
Ġassign ment
ĠS au
Ġc abin
ĠOper ations
Ġche ss
Ġp ub
Ġb ubb
Ġwh it
ĠIm pro
ĠPr int
ĠB ak
ĠTues days
ĠIndust ry
ĠObs erv
ĠNorm an
ĠDam ascus
ĠRoosevel t
Ġassert ion
Ġflav ors
Ġmo ist
Ġm ol
Ġill usion
ok u
Ġdr agon
Ġhistor ians
ĠS ite
iz ard
ĠHe brew
Ġrep roductive
Ġen velop
ur ious
ch ant
Ġprompt ing
ĠN ad
Ġw ield
ĠSw ift
ĠIndepend ence
ĠPet erson
With out
re qu
Ġdispl aced
I B
Ġtri o
36 3
Ġmilit ia
Ġto pped
37 3
ĠT ree
ĠL akers
Ġquarterback s
ke ll
Ġwild ly
ad ata
Ġimpact ed
Ġsynt ax
Ġdig est
Ġcounter part
Ġcoord inated
Ġpl un
OS E
ĠMajor ity
b ad
Ġdis reg
ĠLabor atory
qu are
ĠInt egr
Ġrail way
ĠLight ning
Ġw ished
ĠM t
Ġque ue
Ġn est
18 2
Ġt ide
u art
ot er
Ġen vision
Ġeduc ate
cont rol
Ġflags hip
Ġimmun ity
Ġcoord ination
Ġfortun ate
ys on
Ġmed ieval
Ġunbel iev
en es
ion e
Ġop io
ĠF alls
Ġh urd
Ġself s
ph is
Ġport rait
Ġtrans cript
Ġpolic ing
ĠK urt
Ġapp le
ĠCh ad
ĠGet ting
Ġmetab ol
Ġcertain ty
act ory
Ġfl ies
ĠMatthew s
Ġc af
Ġg ambling
A v
ĠKn ights
op oul
ach t
ĠCan cer
agg ering
ĠSteel ers
Ġpark ed
ĠE le
ĠFl a
Ġmount ing
Ġbail out
C NN
AC T
cific ally
Ġtou ches
Ġt ennis
Ġ19 62
ĠE L
Ġsl ated
ĠBelg ian
In f
Ġelement ary
ĠW elsh
ĠWinn ipe
Ġr anges
Ġcomp iler
S O
Ġcert ified
ĠY am
Ġdemonst rators
Ġamb itions
Ġas leep
He y
ĠTom my
charg ed
Ġhe ating
ĠM ills
Ġincorpor ate
Ġe cl
Ġcollect ively
ik o
Ġsp ont
ĠDep artments
AR K
Ġadvis ory
Ġsufficient ly
Ġde ar
Ġ2 47
ĠJ ays
Ġpri ests
Ġleft wing
Ġdispos al
Ġab usive
n is
Is lam
worth y
ĠS ter
ad ays
work ing
Ġcustom s
Ġill um
ĠM ut
ĠM ol
ĠH ob
Ġrecover ing
Ġaer ial
Ġo ven
ĠSt rip
ĠBengh azi
P erson
p ired
Ġport able
Add ed
ĠN ut
ues e
Ġcor rection
ĠB apt
ĠNor weg
Ġfive year
Ġd airy
ĠK in
Ġnone x
Ġd ent
Ġfar mer
Ġt s
Ġpromot ions
n els
44 4
00000000000000 15
Ġhuge ly
Ġun av
Ġconnect ivity
Ġprogress ion
t able
est on
Ġdistinct ive
Ġc ros
ĠNiger ia
ĠK end
Ġanx ious
ĠL arge
Ġfe ather
Ġremote ly
uck ed
B ron
Ġst ap
Ġeat en
Ġgenet ically
ur ally
ĠP engu
le ft
Ġprior it
ĠSum mit
ĠVin cent
Ġg orge
Ġreact or
Ġh ipp
Ġen j
18 7
F eed
Ġpl ausible
ĠTit ans
clus ive
Ġc ad
st ory
Ġcook ies
46 6
Ġadjust ments
15 8
Ġdelight ed
Ġlegitim acy
Ġoff line
24 0
ĠCath olics
Ġ0 7
ĠCre ate
ĠU l
ĠM ig
Ġc age
Ġindic ator
ens ed
Ġcongr at
ocr ats
Ġassoci ates
00006440000000000000000000003 6
ean or
Ġwe ed
Ġacc laim
Ġexp ans
Ġdiam eter
Ġdirect ing
Ġcent ered
ĠCop yright
Ġoutrage ous
ĠIM F
ĠN ok
m und
ĠY ale
ĠShe ll
oll o
Ġindivid ually
Ġred es
26 0
ĠArch itect
D isc
Ġacc ent
ĠM oss
and als
Ġpit ched
Ġpat ron
Ġut ilities
Ġbehavior al
Ġcatast rophic
ĠD h
Ġansw ering
Ġmater n
ĠCur rent
Ġbench mark
est e
Ġsh aking
ĠT ab
Ġhom icide
Ġal igned
Ġdes erved
Ġphys ic
M ac
ĠU A
Ġcar b
ong yang
Ġp ork
Ġsmall est
W ind
Ġinstrument al
A ug
Ġp und
37 2
Ġdis l
Trump s
Ġmusic ian
ĠP oints
ĠUlt imate
ĠEv an
ĠTib et
G L
Ġ2 030
F rank
it as
27 0
ĠMon ster
ĠD olphins
Ġcr ap
p rom
ĠO culus
25 9
Ġvit amin
P ort
ĠB ody
Ġprem ature
ĠX L
Ġan kle
Ġ17 0
Ġhig hend
ĠSocial ist
ĠW ITH
ĠT ak
Ġshow case
App le
ĠTh ai
ĠTe levision
ourn ament
Ġfound ers
em ale
Ġhor r
l av
ĠFrid ays
Ġcrus hed
ĠVeter ans
Ġem pir
ĠV a
H ead
Ġc ensus
id ity
Ġsatisf ying
et ooth
Ġcouncil s
Ġfor wards
ĠP P
Ġintegr al
Ġin k
ĠM end
Ġgl ac
ĠGib son
Ġpat ches
ĠH ousing
Ġro d
yl an
cons cious
U lt
Ġplant ed
eg a
Ġp estic
Ġpersu ade
ĠL oc
99 5
Ġmanip ulate
alk ing
22 9
Ġzomb ie
Ġg ates
ĠW ant
Ġstat ute
Ġdish on
Ġat omic
Ġun related
45 7
Ġlad ies
Ġminim ize
m atic
Ġbi ased
f our
Ġposition ed
Ġoff enses
Ġjail ed
ĠT rip
Ġtw ent
C ount
Ġwe ighed
Ġr ipped
37 0
Ġse as
H P
ĠPer formance
Ġfaith ful
at us
ĠSc reen
ĠStud ent
ort on
ĠEt hereum
ĠW AR
Ġcompet itor
ĠK il
Ġbreat he
ĠBr ain
Ġ24 0
ĠCoun ter
Ġt a
gg ing
Ġsound track
ĠW rest
Ġexplan ations
ĠConfeder ate
Ġunp redict
Ġadv ancing
Ġchap ters
ry ing
Ġgener ates
Ġplaint iffs
ow itz
ĠBoe hner
Ġener g
h h
ĠM ater
Ġat op
ĠLe x
Ġg ren
Ġlight weight
ĠInter ior
ĠCrime a
ĠEmer gency
ĠC os
Ġemb ark
ĠLear n
Washing ton
ĠSt ream
! .
Ġlight ly
Ġdat as
Ġattend ees
Ġsynt hetic
Ġo we
m ission
ie ve
ish ops
ot ive
ĠA FL
Ġport ions
ĠTer min
d i
ĠB eth
ĠCity s
Ġquant ities
27 1
Ġres ent
Ġtreat s
Ġju ven
Ġancest ors
Ġa fore
Ġn ail
Ġbe es
Ġmet er
Ġcr ashes
ĠCh a
Ġcateg or
Ġaver aging
ĠMumb ai
Ġsl ipped
Ġpay roll
ĠH az
um my
Ġcurric ulum
Ġo w
Ġman a
Ġred irect
Ġassist ed
st ick
19 7
Ġalumin um
Ġal erts
Ġinhabit ants
ampamp ampamp
Ġblow ing
ĠThanks giving
Hist ory
in ates
Ġcont ender
G O
ĠIniti ative
Ġst unt
47 4
32 1
ĠN ord
ĠL ion
Q U
F ile
ĠD elta
Sh ort
Ġconsist ing
Ġhapp ily
45 4
Ġfif teen
Ġrest oration
Ġnegoti ated
Ġopt ical
ĠStr ateg
il ia
Ġdec isive
Ġillust rated
Ġbound ary
Ġclim bed
ĠC ob
Ġdig ging
ator ial
le ague
v oc
ĠMex ic
U K
Ġs i
Ġins ufficient
Ġappeal ed
Ġn ortheast
Ġp iss
ĠH ost
Ġshow c
ortun e
Ġbon uses
Ġcry stal
18 6
Ġp ul
epend ent
Ġconsult ation
Ke ep
Ġincl usive
Ġnic he
he et
Ġex cer
iet h
Ġcl ue
Ġrun ners
ĠPr ison
Ġint oler
fl u
ĠH off
ĠVis ual
child ren
Ġd orm
Ġexplo ited
ĠLad en
32 9
ĠTH AT
ĠLe aders
Ġo ceans
ĠI O
Russ ia
ap an
Ġbl ade
23 9
ĠAbd ul
Ġdetain ees
ĠTrav is
re ctions
Ġprotest ing
ĠS pl
Ġself ish
Ġant agon
P oint
46 4
Rem ember
Ġab rupt
OR D
Ġst akes
k ar
Ġu b
Pro t
Ġincons istent
Ġdep ressed
18 4
ĠA A
Ġdeb ts
Ġfert il
ope z
Ġcro re
h is
ĠMin i
Ġneg lect
Ġdetect ive
ĠT X
ĠDan ish
Ġsim ulation
Ġfil ters
Ġvol t
ĠGo ing
ĠCour ts
ĠB arr
Ġtri v
Ġmis er
Ġunp opular
Ġrecogn ised
ĠA CC
ĠS ale
ĠW ang
Ġnot ification
ĠG ore
ĠWild life
a que
Ġflo ors
ĠSat an
he rent
ĠCast ro
ĠM add
ann ers
ĠE aster
ĠH ass
Ġch asing
ĠJen kins
v iol
33 9
Ġprohib ition
Ġcol ored
te am
l isted
ĠD ame
Ġcru ise
ĠLim ited
Ġno ble
lud ed
h u
ĠH A
Ġinv ention
ĠWal mart
Ġtatt oo
Ġp istol
Ġinc lined
Ġopt imal
Ġsl ammed
Ġste ering
ĠMal colm
o ir
ĠB O
ĠF ix
Ġprotect s
Ġsimilar ities
Ġsie ge
ĠJ in
Ġimpro per
Ġmor ph
Ġsp ike
Ġslow ed
45 3
ĠSc ri
Ġhier archy
Ġsc am
Ġimp osing
84 9
Ġblank et
ĠCom cast
Ġconstitu ents
en ly
om ore
ĠJ ob
ĠR F
Ġab ortions
r ade
ĠS anchez
Ġdecision making
Ġr ip
Ġtrave lled
Ġincumb ent
op ers
ĠAn alysis
V is
z el
Ġev olving
Ġluc rative
ĠBr ight
ash a
Ġresc ued
ĠO H
ĠAmb assador
ĠLeaf s
gom ery
og yn
IT E
201 3
Ġsou p
P ac
oke mon
Ġbox ing
V R
Ġinher it
ĠChildren s
Ġin ning
ĠD erek
ard i
ĠY u
ĠCar roll
Ġcere mon
od s
Ġecho ed
um per
ĠE R
Ġgang s
ĠCh rom
Ġrow s
ĠShan gh
Ġinc ap
ĠMun ich
Ġorgan isms
Ġhyd ro
Ġloc ate
ĠD oc
Ob ject
am ples
undred s
Ġconsist ed
Ġweakness es
Ġmark ing
18 8
ĠSy n
C r
ID E
Ġper ipher
Ġutil ize
Ġcoinc idence
Ġt ended
Every one
ĠG aming
Ġsh ine
Ġelect orate
Ġsh ark
ĠO ften
Ġmar riages
ĠR ust
ous ands
ĠH ence
econom ic
yn asty
Ġgas oline
uff le
Ġremark ably
Ġconvent ions
Ġsens ible
ĠWord Press
er ness
Ġover view
46 2
AM Y
o at
ĠS HA
a ic
h art
Ġg em
Ġshe lf
S H
Ġsp ying
ab lo
ach i
Ġque en
Ġatmosp heric
ĠRe ce
olute ly
Ġprol ifer
Ġamb ition
Ġsupp ress
Ġpo em
Ġbl u
ĠCaliforn ias
Ġpit ches
Ġdeleg ation
pect ives
ĠC ort
Ġcirc ulation
ĠS ug
le en
Ġr iots
Ġback ward
Ġseek ers
Ġcl ips
ĠS add
Ġhum ble
ĠS oul
Ġpaint ings
Ġrecruit ment
an cer
Ġz er
Ġmasc ul
G R
Ġmig rant
ĠTer ror
Ġfrag ile
ĠPortug uese
Ġbr on
Ġwar ns
AC E
ĠHuff ington
ĠD D
Ġby tes
ud a
Ġst aggering
Ġpl ural
ĠE N
ĠCh ampion
ĠNorth west
Ġthr ust
Be ing
19 6
ĠHer oes
iat ric
Ġcontem pl
Ġart illery
35 9
Ġsher iffs
ĠS r
ĠH usse
w age
17 8
Ġc ran
ĠP or
Ġupgr aded
ĠFal cons
ĠRe act
13 00000000000015
V M
og ans
Ġt ales
ĠP aper
ĠN ine
Ġclass ification
ĠPro bably
Ġrecogn ise
Ġun m
Ġsc iences
ĠNew castle
Ġmet rics
ich t
Ġbl oc
Ġactiv ation
prising ly
ot he
ĠE sc
C AR
Ġjud ged
Ġconsum ing
ĠDise ase
id y
im ity
Ġwe ars
ĠD ani
Ġref und
Ġcul p
201 2
Ġautonom y
IN T
Ġsl ides
Not es
ĠD at
Ġself def
Ġpros pective
ilit ary
ĠLeon ard
ĠA j
ĠEn forcement
ĠN R
S um
ĠFor bes
Ġillust rate
Ġfart her
Ġpredomin antly
Ġfl uct
Ġspe ar
Ġwrong do
Ġhon ored
ĠLoad ing
izz ard
ud s
Ġmon itors
ons ored
ns ic
Ġo st
Ġhand ing
Ġlow ered
ĠS ri
Ġpo ised
Ġpersonal ities
ĠArab s
ĠS outheast
ĠMon th
h ouses
ĠWest minster
Ġp iano
Ġn odd
ant om
05 00000000000015
F ire
ĠEvery body
Ġinher ited
het ical
ĠA ur
Ġ10 4
Ġdri ed
Ġenthusi astic
um ed
Ġcol ony
M ax
Ġsl im
Ġtour s
Ġtast es
Col or
ĠArm strong
Ġemail ed
ibl ings
Ġsl ogan
Ġfore most
opoul os
ĠGene va
Ġp oured
ĠL ed
Ġvar iants
Ġant id
Ġlo oph
Ġdep osit
ĠPear l
Ġthe at
ro ads
Ġjew el
il itation
Ġbrows ers
Ġorig inated
Ġop ener
Ġemp athy
15 00000000000015
Ġclin ics
ĠNich olas
Ġsm iled
24 9
Ġord inance
Ġcig arette
v ens
ab el
Ġbre wing
Ġc otton
ask et
ĠDel aware
Ġt ense
Ġun equ
Ġbank ers
ĠColomb ia
ĠSt ories
27 9
ĠGl as
Ġinterven e
Ġu mb
Ġgu ides
ir ation
ot ics
Ġa int
Sc ott
n ia
Ġadministr ator
ĠHud son
ĠRichards on
ĠS weet
ĠD ust
24 1
S uper
ĠEm ir
Ġab n
ĠL anc
Ġcl iff
Ġnost alg
45 0
Ġt ags
Ġalleg es
th an
ĠO C
Ġrelax ed
ĠP orter
07 00000000000015
ĠP ierre
ĠHezb ollah
Ġbas ics
Ġcooper ative
Ġagg rav
F ull
14 00000000000015
Ġ19 00
Ġgen ome
ens en
ĠPH P
Ġsepar at
bro ok
it ous
Ġe ld
ĠAnd ers
ĠP ul
Ġadm ire
Ġl oot
ĠFa ith
C rit
C ong
N ational
Ġenfor ced
F il
ĠM atch
Ġshall ow
uff y
ĠGener ation
ok ers
ĠAd rian
Ġpositive ly
Ġdes criptions
Ġsymp athy
Ġintu itive
ĠS QL
ĠH ook
ĠSt ay
45 2
ĠHond a
ig ion
Ġ19 61
Ġinadequ ate
06 00000000000015
Ġb ounce
Ġpr iced
33 1
00006440000000000000000000002 4
Ġappl aud
Ġc ripp
Ġuncom mon
ĠRal ph
G P
Ġd ude
ĠPr ide
Ġpract iced
ĠEll is
ĠACL U
ee b
EN D
ĠMet ropolitan
ĠV ideos
e ous
OW N
03 00000000000015
mer cial
Ġcomb inations
Ġt ires
ĠF o
Ġjer sey
Ġcaut ious
ĠR ules
Ġrel iability
Qu est
Ġwho lly
ĠReg ister
ĠG ang
ĠSch ne
Ġnav ig
Ġeff ic
Ġnurs ing
i pt
he y
Ġen light
Ġc ivic
Ġel ses
Ġmole cular
O H
Ġbelong ed
st ation
ill as
ber gs
ĠOB rien
Ġpus hes
Ġhorizont al
ĠN uclear
Ġreal izing
19 8
Ġblog ger
00006440000000000000000000005 5
ĠThe ory
Ġoverwhel med
ĠB our
Ġcou ch
Ġb ent
11 00000000000015
ĠL av
Ġextensive ly
Ġde portation
Ġtrad ers
Ġobtain ing
ĠalQ aeda
Ġlit eral
am iliar
Ġ19 44
Ġencrypt ed
P ar
Ġoverlook ed
04 00000000000015
Ġbre eding
Ġang les
Ġfiref ighters
if es
ĠMar ie
arm ing
ĠWebs ite
Ġobs essed
ĠMem phis
12 00000000000015
Ġafore mentioned
ĠEm ily
ĠEag le
Ġmin us
Ġcompl iment
AS E
Ġcod ing
i ott
Ġgener ator
Ġcycl ists
ĠM T
O pen
Ġwrit ings
ĠHop kins
el o
44 2
t oday
ĠM ak
ĠL ords
Ġexp osing
Ġadvis or
Ġmonop oly
Ġhome owners
Ġsec urities
ĠSher iff
Ġsou ls
Ġw ives
Ġdefic its
ĠH ack
Ġautom ation
Ġ0 5
Ġlog s
ĠKurd s
Ġs acks
Ġco h
47 2
Ġfor ty
ĠK o
Ġver ified
ĠPy ongyang
Ġe go
ĠHe avy
rodu ced
ĠId aho
ĠSim p
ĠGOOD MAN
ĠE ug
ĠGr ace
Ġinsect s
Ġredu ctions
Ġcraft ed
ĠF ew
Ġmotorcy cle
ĠY e
Ġscar ce
ĠJ os
Ġbook ed
Ġreward ed
Ġso y
V s
iv ia
ĠNorweg ian
Ġe ternal
ĠAn onymous
Aust ral
Ġst agn
Ġbot hered
st rom
Ġsc ifi
34 9
Ġtight ly
ourge ois
Ġinform al
16 00000000000015
26 9
Ġsuppl iers
Ġcamp uses
Ġdys function
N one
Ġp unk
own er
ĠCharl ott
Ġno on
Ġcons oles
uth ored
45 9
Ġterrit orial
Ġsec recy
Ġrespect s
ĠDev ils
Ġend angered
Ġcinem a
I Z
ĠGu ant
Ġslow ing
ĠV ersion
34 1
AN S
Cont in
Ġreck less
Ġinterf ere
Ġaston ishing
ĠCh an
Ġpartic le
ĠAven gers
ĠRepresent ative
ĠCD C
Ġfact ion
ĠMos ul
Ġdies el
he res
Ġg ases
ĠHe ights
Ġmonit ored
Ġreflect ing
ile m
Ġ1 35
play ing
Ġp ree
Ġr ider
85 9
ĠWinnipe g
Ġyield s
99 7
Ġnomine es
Ġexha usted
ĠH av
ult z
Ġbitcoin s
J S
Ġs way
Ġse ize
ener ation
ĠUniversity s
Ġhur ting
Ġant ig
ator ies
Ġactiv ate
Ġprop osition
Ġrepe ating
17 00000000000015
ar us
and ah
M E
od a
37 9
87 9
osh i
Ġdiplom ats
Ġwh ales
44 0
Ġstate wide
ĠToy ota
P ower
p ic
ĠB in
it ime
Ġ19 48
ĠTri ple
Ġout line
ĠQ uran
ĠInn ov
Ġfl own
Ġsent encing
ĠProp het
Ġb rib
lev ard
Ġhilar ious
Ġshel ves
ĠIn g
Ġcomb ining
Ġad ul
Ġwork out
l ength
Ġp ets
er ie
ĠR ut
cl ock
F s
ĠE A
ĠRep orts
ĠAustral ians
44 3
Ġst aged
Ġsubject ive
ll ah
Ġkind a
AR Y
Ġwond ers
ĠCon c
itz er
Ġten ants
Ġprob ation
ĠSur face
Ġext inction
Ġvast ly
amp ire
Ġass erted
Ġrespond s
Ġlic ence
Ġl am
ĠUS C
Ġtro phy
N Y
ĠG ing
ĠC AN
Ġu m
OC K
Ġwho ve
Ġcease fire
ĠK enny
Ġperform s
Ġimm ers
b ane
ĠF ocus
Ġrif les
G old
ĠAg ent
Ġaccompan ying
Ġar row
ĠS ny
he arted
ep th
Ġt il
ĠMc N
Ġsurf aces
ĠSim ply
Ġp ap
ĠC rew
own s
34 0
Ġuns upported
Ġw oke
Ġne arest
ĠN aval
Ġass aults
Ġrev is
ĠVal ue
ĠSmith s
Ġborrow ing
ĠT ottenham
ĠP ew
ĠRom neys
ĠRand y
Ġje opard
Ġgr ades
ĠLegisl ature
uff s
000000000000015 2
Ġfemin ists
Ġreal ities
P ass
Ġup ward
47 3
Ġincom plete
ĠEm peror
Ġtriv ial
ĠK iev
op hers
Ġcommer ce
Ġto pp
ĠC osm
est a
m n
o qu
it ially
Ġdev il
T ext
Ġs outheast
Ġl enses
Ġemer gence
ĠIS BN
00006440000000000000000000004 7
Ġinaug uration
iz oph
d is
b ot
Ġc ared
Ġther mal
m ember
ĠTh rones
ould er
Ġfin est
ĠSw an
ĠJosh ua
acer b
or um
id i
Ġquick er
ĠNS W
Ġenj oys
isc rim
ĠCourt esy
Ġver se
ĠPC s
v ance
ĠN ar
Ġinvestig ator
Ġnever theless
Ġshot gun
Ġall ocated
Ġcol ours
Ġview er
Ġcon form
ore st
Ġimprison ed
ĠEconom ics
Ġm i
am on
Ġinjust ice
ke eping
Ġadd ict
H el
Ġen compass
Ġadd itions
In tern
Ġprivile ged
A pr
ĠCase y
Ġla wn
Ġs atur
ĠB ark
ĠF ine
Ġlo vers
Ġfranch ises
Ġcompe lled
in yl
que z
ur bed
Con clusion
ĠM ik
Ġpract ition
sh it
Ġunlaw ful
m us
Ġcl ues
ĠTun is
U RE
ĠH i
Ġh obby
ĠD ale
ĠRe x
86 9
Ġinsist ing
Ġg rief
ĠM our
ig el
Ġoptim ism
Ġvibr ant
Ġpay load
ĠGT X
Ġg ently
36 9
UL L
46 9
Ġcon gest
Ġdist ances
Ġsam pling
Ġimprison ment
ĠE arl
Ġro bb
ĠCy ber
Can ad
ĠR uth
He alth
Ġcomb o
ĠStep han
ĠWiz ards
ĠCharg ers
mid t
Ġrecip ient
ĠGl en
Ġth rive
Ġtest ify
Ġimpl ied
ing ham
ĠC ensus
Ġmerch and
ine a
ĠOr d
ĠB ach
ĠNot es
F ive
at in
Ġal pha
Ġsex y
ĠUC LA
Ġform ats
Ġassum es
ĠJ agu
ĠPaul s
Ġmention ing
33 8
Ġmicro sc
Ġm es
Ġinter ventions
ĠRe lease
ĠSal v
ĠW end
Ġtr ails
Ġdemonst rating
ĠF ear
Ġax is
Ġd ip
ber ger
cont rolled
Ġmin ors
il ight
ov an
Ġprox imity
Ġunder water
Ġbe am
Ġunder grad
is le
Ġtask ed
Ġhigh quality
ĠAgricult ure
ĠL anguage
ĠD ash
Ġrele g
ĠEd in
ĠN early
Ġbo asts
p op
Ġh ight
AT H
Ġfig uring
ĠAdvent ure
Ġsad ly
Te am
A f
as cript
Ġcandid acy
ump s
Ġprim aries
Ġcommand ers
ĠWH O
Ġwel coming
ĠT PP
Ġgl uc
Ġlog in
ĠDep ression
E xt
in ning
Ġnot or
ĠVirt ual
Ġs iblings
Ġprob able
Rober t
ĠC ele
ĠSt range
Ġdef er
ĠArn old
B ill
Ġadminist ered
b ach
st airs
Ġfair ness
Ġsn ake
Ġpopul ist
Ġawa iting
S ources
in ational
Ġr ans
44 9
Ġass ure
Ġadv ise
Ġcr ush
ĠPre vention
ĠBash ar
Ġstoryt elling
izoph ren
35 1
ON E
ĠMus k
ĠMond ays
Ġpromot es
o ids
Ġan ecd
Ġind ul
g ow
ophob ic
t w
ĠT B
Ġsus cept
Ġeval uated
ĠG oth
Ġd oses
Ġunn amed
ol iberal
other apy
Ġjump s
ĠLouis ville
Ġj aw
ĠSimp son
ĠT ories
ĠK ane
ĠAt hens
18 3
Ġrebell ion
Ġpsychiat ric
ĠTr ad
ĠCom plete
Ġobject ions
Ġdark er
ĠF S
95 9
Ġex acerb
Ġincomp et
Ġupload ed
ĠShangh ai
Ġan nex
E nd
Ġen rolled
al one
25 8
use ums
d riven
Ġc el
Ġpa ired
Ġabund ance
Ġconj unction
ĠX i
Cont act
ĠHend erson
or p
Ġserv ants
St r
Ġsand wich
Ġspin ning
Ġgr ams
Ġinput s
ĠLGBT Q
ĠFran co
ĠAng els
Ġaffect ion
ĠE ye
Ġunderstand able
Ġd ice
Ġnew com
ĠSt rike
Ġlobby ists
Ġim aging
Ġprov oc
Ġmot ive
Ġsanct uary
ĠA IDS
Ġmain land
os ion
Ġsens ation
le um
cy cl
Ġconcent rate
ĠNov a
Ġnational ism
Ġto ggle
Ġhard core
Ġmed ications
ĠS orry
ĠHar bor
c all
ĠC raw
Ġerupt ed
M M
b ridge
Ġf itted
ĠS ask
ĠGand hi
ĠJ unior
ĠAl z
Ġcy l
1 09
is se
ĠB rett
Ġmiddle class
ĠP le
ĠM R
un al
Ġco vert
99 6
orig inal
Ġdes irable
Ġ10 6
Ġsp am
Ġfool ish
Ġcapt uring
85 5
Ġemb ry
Ġpast or
Ġaut op
ĠGu ild
Ġtw op
y g
uss ions
47 9
Ġtrans mit
46 3
Ġapolog ized
J une
ĠT E
Ġ1 13
Ġhighlight ing
Ġb aking
ĠD ow
Ġprosecut ed
Ġliqu or
b uild
ff e
Ġdis gr
yearold s
Ġdatab ases
ĠB io
Ġche f
rop he
Ġsun light
ik er
Ġacadem y
Ġproceed ed
Ġp ixel
iv able
22 8
ĠApp eals
ĠL iqu
Ġprotocol s
Ġpitc hers
Ġc ater
Ġcompet itions
Ġs ic
og o
Ġz oom
Ġhur ts
Ġun ified
Ġsub urb
ĠHy d
Ġconstit utes
ĠW el
ĠSyri as
e ger
Ġpop ulated
R eal
id av
Ġcry st
ĠApp ro
Ġcomp ile
Ġconf isc
Ġ10 80
Ġcontro llers
Ġstand point
ĠD L
i ably
19 3
as i
Ġha w
Ġst airs
ow ay
Ġexc av
ĠBas ically
Ġprocess ors
ĠW ag
ĠL P
Ġparticip ant
Ġcompr ised
S am
Ġcorrect ed
Ġintent ional
Ġant hem
Ġobs ession
Ġrev ision
pe c
ĠU g
ĠD iet
Ġadm itting
ĠT roy
ale z
ĠMont gomery
ĠK id
Ġrem inis
Ġexplos ives
ro v
are a
ĠIs aac
intend ent
Ġrom ance
ĠI CE
Ġun just
ĠM ix
ĠK ush
Ġmet adata
ĠBas ic
an ity
Ġneighb ours
ĠWals h
y re
32 8
ĠAb du
Ġparad igm
ĠGreg ory
ĠS gt
ĠR ot
ĠLib yan
Ġn g
Ġignor ant
i ov
ĠT iger
est ly
Ġper secution
Ġnorth west
Ġfin ed
Ġdr astically
ĠPers ian
Ġcontest ed
Ġmos qu
Ġbuck et
he ster
il ogy
ĠV o
ĠV el
ĠIndust rial
d ollar
ob a
IC H
Ġsymp athetic
Ġcool er
heim ers
Ġunder cover
Ġsystem ic
Ġgorge ous
ĠM UST
un ity
osa urs
Ġvol can
Ġcan on
Ġc ites
ĠJ up
ĠScri pt
Ġg ran
ĠR idge
c ot
c ence
Ġsh irts
Ġconf ined
ĠCon cer
65 5
ĠBer g
Ġpr ag
chn ology
ĠBuddh ist
Ġinterrupt ed
Ġy oga
Ġk its
Ġhelicop ters
Ġconced ed
ĠH ab
Ġsurf aced
Ġpremium s
b et
Ġc um
Ġth reed
Ġincre ment
Ġens ures
95 5
Ġlog ged
Ġval ley
i pper
Ġat roc
ch at
Ġdis respect
ou x
Ġen rich
ĠT C
Ġmis ogyn
Ġelim ination
p ie
Ġan ten
ĠSu z
Ġfeed s
ĠEll iott
Ġstab bed
ĠS achs
ĠPost ed
ĠAsh ley
Ġhum ili
asc ular
go vernment
ĠAp ollo
Ġflood ed
Ġcolor ful
Ġbed s
ĠCh in
Ġmaneu ver
Ġtraject ory
V I
Ġlog ging
T T
Ġs ore
Ġr ust
Ġnum er
ĠCirc le
B o
Ġcho oses
Ġmeth ane
Ġgreet ed
Ġpool s
new s
85 7
ĠP OL
Ġtra it
Ġcr isp
Ġarm ies
Ġl od
ĠN ak
rig er
Ġstun ned
Ġp ills
65 7
J im
ĠW ake
Ġmethod ology
Ġambul ance
q a
Ġir respons
ĠPere z
Ġemb od
ĠUs ers
Ġemphas ize
ĠIns ider
M arch
Ġam ended
Ġexem pl
h ist
Ġst yl
Ġprogram mes
ĠN P
Ġcal culation
Ġball oon
1 08
b at
Ġdefin itions
Ġdelic ate
l on
Ġ2 20
Ġout reach
ĠDod gers
Ġh ints
ĠF ortunately
Ġsl am
Ġ12 00
Ġstr ains
Ġliber ation
b us
ĠC el
Ġw olf
F orm
ĠM ets
Ġlot tery
ĠD ad
Hill ary
the ning
Ġc ows
88 9
Ġdisplay style
ĠReg ion
Ġtort ured
b ank
Ġide als
ĠX P
ĠBarn es
ĠStal in
oph y
ĠR abb
Ġpl um
Ġdisapp ro
Ġphenomen a
im er
ĠPat rol
ĠF D
Ġup rising
75 0
ĠSC P
ĠR ab
Ġgl oves
Ġsk ate
Ġsyn c
C onst
Ġbarg aining
ĠGab riel
ĠC airo
ĠH od
Ġ12 3
Ġintern ally
Ġmis dem
Ġdistingu ished
Ġprejud ice
r ational
ak is
Official s
p ose
ĠMar ines
Ġright ly
ĠTrans port
ĠL um
ateg ory
Ġathe ist
Ġl ur
Ġcont ention
In s
off icial
Ġdest inations
e i
oy le
ĠB uch
Ġhom eland
ris k
ĠT win
Ġpl ots
pl oys
ĠTheres a
arl ing
ĠInd igenous
unt ime
Ġcoc onut
Ġd uck
Ġhe ck
ĠI van
ĠC G
av i
Ġwrongdo ing
Ġdoub les
osp here
ter rorism
Ġsens es
ĠGen esis
Int erest
G en
I RE
ĠSh op
Ġhar ness
Ġingred ient
Ġbless ing
b ial
88 5
Ġid iot
Ġsuccess es
Ġround ed
Ġb ourgeois
ĠHaw ks
Ġentire ty
Ġl ining
Ġcat alog
keep ers
ĠH app
Ġsl ots
ĠN am
Ġtime ly
Ġcat aly
Ġperce ive
Ġp ard
Ġperform ers
eter min
ĠC rypt
so ver
g rown
t ob
ĠSt uart
Ġpres cribed
Ġpart time
ĠF uk
Ġteach ings
st eps
Ġthree year
ĠSh o
Ġpur ported
Ġembarrass ed
Ġeleph ant
ie ves
ĠAl ways
Ġfour year
Ġbat ting
Ġpropri etary
oc y
ane y
Ġnon f
hed ral
Ġdeb ated
w ald
Ġpartners hips
00006440000000000000000000004 6
Ġtransm itted
Ġk ings
Re view
Ġgra pp
Ġcorrid or
ĠInd y
Ġsum s
Ġprem ises
S cient
l ated
Ġo wed
ĠK ob
Ġsoph omore
ĠM ens
ĠThe ater
Ġalarm ing
Ġinfer ior
names e
ĠM oto
ĠBa iley
ĠT W
ĠC V
Ġro pe
Ġmor ally
h yd
Ġd ull
an throp
Ġsw orn
Ġcoord inate
ĠErd ogan
Ġworks hop
Ġst ew
Ġfest ivals
Ġfin ishes
3 02
M ap
ĠP and
wh o
Ġmir acle
Ġext ensions
Ġaff idav
S il
Ġe g
Ġsen iors
88 8
Ġol ive
az eer
eth ird
Ġp ixels
Ġincon ven
Ġb ore
Ġh over
S ubscribe
it ives
Ġrecogn izing
k is
ĠLeg ends
s ite
Ġav iation
p ublic
Ġth a
ĠMor oc
oles ter
Ġware house
ĠQu arter
ĠPar ad
Ġnick name
ĠD in
Ġprop osing
Ġconnect s
Ġstret ched
Ġmar ched
Ġar che
ĠTreat y
ĠT u
Ġhigh level
Ġunsuccess ful
ri um
Ġd y
th century
ĠG ent
Ġanaly tics
Ġexclus ion
ph abet
Ġhy ster
ĠHold er
Ġric hest
ine ment
? .
ĠE ST
Ġb og
Ġmach inery
Ġadvoc ating
Ġtoler ate
18 0
et itive
Ġsing ular
ĠEdin burgh
im en
Ġyell ing
Ġout law
Ob viously
Ġv ic
Ġimpro ves
Ġforb idden
Ġinaccur ate
ed uc
ĠB uc
Ġmat rix
Ġspecific s
inf o
ĠScient ists
re a
J eff
Ġ10 9
ys ical
Re uters
ic able
ĠI gn
Ġbig ot
Ġnotice able
ĠN FC
00006440000000000000000000003 4
Ġdiscover ing
ĠG S
ĠT weet
Ġcell phone
Ġvulner abilities
Ġgri ev
ĠE gg
Ġoccup y
if le
01 00000000000015
Ġtw isted
Ġphr ases
Ġnot ebook
sh ine
Ġprolong ed
24 8
Ġobst acle
ĠAlf red
b ucks
Ġparad ox
Ġpass words
Ġacceler ate
Ġcur iosity
Ġfur ious
Ġfirst round
Ġcast le
Ġstere otypes
Ġvar ieties
S anders
Ġg ad
ĠKas ich
Ġair lines
P age
T er
Ġlif elong
Ġunw anted
ĠCore y
amm ad
Ġth y
Ġdebut ed
Ġgau ge
. ."
ĠT ap
Ġh ills
rid ges
amer a
Ġmaxim ize
ĠFerr ari
if a
ĠD ownt
ract ed
Ġairpl ane
Ġpl asma
Ġche ating
Ġacknowled ges
S er
f ax
Ġcont ests
ĠS R
Ġadop ting
ĠRoberts on
Ġstatist ically
ri ents
Ġde af
Ġer ad
od er
red ited
Ġfe ud
Ġmet ro
Ġman kind
ĠNot re
Cur rently
Ġreact ed
rell a
ĠS V
ĠCom ing
ĠSch olar
ĠR ac
Ġind epth
Christ ian
W ant
Ġbuy er
Ġbarg ain
Ġdeal er
Ġsuff ers
Ġprompt ly
ut ton
Ġmil estone
S ept
Ġc ite
ĠW A
Ġrel ates
ĠT L
Ġstory line
ĠWalk ing
w ait
Ġ 0000
ra f
35 00000000000015
Ġresist ant
Ġpun ct
ĠL opez
Ġsett lers
!! !!
Ġappropri ately
Any one
ĠAub urn
ĠL iter
Ġinf ants
47 00000000000015
Ġste alth
Ġpen is
Ġillust ration
ĠKen ya
ĠPr adesh
ol ith
Ġo ath
ut ic
Ġvis ibility
23 8
Ġsouth west
Ġre all
Ġprogram mers
Ġbl essed
do ors
Ġuniform s
Ġye ast
Ġc ried
Ġatt ain
39 4
Ġaccommod ation
Ġprest igious
Ġ1 14
Ġbo o
Ġb ast
Ġmin eral
Ġcle arer
ĠReyn olds
r ina
Ġoff ences
Ġselect ing
Ġmer ger
ĠN ice
Ġweigh ing
Ġfr acking
ĠQ A
ĠProgress ive
Ġafter ward
r ace
Ġbrut ality
ĠCelt ics
ĠV illa
Ġloc ks
Ġeleg ant
ise xual
Ġpot atoes
H C
ĠAd vis
Ġinfring ement
And rew
Ġas c
ĠN L
46 00000000000015
ĠLear ning
ĠSer b
Ġstrateg ist
Ġa kin
ĠPer l
ĠSing le
Ġacce pts
Ġ10 8
25 00000000000015
Ġ0 6
c ue
secut ors
ĠX ia
ON T
Ġr ighth
75 5
Ġuns afe
Ġun author
35 8
ĠGr ass
ĠSpace X
Ġexceed ed
Ġartif acts
Ġg odd
ĠD ana
Ġh ref
99 8
Ġdetail ing
ĠKash mir
Ġchampionship s
Ġsc ra
Ġpublic s
yn es
ĠWin ston
d ogs
un ts
Ġdil ig
ĠC inem
ĠPer fect
Ġextrem ism
ĠU T
ind uced
Ġenjoy able
Ġstruct ured
Ġex otic
ins ki
Ġub iqu
v id
ĠN RA
Ġco author
Ġseason al
Ġt in
as is
ĠIS IL
ĠSeb ast
G C
Ġdown ward
99 4
Ġpip es
elect ed
M D
ĠC ad
Ġexem ption
ĠUlt imately
ĠCur ry
Ġsimpl icity
Ġd od
Ġthought ful
Ġgrad uation
Ġre per
Ġter rific
J oe
ĠAnn ual
ĠSom alia
g on
Ġhand c
Ġtun nels
Ġprivile ges
ĠH ood
Ġun in
Ġburg l
C our
ĠP E
Ġ19 59
asp berry
ĠFal con
g as
95 7
Ġident ifies
b ird
Ġl av
ĠC AP
ĠL ux
Ġfilm maker
ĠGovern ments
ĠR apt
ov ak
Ġty ran
67 7
Ġmag net
ĠVictor ian
ĠGing rich
Th us
Ġvar ies
ĠCont act
Ġcritic ize
Ġmer cy
Ġdefe ating
Ġded ication
Ġmetaph or
Ġb acon
Ġcr ises
Ġhasht ag
ĠA RE
Ġj ournals
Ġren owned
ĠDec l
ĠO mar
Ġcap ac
commun ications
Ġcell ular
36 8
rah im
Ġdisplay ing
Ġhyp ocr
Ġl ag
ĠC aval
ĠM az
Ġcomment ators
Ġment or
ĠN y
26 8
ĠFr ame
ĠP okemon
26 00000000000015
B rown
ĠEc u
h aw
Ġf lick
Ġmay ors
ĠIS Ps
Ġacqu iring
Ġconsider ations
B as
Ġreb oot
ĠPl ant
ĠAut om
ĠChampionship s
Ġon board
am el
Ġwh ale
Ġwas hed
col or
xt on
F ran
ou g
Ġfl ank
ĠIns urance
ĠBou levard
Ġcul min
Ġcomed ian
Ġunst able
Ġthe sis
Ġsuper b
Ġbund le
Al ong
ĠPel osi
ĠWednes days
Ġadvoc ated
Ġv ivid
ib al
Ġcr ust
m ount
ĠI stan
ĠS ales
Ġtop s
Ġcompl ications
g one
Ġl aughter
Ġfat igue
ig ans
ĠRe be
ĠAust rian
I AL
D ate
Ġqu eries
Ġdef ect
Ġfuel ed
Ġsymp ath
uk a
ĠMcC l
Ġinaug ural
Ġproject ion
Ġhous ed
ĠHy per
b les
ĠB og
un ci
Ġhigh speed
Ġout sp
ĠEm ma
27 00000000000015
ĠPolit ico
an ing
ĠT ournament
Ġrest art
Res earchers
aunt ing
c in
34 8
Ġw ary
ĠHe aven
Ġrecogn izes
Ste ve
occ up
ri ad
Ġimp ly
Ġdiscuss es
Ġalt itude
Ġsm arter
0000644000000000000000000001 03
ĠBr is
ĠBapt ist
B ro
ae a
Ġde er
ĠU pper
ĠStart ing
Ġenthusias ts
ĠG E
Ġbl aming
Ġrep ay
Ġantibiot ics
ĠW ow
Ġs perm
ĠEth iop
W rit
ion age
Ġout field
ĠC able
anc ers
ĠNo ah
Ġan at
Ġcon qu
Ġthre ep
ĠBlu etooth
J uly
M ORE
at ivity
Ġmot ives
ĠIns pect
Ġc ores
ĠCo ver
ĠViet namese
Ġcl oth
29 7
is i
Ġmet als
Us er
Ġdet on
ela ide
ck er
ĠMill enn
Ġtyp ing
ĠF ighter
ĠDam age
Ġaggreg ate
ĠM iles
Ph il
Ġdis abilities
Ġsch izophren
Ġprop he
Ġintrodu ces
ĠLl oyd
ĠC ities
33 00000000000015
ett es
ri z
ĠSt age
ĠElect ronic
Ġcert ification
Ġun real
Ġreal world
Ġfright ening
IS S
Ġman ga
Un ited
ĠBurn s
F eb
ĠThurs days
ook ie
Ġrec laim
ric anes
Ġconce ived
Ġdesp air
Ġwh od
Ġinsure rs
Ġkn ocking
Ġ10 7
art y
ĠF ixed
27 8
N on
ract ion
Ġsne ak
Ġ19 41
in el
Ġdevast ated
Ġpig s
Ġl b
Ġskept icism
et z
ĠC lear
ĠU nd
ĠB rent
Ġpaper work
ĠN ode
Ġhur ricane
ĠImp act
ang led
Ġreb uilding
Pl us
Ġl end
Ġcoun cill
oc used
Ġtw ins
he ed
Ġdis asters
ex as
Ġunpredict able
al iation
nder ing
ĠCle arly
Ġrec ons
Ġexped ition
Ġter ribly
ar an
ĠL ay
ĠBe gin
Ġd ilem
34 00000000000015
Ġcomb ines
Ġpal m
C all
m ain
US E
ĠBur ke
em ade
29 3
B B
Ġpre ca
Ġanticip ate
Ġcolon ies
Ġvoc als
ĠKle in
Ġball istic
m el
w ear
ag ne
Ġrig orous
Ġhost ility
Ġappet ite
ĠS ah
Ġhack er
ĠCole man
ĠP os
gg y
Ġhal ft
Ġbr acket
Ġgar lic
ĠNok ia
Ġall ocation
ched el
r ill
ĠSc he
For ce
Ġwip ed
Ġmark er
ograph ics
ĠWh ites
en ame
ab c
Ġoff ended
ys s
Ġillust rates
Ġprohib it
S ure
ĠHait i
Ġfoot print
Ġband width
Ġunch anged
S QL
Ġdet rim
ĠQu ant
ĠAud io
ĠB ever
ĠP v
app ro
ĠSil va
Ġcrack ed
Ġvend or
P eter
ĠS hip
Ġmar athon
85 6
uter te
ĠFif th
or o
Ġinterrog ation
reat ing
aw ays
Ġbenef ited
Ġgun man
Ġhost age
Ġborrow ed
ĠH alo
Sh ow
Ġunf amiliar
Ġconcept ion
IN D
ĠGr ad
Ġclos et
ĠD ylan
yl on
32 00000000000015
Ġdiet ary
Ġp ave
Ġwar rior
Ġru ined
ĠSh ane
Ġcontam ination
Ġdepend ency
ĠChe v
ĠEmb assy
r acts
Ġp s
Ġretail er
ĠEl ite
Ġabsor bed
ĠB yr
Ġbeaut ifully
Ġbroadcast ing
Ġpar a
B erry
p ent
Ġthr one
Ġcap ita
36 1
ĠAP Is
46 8
eng ine
Ġund is
Ġl ament
ĠFR OM
Ġdisg usting
Ġfreed oms
N AS
Ġpred ators
Ġmer its
run ning
Ġmerch ants
con st
Ġbar red
V A
or f
Ġapp arat
Ġcritic isms
Ġcas ino
ĠFood s
b ps
Ġmodel ing
ĠN J
Ġback yard
aw i
Ġsc aling
Ġsyn chron
0000644000000000000000000001 02
Ġvac ant
ĠNY PD
Ġr ubb
Ġcirc ular
ic ates
ro e
Ġunder going
Ġmicro bi
L ead
M o
Ġheav ier
Ġcommunic ating
Ġsh aping
D el
th ouse
Ġrequest ing
Ġlisten ers
Ġshel ters
ĠAlz heimers
ĠR us
ĠT aking
Ġext rad
Ġagree ing
Ġe ch
ĠS ame
Ġpe cul
37 00000000000015
86 6
n ings
Ġo ct
ĠL em
ins ky
47 8
k ov
ĠM aps
Ġne oc
C le
ent ric
Ġbal ancing
ĠReg ardless
A ir
Ġhealth ier
ĠDar win
Ġfor fe
Ġvolunt arily
ick er
36 00000000000015
ĠPir ates
omed ay
cl ub
ĠFil ip
ĠBre aking
ĠCertain ly
ustain able
v ity
ĠA verage
ĠR ange
ff iti
22 00000000000015
ruct ed
Ġren amed
Ġpreval ent
Ġf ren
Ġsur g
ĠSim ple
Ġrestrict ion
Ġec ological
Ġbe ard
Ġne o
Ġtravel ers
ed in
Ġupd ating
Ġanaly zing
Ġe Bay
im ag
29 6
ĠHon or
Ġcorner back
ĠS end
Ġins ider
Ġinv iting
Ġrecru its
ĠH arm
Ġterr ified
or ie
ĠC W
Ġsh red
ans on
L ocal
ĠR hod
Ġsol ic
Ġso ap
ount y
Ġpedest rian
88 7
87 6
Ġ19 39
Ġrest ing
ĠEx cept
ĠS olid
37 8
89 7
ĠF M
ess age
ĠSt ef
Ġshe lls
ĠTrans it
ĠF lint
Ġmir rors
Ġreg ain
p roduct
Ġb ang
G s
Ġp ine
ĠSpe aking
Ġsuper st
Ġrespons ive
ĠCro at
h ops
uk es
R yan
Ġobject ion
ĠDO J
Ġl aps
cour t
Ġreiter ated
Ġon etime
ĠR BI
ĠAny thing
um i
Ġthere after
Ġch uck
ĠK on
in atory
ĠS aw
ul ed
65 6
Ġconfir ming
Ġne oliberal
ĠYOU R
Ġastronaut s
p aid
ĠH ernandez
Ġt apped
Ġdepend encies
Can ada
G reat
ĠH orse
ĠPrinc eton
Ġcort ex
Ġon ethird
Ġchar itable
Ġengine ered
Ġv apor
ĠSch umer
ĠJul ia
ĠS tern
ĠJ eb
Ġlower ing
ĠS onic
Ġhapp ier
Ġdetect ives
An n
Ġtheir s
ĠB ened
Ġ19 42
Ġrecomm ends
Ġco op
ĠE rik
Ġt urt
ing le
ĠWe instein
ĠLind a
Ġwatch dog
ĠF ra
Ġhead set
Ġre he
ren ched
orn ings
75 7
rest rial
ĠSat urn
Ġ1 45
Ġback drop
ĠKn icks
gu ided
ĠM ight
ĠRoll ing
Ġl over
Ġst ems
00006440000000000000000000006 5
Ġinflu x
itness es
Ġassess ments
44 8
Ġtake over
ĠRe b
Ġcondition ing
F r
00006440000000000000000000005 7
place ment
Ġre dd
ĠC oc
Ġacceler ated
Ġch ambers
Ġpast e
95 6
L ine
Ġbureaucr acy
95 4
Ġpers pectives
ĠJul ie
ar ium
ĠB orn
Ġacceler ation
F ox
Ġst ip
ĠP ain
ish ment
Ġaccess ories
Ġdistract ion
Bel ow
ocaly pse
d ata
Ġgr ind
Ġ19 47
ĠG w
Ġins ulin
Sp ace
Ġsquee ze
Ġpreval ence
Ġb end
at ches
Ġmem b
ro ls
ĠBeh ind
ĠC e
Ġin ad
T L
er k
ut ral
et ing
ĠB urg
ĠThey ll
Ġmed i
Q ue
Ġwar riors
Ġcontract ed
Ġselect ive
ĠBro ck
85 4
udd enly
ch s
Ġ3 30
D ev
Ġf usion
ern ame
ĠMy ster
Ġport al
em ption
Ġtr action
Ġfav ors
ĠGit Hub
ĠL ith
Ġtr aces
ĠDr agons
ink le
ĠBr istol
vas ive
E U
ĠMor rison
aa a
Ġwor s
Ġindu ced
sh irts
ĠVol ume
T B
Ġunus ually
ters on
Ġwar mer
Ġexclud e
R ub
ĠV eh
Ġimper ative
ĠList en
Ġs ights
igg ins
ĠOw en
ot ine
ens itive
Ġposition ing
ot on
75 6
Ġ ion
Ġclean er
Ġv ine
Ġattract ing
Ġque er
ĠS ak
Ġend uring
ĠPut ins
ĠV ision
0000644000000000000000000001 05
ĠAl ger
Ġscreens hot
Ġat oms
Ġv om
Ġcha otic
Ġprost itution
Ġstand alone
Ġcontam inated
ĠPartners hip
Ġunbeliev able
l ance
Ġv andal
Ġcompet ent
ĠBet a
ĠHusse in
Ġj ungle
Ġbrand ed
Ġinterf aces
p ad
Ġp yram
ress es
de v
Ġnational s
Ġep it
Ġnegative ly
Ġproud ly
Ġgal ax
Ġle mon
ĠZ omb
ĠResp ons
Ġreferen ced
Ġsn apped
in arily
Ġw ipe
Ġown ing
az or
ason able
Ġpen al
ĠPri x
Ġphilos opher
Ġout dated
ĠSt o
Ġvir uses
Ġdump ed
Ġlength s
Ġconcess ions
ĠJ ab
p ark
ur st
Ġwas hing
87 7
Ġwa ist
Ġalleg ation
Ġburn s
onn ie
ĠB oss
cast ing
ĠV ote
erv ative
Ġfre ak
Ġsh ade
Ġhold er
C ode
c ad
Ġcle ans
Ġsell ers
29 8
Ġdece ased
N s
Ġa u
ĠD W
ir us
ĠJ ill
pl ates
ĠV ita
m ill
r ue
ĠI B
Ġpos ing
Ġday today
Ġwar rants
Ġc ough
Ġcont end
ĠS oph
Ġunt o
Ġfilm makers
ĠCr isis
Ġa rose
ac cess
Ġun b
Ġannounce ments
Ġf ist
Ġreact ors
Ġstretch ing
atern ity
Ġcar pet
Ġvis as
ĠG L
ĠL ogan
Ġcur se
J apan
Ġnot ifications
ĠSh ot
Ġst al
Ġbull shit
S al
m itt
it ational
Ġden ounced
IC O
Ġprotagon ist
Ġref ined
isp here
abul ary
M ain
ld a
Spe cial
Ġclear ance
ĠSask at
39 7
00006440000000000000000 0001
Ġgoal keeper
ĠBru ins
ĠExper ience
Ġref riger
Ġmult inational
2 11
Ġdevelop s
84 8
B ox
ac co
ĠM arl
Ġrefere e
ĠArch ives
hol m
ĠON E
Ġb ilateral
Ġir reg
ist ical
Ġsurpr ises
ĠSim ilar
Ġundert aken
Ġfree zing
ĠCop y
H and
Ġst int
sp ace
Ġobser ver
201 0
W ed
Ġr im
Ġret aliation
AN K
ĠGonz alez
ĠTurn bull
Ġpoin ter
connect ed
ent e
ĠSun s
Ġcompens ate
Ġbron ze
Ġend ure
lean ing
ish a
Ġbro ker
ĠMan uel
Ġstar red
h or
al ion
Ġun rel
ick ers
ĠCom ment
Ġdom ains
OL L
ĠDra ke
ĠWe bb
Ġfl ame
ĠGlas gow
ĠD LC
ĠTh an
Ġ19 58
45 8
Micro soft
ĠShakespe are
Apr il
om ical
Ġneed le
Ġleft ist
Ġnon viol
ĠProdu ction
Ġpath way
Ġshut tle
ĠTim othy
Ġv est
Ġposs essed
ĠC ards
un ny
75 9
89 6
Ġs rc
ĠSu ccess
Ġsuper visor
With in
O kay
Ġm arsh
Ġcosm ic
Ġs idelines
vert ising
Ġst d
Ġout l
OR Y
h aring
Ġh ollow
L ear
ĠAct ive
3 03
is ans
ĠScient ific
Ġpres ervation
ĠSp art
ĠIss ue
ĠSny der
Ġn urt
Ġgood ness
ball s
Ġfundra iser
37 1
Ġrad ius
ĠCol onel
Ġoffs pring
at ism
sequ ently
j oin
Ġce ment
ĠWr ite
Ġd iving
ĠB irth
Ġr uth
Ġspecial ists
Ġcapt ures
ok a
Ġch amp
ĠDub ai
67 6
Ġv intage
88 6
65 9
Ġnarr atives
Ġins erted
Ġst ellar
f illed
Ġh orn
Ġarch ives
ĠUs ually
Ge orge
Ġtack ling
Ġvolt age
Ġint ric
Ġcourt room
pr ints
Ġpar an
Ġbom ber
Ġrad ically
ĠLond ons
vent ional
Ġcook ie
Ġrelent less
ĠN an
pe ople
Ġar senal
ĠR ugby
ĠE asy
ĠDis p
Ġembarrass ment
am ic
Ġhypot hetical
af ia
Ġenter prises
ĠO Re
Rec ently
Ġvol atile
Ġna ive
Ġcritic izing
ĠTur keys
Ġindic ators
Ġlau nd
95 8
ĠTw enty
Ġfact o
Ġele ven
cour se
ĠS hen
ĠB A
Ġobser ving
39 6
ĠPan ama
Val ue
ĠCharlott esville
ff f
Ġshoot ers
Ġspir al
Ġun ple
as a
Ġprim itive
Ġsubsid iary
G H
Ġch ill
Ġph ases
Ġdo omed
ire ction
Ġsal ad
Ġrig id
Ġrecept or
Ġineff ective
c ond
h alf
Ġfore casts
AG E
Ġdub ious
ĠL az
Ġrepl icate
ĠPl aza
Ġant im
66 6
Ġdiplom acy
Ġrep airs
Ġdem ise
Ġiron ic
k it
ĠR ift
Ġperpet rators
29 4
Ġje ans
Ġth under
gg ie
Ġfar right
c lick
Ġpe an
Ġprin ter
ĠF ernand
Ġacc use
Ġac oust
R s
ay an
Ġimm ort
ĠP ublished
Ġtour ing
Ġd os
Ġwithd rew
Ġreward ing
p resident
ĠK iss
Ġenroll ment
on ial
Ġr ack
ĠC ord
Ġviol ates
Ġdr ums
isc her
Ġmer ge
Ġrival ry
Ġbet ting
Ġpri zes
Ġrev ival
Ġur gency
Ġdeleg ate
ĠKenn eth
ĠM ong
Ġnot ices
Ġempir ical
85 8
ĠBeng als
te gr
ĠOr acle
Ġexclud ing
m oil
Ġcr unch
ĠM H
Ġup held
ien cies
ur l
iff e
Ġneuro s
Ġside walk
ge ons
Ġsustain ability
Ġinst ability
ĠIll ust
Ġswit ches
Ġmerchand ise
ĠRel igious
Ġgall ons
Ġdisadvant age
Ġr anged
Ġone year
ĠF resh
az ons
ĠTr ain
Ġsever ity
Ġshut ting
re ra
ĠAbdu llah
Ġret ros
Ġf og
ight ed
old own
Ġ15 00
Ġfalse ly
Ġton nes
Ġexp ired
Ġcontent ious
Ġp ier
ĠAn cient
Ġinnov ations
p c
ie u
Ġa ven
Ġjust ices
ef ined
Ġt ant
ount ain
Ġintr ins
Ġsuccess ion
Ġtr aced
ci pl
Ġrese mble
ĠX Men
88 4
Ġple as
Ġwithd rawn
Ġph osph
65 4
Ġcop ied
ĠSher man
Ġp ulse
Add itional
R ad
in ian
Ġex terior
Ġmanus cript
Ġt am
Ġdetermin es
ar ak
ĠT ah
ĠC ork
ĠRom ania
gu ards
F ind
ĠAl ien
in th
Ġatt achment
Mc C
w ic
ĠD ell
99 2
Ġf ost
sh adow
it an
Ġdecentral ized
ĠP ub
Ġ19 56
Ġend ured
Ġapparat us
ol ation
Ġ1 16
Ġdownload s
Ġtoss ed
Ġcollabor ative
00006440000000000000000000005 6
g em
ĠD B
Ġdiscover ies
Ġmel ting
Ġpsych ologist
Ġdepend ence
Ġiter ation
iv ated
Ġbl ows
ĠC atherine
Ġhun ters
Ġnodd ed
W as
Ġchar m
Ġjud ging
ĠLab s
w ave
ce e
Ġ1 17
op ed
Ġur l
Ġp ent
ĠG ig
Ġbom bers
ĠF ans
Ġle aking
ĠPart icip
Ġpour ing
Ġup wards
Ġbr ig
000064400000000000000000000 22
Ġperfect ion
Ġru ins
es ar
ab out
Ġpot ato
86 4
ĠPen insula
ĠN est
Ġinter val
Ġvis ually
Ġpredict ing
09 0
ĠMic he
ĠMan ufact
OU T
Cl oud
ĠBrend an
Ġposs essions
99 3
0000644000000000000000000001 01
ĠMa o
Ġun a
Ġstret ches
Ġho ax
c amp
k now
Ġ19 54
ĠNational s
Ġill icit
Ġrem ed
Ġpolicy makers
ĠWhats App
Ġlean ing
ĠB le
Ġdirect ive
Ġthe rape
0000644000000000000000000001 06
Ġap ost
02 00000000000015
ĠRe play
Ġevac uated
M ult
x on
ĠFro st
Ġn avy
ĠD ance
ab l
Ġreminis cent
ĠEver ton
ĠH erman
ĠJ azz
Ġanarch ist
Ġh alls
ĠL augh
Ġsex ist
ĠSim mons
Ġpres erving
Ġgif ted
ĠEmir ates
Ġcomp uls
Ġsuper f
ĠD ocker
ĠL ag
Ġappoint ments
ĠLeg acy
ĠL B
ĠP TS
Ġha iled
Ġimp air
ĠKum ar
77 7
Ġres h
T able
Ġaw aken
F I
Ġw art
ind a
em a
ĠSe oul
Ġash amed
Ġo z
Ġur ine
ĠCamb od
ind ust
Ġac ids
ĠB ert
ĠF REE
Ġmyth s
if ts
0000644000000000000000000001 07
ĠR ol
ĠBlack s
ĠMurd och
F OR
Ġnegoti ation
Ġtransl ates
Ġcruel ty
ĠCom edy
ĠT rent
Ġchar ities
Ġvan illa
ps ons
ĠH ouses
pe ed
Ġwould be
ĠG ross
Ġsod a
b uster
d ling
ĠB ee
ĠE is
Ġfeas ible
A FP
ĠLe o
Ġir rational
ĠV ince
ĠD iff
Ġj ealous
Ġnarrow ly
f in
ific ant
duct ed
Ass ad
Ġstim ulation
ĠExpl orer
Ġher b
field s
Ġradio active
ĠLe Bron
in um
Ġmod ifications
Ġtrig gers
Ġgluc ose
ĠP ars
ĠStar bucks
Ġdepth s
Ġneuro log
Ġlone ly
ĠAr row
Ġaut umn
b ab
load ed
ĠCNN s
ant ry
ĠDay ton
Ġshr ink
Ġexp on
ik ers
ste ins
Ġ2 10
ĠG ul
Ġfraud ulent
ĠInvest ment
ĠT i
ĠR W
Ex per
ĠCon way
V C
Ġper tain
ĠObserv atory
O B
ef a
ĠMed al
Ġrob otic
ĠDisc overy
Ġcatast rophe
ĠJS ON
ĠGe off
Ġso ber
Ġfore nsic
ign ment
Ġelev ator
Ġal lev
Ġcl o
89 4
ĠAdd itional
ĠRec ently
Ġinto x
Ġtax ation
it ating
et ry
Ġres olutions
Ġhero ic
q l
Ġunc ont
Ġtrain er
im an
ĠFre eman
av an
ĠPhil os
ĠA part
ort ium
Ġw ires
ĠQuest ion
ĠS kin
Ġmilit ias
Ġsex ism
ĠSpe cifically
atter y
ĠMap le
Ġg it
Ġpo pped
75 4
ĠO Conn
ĠBl ade
Ġdisappear ance
f ac
Ġro de
Ġembr acing
Ġhun ter
w s
Ġinst itute
ĠN ate
L og
ag le
Ġmy riad
ĠPerson al
Ġall ied
Ġfore front
28 3
ĠLet ter
H ome
f alls
ĠTr ack
Ġanticip ation
Ġprosec ute
Ġcompat ibility
Ġkidn apped
Ġshoot s
ĠDes ert
Ġb iblical
Ġind o
ĠProf essional
Ġacknowled ging
0000644000000000000000000001 00
Ġgrant ing
Ġuns ure
ĠInvest igation
Ġsmooth ly
67 4
Ġdimin ished
Ġcounter terrorism
ĠPresident elect
ĠFl ag
ĠBeng al
Ġm asks
Ġunple asant
T otal
ĠP RE
Ġpree x
F ar
Ġcreep y
ĠTill erson
Ġobs ess
Ġfrequ encies
Ġ19 57
ĠAr s
ĠCan on
Ġhip hop
ĠVi enna
Ġk in
om inated
ord e
Ġsc outing
Ġgl uten
Ġplug ins
Ġl akes
oci ated
Ġbad ge
ĠMount ains
Ġt outed
Ġcr ashing
Ġoverth row
Ġl bs
Ġathe ists
ĠCraw ford
ch anging
Ġhop eless
Ġmilit ar
Ġconcept ual
Ġth ir
ĠZ ucker
ĠB T
Ġmeaning less
Ġcowork ers
Ġsh am
Ġprogram mer
ĠRef uge
ĠThrough out
Pac ific
ĠRe qu
ĠFran ken
Ġauthent ication
Europe an
ĠI F
ĠM ist
ĠB ass
ĠInd ividual
Ġpret ending
87 4
87 8
89 8
55 5
Ġb ureau
ĠB TC
ĠW elcome
ĠAndre a
b ling
Ġe cc
g age
Ġro gue
Ġvalid ity
ess a
Ġinspect or
ĠIstan bul
ĠS ans
Ġcost ing
ĠAd elaide
Ġp ensions
ĠR P
est ine
ĠCan ucks
Add itionally
R ay
ph an
Ġmamm als
ĠAm anda
ĠConserv ation
Ġtur moil
D ear
ra red
ĠR ew
Ġpod ium
Ġreinfor ced
Ġcan vas
ĠEv olution
Ġblast ed
Ġmiser able
Ġref resh
ĠL iz
Ġgovern ed
ĠIm port
Ġgl ow
Ġbol ster
olester ol
Ġs ack
Ġdr ift
Ġun armed
Ġground ed
ĠCr ist
Ġhorm one
3 44
let te
Ġutil ized
Ġre ef
us p
de al
ar b
86 8
ot ers
Ġtang ible
ĠDav ies
Ġdead l
ecess ors
Ġd ots
Ġdis se
ĠB ag
Ġsusp end
Ġbomb ings
Ġjuven ile
Ġb row
Ġsqu at
Get ting
C oun
Ġo lig
Ġalleg ing
ĠA W
ith ub
Ġmod ification
ĠLa unch
mans hip
Ġstake holders
et r
ĠH ag
ĠK ot
lic t
ĠLe ices
ĠScient ology
ĠD uty
ort heastern
Ġcomm issions
Ġper ceptions
ĠSch midt
ve red
ĠCh oice
Ġhel pless
Ġairst rikes
h ave
Other s
85 2
Ġhypot hes
t z
Ġredu nd
Ġt ub
on so
Ġunderw ent
um bs
Ġover c
ĠMem ory
Ġveget able
Ġretrie ve
Ġgl orious
Ġpal ace
Ġb idding
ĠW u
b led
Ġv inyl
Ġun ite
ster dam
ĠQual ity
ĠT as
ĠL ars
Ġint ro
Ġfr amed
v able
Ġl ion
Ġdefe ats
Ġfrag ments
ile aks
Ġaffidav it
o T
Ġaccess ing
m g
l it
ipp le
ĠFried man
ĠA AP
ob ic
ĠLe ad
67 9
Ġmicro phone
Ġsle pt
am ount
Ġst amps
Ġp uls
ĠRE AD
h all
Ġjudge ment
ĠAndrew s
A round
a unch
Ġmad ness
ĠG ET
ĠJ et
45 00000000000015
Ġwe ights
ĠD ot
Ġoper atives
Ġresearch ing
29 2
ĠP owers
ĠB ast
Ġde port
Ġst acked
ĠCh arter
Ġvers atile
Ġsurround ings
verse ly
Ġlun ar
ĠProtest ant
ĠMan af
Ġyell ed
Ġseiz ure
ĠB ranch
Ġrele vance
0000644000000000000000000001 11
AN G
Ġdest abil
Ġm ornings
Ġhonest y
Ġlung s
Ġreg ression
Top ics
ĠG rowth
ĠLink edIn
Ġsound ing
Ġsc oop
Ġsupp ression
ĠJud a
ĠCoff ee
at ible
Ġre play
B Y
im ental
ĠCitiz en
andah alf
at ured
ĠM W
Ġcont ributes
Ġreconst ruction
Ġbroadc aster
Ġsab ot
att ack
Ġfac et
Ġt apes
Ġspat ial
ĠF lickr
ick y
Ġcho pped
Ġpred ecessors
Ġeval uating
S ocial
a ad
Ġ19 55
W elcome
ĠG C
Ġsc andals
t arians
ĠHay es
c ision
ĠL is
ĠBitcoin s
Sh ould
Ġillness es
ĠK em
Ġdis like
19 0
Ġprop onents
Ġbi ography
Ġunique ly
ĠL ud
Ġem ploys
Ġgr abbing
ĠM oses
ĠC ros
ĠM Y
Ġ19 17
Ġch lor
Ch ild
Ġkill ers
p ensive
Ġdec lines
Ġpo orest
yr r
ĠBor is
Ġwholes ale
g ie
AC A
ĠP ra
Ġrad i
39 8
Phot os
Ġt ally
Ġpro claim
ĠGil bert
Ġ19 53
Res p
3 12
Ġdistract ed
Ġworking class
imb ab
Ġexplos ions
J ones
h y
ĠA ce
Ġspec ially
Ġbest selling
Ġ19 5
het t
Ġadequ ately
Ġheight ened
ĠTro phy
Ġsubmar ine
Ġdom ination
Republic ans
l ich
Ġp as
ĠL ance
ĠHe ath
ĠH ugh
ĠN OW
Ġsl ump
Ġsup ers
oun ge
Ġ ..."
ĠSpr int
ĠB U
ĠR oute
Ġnut rients
Ġreal ization
Ġoccur rence
T ech
Ġoutr aged
ĠBren nan
ĠR ating
Ġende av
ĠA zer
ill on
ĠJud iciary
ĠS afe
Ġstuff ed
Ġimpe achment
Ġunc over
Ġindef initely
Ġwith hold
ĠW yn
ĠF ury
Ġ19 43
Ġfore see
Ġexch anged
ĠEv ents
Ġoutsp oken
Ġg aze
Ġon set
ĠTest ament
ĠR SS
Ġrel iance
Ġclean up
ĠR an
Ġcomp ares
Ġs ang
st ract
Ġ1 18
Cur rent
Ġbe e
Ġcost umes
Ġdiscont in
ĠSter ling
Ġirrespons ible
in h
ĠL akes
rit ical
ĠEn c
Ġstreng thening
K ing
Ġlo oming
i u
Republic an
at ri
ĠJ ur
Ġtr act
Ġpred icts
Ġsupern atural
Ġdo i
ew orthy
Ġbelie vers
Ġindirect ly
ĠK ub
if ted
Ġopio id
ab lished
ig ators
Ġsh iny
Ġsuper vision
ĠP ine
Ġpart ition
Ġzomb ies
Ġt ubes
Ġm useums
Ġdis charge
ĠRock et
ĠSky pe
Ġcan cell
ong s
Up on
k t
Ġprin ts
ĠLeban ese
C ent
h ou
en ment
ĠH olid
ĠR ise
00006440000000000000000000002 2
Ġcorrespond ence
ĠMe yer
ĠJed i
ĠM ead
ĠN iss
ĠOff icers
Ġpen cil
rav ity
M iss
ĠT ier
Ġst ing
ĠM illion
Ġrefres hing
ĠDani els
Ġsuscept ible
th ink
add afi
ĠSt yle
ĠJackson ville
ate l
Ġnom inations
Ġvalid ation
ĠPret ty
75 2
Ġphotograp hed
ce f
Ġdict ator
Ġramp ant
te ch
Le ague
ĠC er
ĠRock ets
Ġs or
ĠE lder
ject ed
Ġprogress ives
ĠMoh amed
Ġcock tail
ĠW aters
Ġun ins
Ġhook ed
ĠR unning
ant a
47 0
Ġextract ed
B esides
in ting
en berg
Ġsc out
Ġhon ors
im ation
ĠB S
Ġs ung
AR S
En large
Ġresemb les
Ġgl oss
Ġmess y
Ġdec ay
Ġcur tain
Ġreconc iliation
d ig
ĠDet ails
Ġsect arian
ĠG n
You ll
Ġcelebr ations
Ġp ac
ĠW S
ustom ed
Qu ery
ĠStand ing
Ġrelie ved
9 11
out ube
ian i
rodu cing
Ġlapt ops
b dd
Ġinter ceptions
ĠSN P
Ġh ats
85 0
Ġfut ures
ĠSouth west
ĠNet works
Ġspl ash
azeer a
c ro
Ġco erc
ĠSav age
Ġchar ism
Ġant if
inc luding
Aug ust
id able
ĠMid west
Ġabn ormal
ĠW orth
ĠTer rit
ĠMot ion
Ġaster oid
C amp
ond o
M or
act ed
Ġmit igate
Wh atever
ĠKurd istan
Ġsol itary
Ġdiplom at
att les
Ġanim ations
Ġconting ent
Ġshr inking
ĠC E
Ġj oked
Ġ19 0
bor o
l at
icult ural
IS A
Ġspecific ations
ĠFe el
ĠDar ren
Ġblu ep
Ġforg ive
Ġgood bye
over ty
Ġprepar ations
3 01
ĠRe ich
Ġfasc ist
Ġmortg ages
it ures
ĠV ern
0000644000000000000000000001 04
84 2
ĠTV s
More over
a ef
Ġsp ine
Ġlivest ock
Ġc ans
46 1
Ġde ported
ĠE lementary
Th omas
Ġs om
ĠM ate
ĠAr ist
av in
ĠMon ica
ĠRock y
Ġw anna
Ġf ade
ĠRel igion
Ġt enth
ĠF X
Ġbr ass
65 2
ĠRest aur
f th
Ġb apt
our ing
31 00000000000015
Ġex ile
Ġgo alt
Ġ12 7
ĠIr ving
I AN
Ġh inted
ĠB il
ĠL il
67 8
Al most
oster one
0000644000000000000000000001 13
Ġsl ap
Ġto mb
ĠP ors
pl aced
Ġaccum ulated
ĠZion ist
Ġfront runner
Ġalign ment
Ġthe ology
ari at
Ġhe ights
Ġ2 25
ĠN ear
000064400000000000000000000 4
an ol
ed ience
ĠD ocument
art en
Ġinquir ies
Ġstat istic
ĠPan el
b uilt
ĠH amb
28 2
ey ed
Ġb ark
ĠRes ults
ĠCl are
Ġtrans plant
65 0
ĠPart ys
Ġclean ed
Ġconver ting
r aining
ab d
af d
89 2
Ġdiv isive
ant on
95 0
Ġoverl ap
ĠA FC
ul ators
ĠN W
ĠSm ash
Ġmechan ic
ĠD T
Ġedit ions
ĠAR M
Ġl ith
ĠP rest
Ġmar vel
AC H
ĠAbb as
c ock
ĠB ot
Ġbo il
ĠPakist ans
ul atory
ĠRe ality
Ġweaken ed
ON D
Ġg n
ĠC oy
Ġindustry s
Ġregul ator
Ġfr inge
d ies
Ġn as
ĠP ale
44 1
Ġcl usters
ĠVen us
A ut
ĠFor ward
Ġcommun al
75 8
at um
az er
Ġovert urned
W in
Ġb aked
eb b
Ġparent al
88 2
ĠBeat les
Ġo v
Ġauthor ization
ĠW ald
ĠSp icer
Ġfall out
ĠD HS
Ġdisp ers
ĠW ine
ĠL un
86 3
ĠDo ctors
Ġge op
Ġ12 2
ĠEconom y
Ġrans om
Ġsuprem acy
Ġdest ined
Ġcrus hing
Ġdr astic
Ġvisit or
ĠLic ense
Ġex h
OS S
ĠD ogs
ĠTre vor
ant ine
ĠTechn ologies
h n
Ġ25 6
Ġroll er
Ġcompos er
ĠBuzz Feed
H op
ic us
Ġid ol
Ġto dd
Ġabund ant
Ġan th
Ġanal ogy
Ġsell er
Ġ iv
op ath
95 2
Ġse gregation
ĠMed ium
Ġdraft ing
he e
47 1
0000644000000000000000000001 12
reng th
Ġpir acy
omet ric
ĠMin isters
is ure
Ġgen res
Ġfor c
Ġj ugg
Ġrec urring
Ġimag in
ĠMoh ammad
ĠT all
Ġ6 50
Ġmark ers
Ġworth while
agn etic
ĠLi u
Ġconstitu ency
Ġirreg ular
ĠD ear
Ġmin erals
ĠGu j
Bet ween
ĠStre ets
se arch
Ġdivor ced
av ior
Sub ject
ok s
86 2
Ġdisrupt ive
S ix
oh yd
Ġw it
ĠPun j
46 0
Ġdisagree ment
Ġrehab ilitation
Ġbu ys
ĠCurt is
ĠMarket ing
Ed itors
ĠWrit ing
Ġpund its
Ġs ins
id ate
Ġcl one
Ġlike wise
Ġintimid ation
ĠR ising
Ġreb ound
ĠR iley
ĠAn s
Ġground breaking
Ġmis in
ĠCan yon
ĠSc ore
ĠTown s
Ġfreel ance
p arents
s chool
Ġw ax
Ġhe x
ĠJ P
ĠMin utes
21 00000000000015
Ġprotest ed
ĠLike wise
ĠOrig inally
ĠM AN
Ġpl ague
ĠAng lo
Ġunauthor ized
ĠCr us
t ml
95 3
Ġdi agram
Ġnonex istent
ĠH uck
ĠG amer
Ġpo orer
Ġaccomplish ments
i ya
ĠPer iod
iv ism
Ġtr ilogy
pro v
Ġreject ing
Ġaccident al
Be yond
ĠM aid
Ġ12 4
ĠAt las
ĠH oney
ĠSh ia
Ġturn over
Ġextract ion
D an
n amed
ĠLaw s
m em
Ġth riving
Ġr av
85 3
ĠVict ory
Ġch illing
ast ics
ĠSh ut
raz y
Ġo ri
is ch
ĠNe igh
Ġcyn ical
d in
Ġthank ful
Ġpecul iar
Ġpl ac
Ġtw ot
ĠGree ks
ĠP ip
Ġ19 46
Ġb isexual
45 1
Ġver ification
Ġfert ility
Ġpsy chedel
Ġg ays
ond a
ES P
Ġcross es
ĠD uterte
Ġpun ched
Ġdiscipl inary
ĠFight ing
ĠUlt ra
ĠCompan ies
Ġl id
Ġ5 10
ĠCl iff
Through out
c led
Ġst umbled
Ġ19 33
Ġaspir ations
Ġsu ing
Ġind oor
ĠShi ite
us ers
ab f
Ġ19 49
Ġcomment ator
Ġadjust ing
Ġunders c
ĠSurv iv
S w
Ch ief
Ġsett ling
ĠKore ans
W ould
c ule
Ġdis able
Ġdig its
ĠD iaz
iv o
Ġcont enders
Ġcommod ities
Ġpol ite
Ġbur ial
Ġnit rogen
e ur
23 00000000000015
ab ase
AT T
l anguage
Ġfirst hand
Ġprop oses
ĠConst itutional
ĠSchne ider
Ġsh attered
Ġexc uses
Th ings
Ġrep s
ĠTe en
N or
ĠOut side
ĠSadd am
Ġsal mon
ĠJohns ons
ĠPlat form
ĠM ale
ĠMan it
ĠT ag
N OT
ĠD ucks
k owski
Ġand roid
are l
ĠDownt own
ĠM int
ĠF eed
Ġelig ibility
ĠCustom s
Ġf ried
Ġf etch
ĠK itchen
ĠPlan ning
ir y
ĠG ru
ĠHung arian
Ġund en
Ġult ra
Ġmanip ulated
Ġkidn apping
Supp ort
ĠHass an
ĠHel en
Ġthank ed
Ġpoison ing
Ġdictators hip
ĠO val
Ġref rain
Ġopp oses
F rid
T urn
Ġst oring
Ġspec ulate
ĠFred die
c ale
201 1
C ON
67 2
Ġsuper market
arend ra
Ġcomment ing
Ġsystem atically
Ġrul ers
Ġang el
ĠJac obs
ĠExt ra
qu arter
65 3
pri v
Ġmon arch
69 7
ĠCom plex
c ry
Ġf al
Ġener get
Ġinteract ing
Ġst ubb
Ġdecor ated
l ived
Ġw aking
Ġcar ved
Ġmisdem eanor
Ġd ess
ce a
per ing
Ġ15 5
Ġs omeday
st ated
Ġr untime
Ġstri ve
OL D
Ind ia
Rich ard
Ġpup ils
P ay
os er
ĠG ur
pl er
Ġmiss es
87 2
Ġcyber security
H ello
B itcoin
ass is
Ġrev olt
Ġrum or
G roup
Ġad vertisements
Ġsm ashed
Ġs ulf
Ġper t
Ġapp les
M T
Ġsm oked
ĠAd mir
ĠAm sterdam
rict ed
ĠAdd ed
ĠPre p
ĠHig her
ĠBris bane
Y S
m itted
r t
Ġwas ting
Ġsign aling
Ġsum mers
R P
Ġc it
Ġdisag reed
Ġopens ource
ff ield
24 00000000000015
Ġcongress man
Ġdisc om
Ġrev ive
Ġoil s
Ġaccus ation
Ġexist ential
Ġkid ney
et ed
ific ent
ĠDem s
Ġec ig
Ġreall ife
Ġb ounds
ĠJ ak
ĠMarx ist
ĠD anger
ell i
ĠPh ase
Ġcrow df
ĠS it
Ġd ock
ĠP av
84 3
ĠP resent
Ġcountry side
ĠLuck ily
Ġde gr
I ran
Ġbrows ing
Ġdoub ling
c dd
Ġv ow
Ġlow s
38 3
Ġdraw ings
oven ant
conf ig
larg est
W eek
Ġsu cks
Ġremark ed
ĠMah m
ĠAm azons
Ġrepl ies
Ġche at
Ġcirc ulated
Ġdial og
Ġmedic ines
ĠB om
ĠO g
be y
ĠUp dated
ĠCl aire
g rowing
Ġh ott
Ġunanim ously
Ġinad vert
ĠPir ate
Ġstap le
ĠR are
Ġmer ged
Ġwas t
Ġimp art
ci um
ĠSex ual
ĠD y
ĠRh ode
Ġcomp ilation
Ġevac uation
F x
Ġadvert ised
um en
ĠE cho
Ġeleph ants
z an
ke ls
ĠN I
Ġrem edy
ĠAtt orneys
Ġharm ony
Ġtelev ised
al ine
Ġdownload ing
he id
we ather
Th ink
Ġar ises
ĠSp ark
200 9
ĠBr itt
Ġwild erness
ĠViol ence
F in
ĠB oot
af c
ĠInspect or
it us
il ib
ĠL inks
Ġall erg
ĠShe ikh
ĠIntern al
Ġver te
Author ities
W E
Ġfil ib
ĠSch ultz
Ġtruth s
coh olic
ĠEng lands
ĠCoun sel
ĠP ierce
Ġplay ground
ins ons
75 3
ĠJack ie
ĠD uck
Ġsuper star
Ġcraft ing
ĠIndust ries
ĠSh awn
ĠOfficial s
ĠRhod es
ĠS leep
ĠK oh
Ġbell y
ĠBl ur
Ġdr ills
Ġstri ps
Ġm as
Ġl enders
pl aces
Ġpo ke
enc ia
Ġmyth ology
M ad
Ġbe aches
Ġarchitect s
enz ie
ĠRes earchers
Ġdisreg ard
ĠA us
Ġr apper
Ġch orus
Ġchar ming
ur ations
ĠZ imbab
Ġlands c
Ġpersu aded
Ġto e
Ġam ass
ĠAv iv
bal ance
Ġlearn s
Ġgra ffiti
Ġprohib its
Ġv ou
Ġmon key
Ġemer ges
s ight
ĠS ara
Ġgovernment al
Ġfant as
Ġselfdef ense
ush i
Ġlog istics
Ġorganiz er
ĠProv ince
Ġpreex isting
k ara
Ġscreens hots
osp ace
Ġcoll ar
Ġunl ocked
Ġinstall ment
Ġreg istry
Ġdown side
Ġdismiss al
Ġenfor cing
D ig
Ġg el
Not hing
ym es
Ġrational e
Ġintermedi ate
Ġsc ans
ĠKind le
Ġw and
ĠTh read
88 3
67 3
ett i
se xual
Ġign ores
Ġded uct
Ġox id
Ġgard ens
Ġpro claimed
or ously
Ġfirm ware
Ġphotograp hers
fol k
Ġw olves
ĠL enn
ĠY oun
Ġdifferent ial
H on
ĠL ar
Ġsur rog
Ġret ention
00006440000000000000000000003 2
Ġgest ures
Ġost ens
Ġtherape utic
vent h
ĠGuard ians
Ġrecy cling
Ġincap able
ĠO T
ĠInter view
Ġg ospel
Ġdis qual
ĠEn joy
ĠMinor ity
J UST
Ġind icted
Ġdin osaurs
Ġsher iff
ĠRep ly
Ġro oft
Ġre write
Ġcr acks
ĠBah rain
ĠNep al
Ġheter osexual
g reen
ith s
Ġscan ning
38 2
Ġdiscrim inatory
id ad
ĠRel ated
Ġl asts
Ġam ple
89 3
Ġmut ation
Ġdesc ended
ĠIs nt
Ġtelesc ope
d oms
ĠBlack Berry
Ġoper a
Ġsk ies
Ġexcept ionally
00006440000000000000000000006 7
Ġdilem ma
at ts
Ġdi ets
ĠDN S
Ġsubm issions
ĠT ucker
87 3
Ġarchitect ural
Ġswift ly
Ġm esh
Ġr app
Ġstaff er
Ġindu ce
Scient ists
Ġgalax ies
Ġprem ie
Ġdest iny
Ġric her
S atur
Ġh ug
Ġst igma
Ġreprodu ce
Ġmaj ors
ĠGu inea
Ġcongest ion
ĠEcu ador
ĠMons anto
m ia
Ġel bow
Ġreserv ations
ĠI PA
Ġs ir
ol ia
Ġr ude
od ore
Ġpolit ic
Ġresist ed
ĠElect oral
D aniel
ĠTechn ical
Ġmatern al
Ġstation ed
Ġimp ending
Ġbre asts
Ġsurviv or
ab ee
Ġdem ons
Ġserv ant
Ġdesign ation
ĠIP CC
ĠRebe cca
ĠS ikh
39 2
ĠHar b
ĠSy nd
Ġconstruct ive
Ġexagger ated
Ġinfant ry
ĠF ortune
Ġmight y
Ġform idable
ĠNot ice
idel ity
Ġrecept ors
Ġhalft ime
he ard
Ġpat rons
ĠR id
Ġcoun ters
Ġgrad ual
ĠLeg ion
Ġn ud
ĠB rief
Ġ7 30
gg er
Ult imately
2 000
Ġest e
Ġsens ory
Ġtweet ing
Ġinnoc ence
ĠPeters burg
Ġbra ke
ĠTM obile
ic idal
un c
65 8
ĠantiSemit ism
Ġse af
ĠEx xon
Ġappl ause
Ġge ographic
B uild
ĠF ail
og ene
Ġgrab s
Ġcontinu ity
ĠKat ie
Ġgrat itude
s a
Ġp anc
ĠTor ont
ĠPrem ium
Ġunanim ous
Ġs ocket
ĠN arendra
Ġgr ains
0000644000000000000000000001 15
Ġcollect ors
Ġrig ged
P E
Ġrem ake
Ġexpend iture
ĠN iet
Ġper former
ĠV as
ĠAm azing
ĠMy ers
Ġnarc iss
ĠG em
Ġun identified
ĠCard inal
Ġsimpl est
ĠH our
C raft
t est
io let
ĠChe ney
Ġ2 15
En ter
Ġcontin uation
ĠAl v
Ġrest oring
f dd
Ġg room
Ġun official
ĠBald win
P rior
Ġbu cks
ĠLe h
Ġdeep est
64 9
or ian
ce c
Ġsent iments
Ġneg lected
Ġaver ages
ĠC ert
Ġper imeter
Ġmon uments
Ġne p
reat ening
Ġconc ussion
ĠPop ular
Ġf aint
Ġd amp
umn i
pher d
Ġb unk
Ġsw ear
Ġopt out
ĠP ont
Ġoff ender
Ġbrand ing
ĠT SA
IN K
ĠUn cle
Ġbrew eries
Ġeven ly
ĠStr ategy
ĠJup iter
ĠAd obe
Ġst ain
L ive
Ġblog gers
ĠWy oming
Ġhypocr isy
Ġsuppl ier
Ġatroc ities
Ġre enter
if ax
IC S
Ġ1 19
ĠR ole
all ic
ĠTh r
ĠSyri ans
Ġprofound ly
Ġcher ry
Ġinc idence
Ġsp ouse
ĠWh ole
00006440000000000000000000007 5
ĠLyn n
W orks
Ġpr ince
Ġbod ily
t ical
red dit
ĠPengu ins
Ġacc ustomed
ari us
b ai
Ġtr aps
ĠZ oo
ĠMerc ury
Ġaggrav ated
Ġrenew al
ĠJuda ism
ĠO M
ĠFl ore
Ġske let
Further more
g ro
l ia
ĠS aid
Ġubiqu itous
st ad
Ġlaw ful
ĠL ac
Ġworld view
Ġhom emade
Ġstubb orn
ĠF argo
Ġwork load
ĠSant os
Ġlos ers
Ġbigot ry
ĠBened ict
N umber
Ġunp aid
ĠEug ene
ĠM oy
Ġj ar
so ld
Ġback pack
Ġprovoc ative
ĠT umblr
E ver
Ġf eder
Ġsur real
ĠWhe never
Ġmarch ing
Ġp unt
ĠIn come
Ġconf essed
Ġlim bs
66 4
ĠORe illy
ed d
Ġplay able
Every thing
Ġsl ate
Ġharass ed
Ġmon keys
Ġver ge
Ġcl oses
Ġrep ression
ON G
Ġtransform ing
Ġrent ed
Cons ider
Ġmass ively
Ġadvert isers
f ires
Ġs ized
Ġplag ued
L ess
it ant
ĠO UT
ĠK re
Ġschedul es
ĠHe in
Ġrest ruct
Ġweigh s
Ġv oy
pro cess
ĠFBI s
Ġspons orship
ĠP am
ran king
Im agine
Ġselfd riving
od us
af b
N P
Ġcl utch
Ġhead phones
Ġstand off
Ġinflamm ation
Ġapp end
velop ed
ĠEp ic
C arl
Ġs aga
ĠMe ga
ĠSuper ior
Ġloud ly
l ied
Donald Trump
atern al
F inal
yr us
ĠCharl eston
Ġproport ions
Ġproc ure
Ġmot ors
rank ed
h it
Ġsurg ical
N early
Ġp ads
ent ry
ĠArmen ian
D on
ev al
Ġpath ways
Ġcertific ates
ĠV ic
Ġbubb les
ĠK C
im o
Ġch unks
ĠU E
ident ally
Ġins iders
77 6
h awks
Ġf ox
ĠC ultural
ĠG ust
ĠP s
ĠON e
Ġinc arn
ex ts
Ġvill ains
Ġw inger
Ġcler gy
Ġincorrect ly
Ġculp rit
39 3
ucc i
Ġsh arks
g ars
Ġte asp
lin ess
ĠRap ids
un n
Ġal ley
Ġt read
ĠRe in
ĠR aspberry
ĠCh icken
Ġdisc rep
Ġcommer cially
N E
ĠU FO
ĠQu in
ĠRay mond
ht ml
18 1
Ġp ist
Ġh ates
Ġconfig ured
ĠRec ent
M el
Ġl iable
Ġco hes
ĠBl ocked
p al
Ġbr akes
ce ived
ĠRe venue
Ġumb rella
ĠP LA
Ġdepict ing
Ġplace bo
99 0
Ġcomfort ably
Ġpedest rians
Ġtri angle
Ġinter ception
C oin
Ġw o
Se ason
ĠC ed
Ġconcer ts
Ġ11 00
Ġpe as
ĠCons ult
i q
Ġcamp ing
Ġplum met
ĠFl oyd
ĠTe ams
Ġchance llor
p aper
Ġsm iles
be b
ĠBar rett
Ġlab s
Ġgar nered
ĠInf o
Ġjurisd ictions
ac ists
ĠAss ass
Ġbur ger
Ġaffili ation
Ġrobb ed
Ġs igh
ĠN ortheast
Ġen cl
Ġacclaim ed
ce b
Ġshort ages
ĠR ash
ĠG olf
Ġveget arian
K im
ĠG ut
Ġ3 000
Ġrem oves
Ġsur geon
ĠRevolution ary
a eb
ĠCelt ic
Ġunre asonable
et ics
ĠD ifferent
09 1
ĠWar rior
ĠRes istance
Ġexecut ing
Ġpet ty
Ġbl ur
Ġlaw maker
Ġauthent icity
Ġtheoret ically
0000644000000000000000000001 16
H as
K evin
c ano
Ġp inch
Ġm udd
ba um
ĠBul gar
Ġre imb
Ġnon com
Con nect
Pr int
c bb
ĠM AR
Ġcirc ulating
Ġaccum ulation
Ġt apping
Ġrail road
Ġtim et
Ġcra fts
Ġeffic acy
Ġl akh
ger ald
Ġequ als
Ġsuccess ive
ĠG iant
leg round
Ġinj unction
ĠComb at
Ġon ion
ĠV it
ĠV ers
ĠFle et
Ġboard ing
Red dit
h l
Ġmut ations
Ġflood s
Ġb aff
ĠF ri
ĠNe o
R S
O k
Ġ1 44
Ġtw ost
ĠBut ter
Ġdisc ern
66 9
Ġcrack ing
Ġethnic ity
Ġsociet al
Ġblat ant
ac d
Ġun aff
ĠEth ics
Ġcounsel ing
w ife
Ġf ier
Ġst alled
Pr ime
Oct ober
ĠM alt
qu et
Ġret iring
ĠBl izzard
Ġinstruct or
S W
Ġal ias
ve ment
Ġconce al
Ġop ed
ĠSh arks
St ream
00006440000000000000000000006 6
ee le
Ġopp ressed
ĠD uc
Ġ19 52
A cc
F X
Ġt ed
Ġwho pping
Ġaw ake
lant ic
Ġphil anthrop
Dem ocrats
Ġb ishops
Ġpro w
Ġsy mm
Ġb ree
Ġassess ing
th y
ĠCh ave
Ġcler k
f ee
Ġconf ess
Ġinstall ations
ĠCON T
Ġp g
Ġ19 38
Ġhell o
Ġseiz ures
Ġfr iction
het ics
Ġrep roduction
Ġiniti ate
ĠP ist
Ġcommun ism
Ġpar ole
Ġchief s
Ġst all
ĠL EG
Any way
64 2
Ġchick ens
B ern
R un
g io
Ġst air
Ġrem n
ody nam
ĠSch war
Ġhall uc
Ġther m
f ix
ich i
ĠResp onse
Ġt iles
Ġcompan ions
f aced
Ġpop e
Ġrespect ful
Ġse ated
Ġins ign
fe ed
Ġ12 1
Ġx en
ĠSebast ian
Ġhe mp
ep ern
Ġdis bel
ĠIs is
ĠFreder ick
ri o
ĠBBC s
W omen
ĠLie utenant
Ġm ansion
Ġinv aded
Ġsit uated
ĠEx pect
Ġspec ulated
Ex p
Ġmem e
ĠCong o
ĠMart ins
Ġlik ing
Ġhight ech
Ġsp ider
sw er
ĠCEO s
ĠPatri ot
ĠP ull
bl og
n ote
ĠEll en
Ġlau ndering
r and
ĠZ ika
ĠInnov ation
Y ear
V ery
Ġnew born
ĠAl ban
Ġlim itation
Ġtend encies
Ġexpl ores
Ġsad ness
ĠG RE
ĠBrig ade
ĠWag ner
S ervice
l is
Ġouts iders
ĠChrist ine
Ġprolifer ation
ĠNew man
H ER
ĠL L
Ġle fth
64 3
Ġund o
enh agen
M ur
Ġwhere by
Ġinsult ing
ĠAst ros
at form
Ġstr ongh
ĠMe chan
Ġguess ing
he ne
Ġch olesterol
Ġpiv otal
H R
Ġc ues
Ġfor ged
ĠSt am
st ood
Ġdec omp
ĠTre nd
Ġmic row
ĠFact ory
ĠHe ather
ump ing
Ġmis ery
ĠMir ror
ĠSug ar
K n
ĠT ool
Ġphilos ophers
Ġmemo ir
Ġmerch ant
ĠM TV
us ra
ĠF T
Ġhands ome
et ric
ĠL I
Ġ19 36
Ġa we
Ġam en
Ġg ast
Ġl ions
ĠB end
ĠMar athon
Ġcommem or
ĠC aucus
ian n
sec ure
g ering
Ġqu ir
Ġess ays
Ġnep hew
T est
ĠG ri
ĠInst itutes
Ġvoc abulary
ĠZimmer man
Ġcl an
part isan
Ġdepart ed
Ġdisgr ace
ĠF u
Ġsoc io
ĠE ston
ĠLeices ter
Ġb arn
Ġpreced ing
B ob
L ou
Ġinc ub
ĠDecl aration
ĠAny way
Ġlabel ing
O pp
ig rant
ĠBer ry
Ġremember ing
Ġhal ted
ĠS z
ass er
G ov
Ġresp ir
Ġdist urbed
Ġgr ammar
Ġcann on
Ġincarcer ation
r ades
Ġnow adays
Ġal erted
ĠJ as
0000644000000000000000000001 17
Ġprin cess
Ġtraum atic
ĠC rim
J ul
Ġconfig ure
ĠGar rett
Ġundergrad uate
iv ist
Ġrun way
reg or
Ġp oker
iv ities
sy stem
Ġdevelopment al
ĠBur ton
Ġtab s
Ġun man
Ġdecre ases
Ġd op
ĠPer u
ĠKey stone
ĠW er
Ġrain fall
au f
ĠStand ards
at z
Ġex pelled
Ġimp uls
00006440000000000000000000005 4
Ġsynt hes
08 1
ind ex
ĠLe eds
board ing
D ue
Ġbr ace
ĠYork er
ĠAC A
ĠN ike
Ġover ride
C redit
d bb
ĠS ed
ĠC arn
Ġam azed
ĠMy an
ĠM K
Ġspec s
Bl ue
ĠFe atures
b ff
m ic
Ġd itch
ĠLiber tarian
sole te
ĠSt ur
ĠUn known
ĠHar old
auc as
Ġpref ers
r h
y as
re ci
Ġpatri ot
ĠCh i
Ġexpl ode
bour g
Ġsod ium
Ġsh ale
19 1
Ġdev ote
Ġtom atoes
oll s
ĠAng ular
ĠChurch ill
Ġhorm ones
w hen
ĠG ren
Ġgoal ie
ih il
Ġs unk
Ġpre empt
Ġprep ares
Ġexplo its
Ġrac ially
ĠPat terson
ĠAp ache
ĠW ILL
Ġout we
Ġh amm
act ly
ĠCongress man
Ġvill agers
Ġdict ate
J ournal
Ġsub ord
Ġsle w
Ġsing led
ĠStrateg ic
ob ased
on o
od o
Sept ember
Ġe lic
Ġspeed ing
the y
ĠHas kell
Ġbacter ial
P ER
ver ts
ĠF ell
66 8
3 05
cc d
Ġbl ues
Ġsing ers
Ġtoug hest
Ġexpend itures
D eb
Ġc emetery
ĠT ank
ĠD raw
ia o
ang a
ĠPh arm
ĠSU V
ĠK ol
Ġgr in
Ġ2015 16
Ġmunicipal ities
H uman
Ġ19 14
Ġpo pping
Ġdefin ite
ĠSett ings
ĠL TE
Ġsim ulations
Ġat om
Ġdecre asing
ĠHug o
Ġs arc
Ġtot als
Ġur ges
ĠIndones ian
Ġdiscom fort
h ift
ĠH ogan
Ġinfect ious
st ro
Ġregul ating
ĠInt o
ĠFly ers
y en
ĠMar ijuana
ĠS ize
Ġsp ur
Ġco herent
Th ird
Ġimper fect
N ob
Ġc ove
cc c
ber ries
Ġalleg iance
ĠBel fast
ĠBay ern
Ġgate way
Mem bers
ĠRoy als
d el
i ago
ĠW ave
cc f
ruct ions
ac f
Ġrestrict ive
Ġfire works
John son
health y
oc ating
Ġmed als
55 6
Ġexperiment ing
ĠJoh ann
ĠSalv ador
Ġschizophren ia
3 15
ad ic
Ġneighbour ing
ĠHamm ond
E lect
T I
Ġcommercial s
Ġexhib ited
ĠR andom
od or
Ġpair ing
Ġdescend ants
r ar
ĠRes cue
Ġrat ios
Ġom n
D en
F ore
R ather
ĠS uff
Ġbud dy
ĠBra ves
C reate
ad ors
ĠA id
Ġ3 20
if orn
be a
Ġprol ific
OU ND
Ġenvelop e
Ġpost war
ĠJ ail
Ġinter vals
ĠChar acter
ĠiPh ones
Ġpuzz les
p os
Ġ19 37
Ġleg ends
L ocation
b ag
Ġsh ining
Ġtiss ues
an amo
ĠD P
ĠS we
ra ve
c ab
Ġinject ed
utter stock
he rence
Ġp ains
Ġl amp
ĠSt ark
els en
AT A
osh op
Ġconflic ting
Ġrestrain t
ment ia
ĠK ur
C ard
d ain
ut ory
Ġsl iding
Ġcoordin ates
Ġyouth s
un ami
Ġ16 5
ĠPed ro
Ġpupp et
Ġcl ay
ĠUn block
Ġair ing
Ġpack ing
D ist
c ats
lin er
ĠGu ate
ing es
ru gged
Ġemploy ing
ĠMel issa
79 8
Ġundermin ing
74 9
S und
ĠP ill
ĠVal ve
IG N
Ġhott est
S un
Ġc afe
Ġfr onts
ET A
Ġjihad ists
ĠE manuel
Ġsl ope
Ġcampaign ed
Ġrum ored
ĠKu wait
Ġcoh ort
b illion
ĠD re
ĠDo om
Ġgig antic
s quare
ĠRe y
ĠKn ox
b ishop
r age
Ġl y
Ġre app
ĠSerb ia
ieg el
W il
Ġreal DonaldTrump
Cong ress
r itional
g ae
Ġy a
EM A
at he
Ġit d
Ġperson a
ush ima
ĠZe lda
K K
Ġspect acle
Ġrecons ider
u ously
ĠW id
Ġcomp ression
ĠField s
ĠDian e
Ġor thodox
Ġsal v
Ġm ocked
ashion ed
Ġl ure
Ġpro se
Ġ19 2
Ġpractition ers
ĠT ot
Ġle v
rent ice
Ġfemin ine
ĠRC MP
ĠFinn ish
Ġacoust ic
Ġfront ier
ĠRom ans
ĠC ous
Ġsy rup
Ġrot ating
Ġcor related
ring ing
ĠIS O
Ġfo am
ack ers
UC K
IN S
ĠInterest ingly
l ain
ĠC hem
Ġhe ap
Ġpr aying
ĠDet ective
ĠM ental
Ġpl ight
Ġpestic ides
B ur
t hes
Ġs inking
ist ence
Ġ12 6
ĠUkrain es
ĠSol utions
Ġm um
ĠAfric ans
ĠBrad ford
ĠNon etheless
ĠPors che
ĠV ander
ij i
Ġpip elines
Ġsand wic
er gy
ou ble
ĠN Z
ĠFranc isc
Ġproceed ing
Ġpass er
Ġgl ue
ĠSl ow
ĠJoe y
Ġplanet ary
ĠOr b
Ġmom s
re ation
ĠLind sey
E arth
ĠG IF
ron ics
a ec
en ary
ĠAll ied
EN S
ĠH ang
Ġspecific ation
ĠBur ger
Ġw ishing
Ġsl ash
A ud
Ġha ven
ub a
Ġas semble
Ġren ts
Ġp arl
ĠL ok
Ġblock ade
or ically
ĠN u
Ġper il
ĠShort ly
Ġhand ler
Ġinex pensive
ĠLaure n
Ġesp ionage
c ff
Ġpre re
ĠAr g
Ġopen ness
U B
st ru
ĠC ream
os lav
Ġge ography
ĠA AA
ĠA WS
ĠN D
ĠN er
Ġspecial ty
Ġpir ate
77 4
Ġgl am
Ġritual s
am oto
Ġstat ues
ĠDev il
ĠArch ive
ĠSad ly
ĠT IME
ĠH ash
ĠN B
Ġev id
Ġstart ling
ĠKush ner
Ġf ills
oth s
Ġsm ash
Ġrest s
Ġmetab olic
Ġsemif inal
Ġbr ink
Ġtrans cend
Ġdefense man
T em
Ġnot ions
Ġsp ac
ĠCh art
ĠID F
Ġske leton
tob ack
ĠK ris
Ġund ec
Ġdisproportion ately
educ ated
ic ular
Ġ19 8
Ġgl owing
Ġvacc ination
Ġtempor al
ly s
Ġcon ve
ĠL ands
Ġant iv
ĠAbs olutely
ĠMar riage
E ric
ĠR d
Ġscore r
Ġunivers ally
Ġa rom
and ra
Ġ12 9
Ġmis guided
Ġadmin ister
3 11
c df
Ġfam ed
ov y
ĠPre vious
Ġescal ation
ĠS ke
ĠP izza
ace y
hen ko
201 9
f bb
ut sche
Ġsynt hesis
ĠA be
ud ing
Ġfin anced
ĠSh ore
w ire
ĠConst ruction
ĠR N
ĠG erald
our cing
l est
ĠI X
ĠA HL
Ġ1 32
ĠNic olas
Ġcondemn ation
ott i
Ġboost ing
rend ered
Ġco ached
ĠEuro pa
ĠWind s
Go vern
ĠGeor ges
Ġimag inary
Ġexcell ence
Ġthro tt
84 0
ĠVol ks
c reen
Ġl ocking
oin te
Ġright eous
Ġmod ular
Ġext inct
Ġnon c
Ġz ip
ID EO
Ġfort unes
a q
Ġu l
ĠW itch
ĠOtt oman
Ġal phabet
William s
66 2
W ater
ĠEU s
ĠJo an
ĠHun ts
ĠA ch
Ġyear ly
ĠDe V
ĠIb rahim
M ass
ĠS ina
e on
k an
ic z
Ġpart nered
Ġmis represent
Ġmo ons
Ġsubsid y
Brit ish
ac in
44 00000000000015
ne um
Ġback end
arr ison
Sim ilarly
ĠT T
ĠCal vin
Ġmet ropolitan
ALL Y
Ġoun ce
d bd
m or
st atic
3 13
Ġpost ure
Ġcelebr ates
Ġsmugg ling
d bf
ĠNAS CAR
Ġmail ing
M ex
ĠF ul
Ġchall enger
k ys
ar ations
Ġban ana
Ġsupp lements
ĠCo ord
Ġp act
ĠH M
Ġworks hops
Ġcentral ized
ĠE arn
Ġout doors
Ġinv oked
Ġste er
Ġbur nt
y ll
Ġsum m
oft he
Ġjewel ry
Ġpro let
Ġrock y
ĠArt icles
Ġpil gr
ĠantiSemit ic
Ġch ased
Ġbl ink
Ġvice president
ĠGuant anamo
f bf
g irl
ĠR ee
Ġad am
Ġdeploy ing
Ġf ue
Ġd as
Ġcomm ons
Pl an
wart z
d ff
ĠH us
Ġrul er
On line
Ġd urable
ĠT P
ĠG os
55 7
00006440000000000000000000004 2
Ġconsult ed
ĠAv ailable
Ġlect ures
ĠC OU
ld on
and ro
Ġbeh old
Ġmanifest o
it led
Ġconsult ants
Ġb ully
Ġst ared
Ġsqu ares
Ġeth ic
Ġsin ister
Ġin h
ĠF uj
Ġpass ages
Ġmar itime
bo at
ovs ky
f ill
s ki
orm an
77 9
Start ing
Ġbuild up
Ġs acked
Ġmon st
ĠTon ight
N ick
p ol
ud o
Ġcart oons
Ġinterpret ations
Ġfulf illing
ĠFitz gerald
Ġre written
ĠAs ked
Ġpump ing
Ġswing ing
Ġearthqu akes
J ose
Y oung
ĠT witch
ĠF en
Ġret ali
Ġdrag ging
ĠLam ar
Ġt ac
ĠFacebook s
Ġmim ic
Ġco a
Ġbus h
Ġobst ruction
Orig inally
Ġant iqu
Ġresist ing
ĠPhilipp ine
Ġclar ified
ĠN em
Ġhist ories
ĠTor res
Ġuns ett
Ġphenomen al
ĠWheel er
at hing
ĠC ec
ms on
Ġob ese
Ġprop s
ĠChic agos
Ġexplo iting
ĠApplic ation
ĠM ub
out heastern
Ġ2014 15
c bf
ĠOs ama
Ġinflamm atory
Ġinstinct s
ĠC raft
ĠNob le
Prof essor
E nt
ee e
ĠS ig
Ġrespect able
L ee
d irect
Ġw aving
Ġcompet ed
st en
Ġco ex
Ġsort ed
ĠPay Pal
est inal
Ġsk et
You ve
N O
Ġf als
ĠV oy
Ġimpl ication
3 04
Ġa ided
ĠW AS
ĠTr inity
Ġgot o
Ġgun fire
ĠAur ora
C T
ĠF lying
ĠSor os
ĠGall up
ĠJohn ston
Ġhit ter
Ġassist ing
id is
affe ine
m ax
r ab
Ġ202 5
Pl ayer
Ġprev ailing
d cf
ĠB ug
ĠRep orter
ĠBul let
b ef
ĠT yson
ous se
i em
Ġcoll usion
mond s
ĠW ash
Ġdef ects
ĠSupp lementary
Ġburd ens
ĠArt ist
ablish ment
Ġ19 7
s ay
Ġconf inement
ĠAr ms
ĠHist orical
ĠTw ilight
ĠPsych ology
n ar
en f
ĠT shirt
p ay
ĠK od
ĠIraq s
Ġcous ins
Ġspont aneous
ĠStephan ie
e ef
Ġconf ession
Ġd ictionary
ĠD ol
ĠF uck
Ġspl itting
Ġmand ated
ĠTH C
Ġpir ates
ĠPhys ics
Ġche ek
ĠS ark
p i
Ġopp os
Ġtrig gering
ĠSol o
il o
ĠP ure
Ġhome work
Ad am
Ġprogress ed
ĠCre ated
vis ors
Ġnotor iously
Ġyield ed
ĠAzer bai
ĠN igel
ĠProper ty
ĠCh anges
ĠNic ole
Ġp and
ĠF E
Ġob solete
st own
Ġ18 5
ĠGro ve
Ġinsurg ents
Ġgly ph
att led
ĠD OM
Ġimp aired
ĠWik ileaks
ill ions
ee ks
ĠPro blem
Ġdiscour age
h in
Ġn ause
ĠR ena
reat ment
e ec
Ġframe works
Ġnonviol ent
hib ition
Ġpump ed
Ġcon quer
ĠG ol
Ġspe lling
Ġkind ness
Ġnight club
77 8
Ġtermin ation
Ġexcer pt
C ustom
Ġre aff
Ġbi om
it ious
Ġf aded
ign ant
Israel i
Ġs lick
Ġf onts
3 17
W al
k os
Ġ1 33
Ġl ent
ĠSc out
Ġqu art
Ġk idding
V ict
Ġf erry
Ġf ixture
Ġsp un
ĠAl bum
Ġspec ulative
Ġstress ful
Ġunle ashed
Ġcontracept ion
Ġreal izes
Ġext ras
Ġplant ing
Ġmotiv ations
Ġvisual s
G G
ĠT odays
Ġun for
Ġhes itate
Ġfil tering
R Y
Ġhe ars
ĠD IS
a af
ĠF emin
ass es
Ġlive lihood
Ġjud iciary
Ġpun ches
ĠD ru
Ġpol ished
Ġbit ch
Ġdom est
ĠCop enhagen
e enth
re view
ĠD EA
Ġrese ar
ĠMe h
Ġfulf illed
Ġmelt down
nt on
Ġgu iding
201 8
Ġgrand parents
Ġdiss atisf
Ġecosystem s
ĠL amb
com merce
Ġsubs et
f ell
ld om
Ġtext ures
ĠNorm al
Ġenerget ic
j ury
Ġthink ers
Ġtrail ing
Yes terday
Ġl ou
ĠK un
ĠL omb
Ġoptim ized
m and
am my
ĠB ike
Ġir res
Ġstrengthen ed
cc b
Ġper vasive
Ġfat ally
ĠCB D
K en
ĠAm nesty
ĠEl i
Ġdemol ition
ĠNiss an
ĠEd itors
Ġarm ored
Er ror
f ab
Ġe ve
ĠAN Y
ĠCamer a
ed ge
ĠI CC
se en
Ġde ception
Ġ19 18
ag ans
Ġcan cers
int o
H ard
Ġout going
ĠMic key
ĠZimbab we
g ood
og ens
ĠAr ray
ĠCamp us
onge vity
d bc
ĠL ah
Ġt ipped
ir ling
ĠTh ing
ĠElect ions
Ġtr unk
ott a
ĠO dd
Ġstr anded
Ġundermin ed
ĠM n
ĠP om
Ġex ams
Ġbod ys
Ġunexpected ly
Ġsummon ed
Ġ6 30
kins on
ĠOpp osition
c bc
Ġcould ve
69 6
ĠSub urb
Ġfl ipped
64 8
ocaly ptic
Ġt earing
Ġvan ished
Ġunfair ly
ĠPK K
ĠF usion
Ġinsist ence
f eb
Ġinv asive
Ġg or
ac b
act ivity
IL E
ĠH os
ĠJ al
Ġpossess es
Ġann ot
ĠH iro
Ġviol ently
Ġecl ipse
Ġrehe ars
Ġsm okers
ĠAdvis ory
M aking
u u
Ġall iances
Ġhigh ways
AF TA
ĠE VER
Ġkey words
ĠDis play
F K
ĠCorn ell
Ġf reet
J osh
f df
Ġm und
ĠP yrr
Ġsn iff
ĠGard ner
C y
Ġsp rawling
Ġrun off
Ġmut ually
Ġincons ist
Ġabrupt ly
g ard
ĠPTS D
ad an
ĠDo ing
Ġvib e
ut able
ĠC ind
Ġimp over
Inc re
F rench
Ġal le
Ġz oo
Ġ2 05
ĠL uk
ĠBr ing
br and
ĠL SU
Ġres umed
Ġtest osterone
oo oo
ĠK ra
Ġdep icts
S ave
Ġc av
ĠS ie
Ġrec ap
ud ent
de a
Ġheavy weight
Ġimpress ions
3 16
a ft
c bd
Ġo s
ĠG W
Ġexp ire
Ġeth n
Le vel
ro ts
Ġsl ogans
aid a
reg ulated
[...]
