{
  "version": "1.0",
  "truncation": null,
  "padding": null,
  "added_tokens": [
    {
      "id": 0,
      "content": "<s>",
      "single_word": false,
      "lstrip": false,
      "rstrip": false,
      "normalized": true,
      "special": true
    },
    {
      "id": 1,
      "content": "<pad>",
      "single_word": false,
      "lstrip": false,
      "rstrip": false,
      "normalized": true,
      "special": true
    },
    {
      "id": 2,
      "content": "</s>",
      "single_word": false,
      "lstrip": false,
      "rstrip": false,
      "normalized": true,
      "special": true
    },
    {
      "id": 3,
      "content": "<unk>",
      "single_word": false,
      "lstrip": false,
      "rstrip": false,
      "normalized": true,
      "special": true
    }
  ],
  "normalizer": null,
  "pre_tokenizer": {
    "type": "ByteLevel",
    "add_prefix_space": false,
    "trim_offsets": true,
    "use_regex": true
  },
  "post_processor": {
    "type": "ByteLevel",
    "add_prefix_space": true,
    "trim_offsets": false,
    "use_regex": true
  },
  "decoder": {
    "type": "ByteLevel",
    "add_prefix_space": true,
    "trim_offsets": true,
    "use_regex": true
  },
  "model": {
    "type": "BPE",
    "dropout": null,
    "unk_token": null,
    "continuing_subword_prefix": "",
    "end_of_word_suffix": "",
    "fuse_unk": false,
    "byte_fallback": false,
    "ignore_merges": false,
    "vocab": {
      "<s>": 0,
      "<pad>": 1,
      "</s>": 2,
      "<unk>": 3,
      "<mask>": 4,
      "!": 5,
      "\"": 6,
      "#": 7,
      "$": 8,
      "%": 9,
      "&": 10,
      "'": 11,
      "(": 12,
      ")": 13,
      "*": 14,
      "+": 15,
      ",": 16,
      "-": 17,
      ".": 18,
      "/": 19,
      "0": 20,
      "1": 21,
      "2": 22,
      "3": 23,
      "4": 24,
      "5": 25,
      "6": 26,
      "7": 27,
      "8": 28,
      "9": 29,
      ":": 30,
      ";": 31,
      "<": 32,
      "=": 33,
      ">": 34,
      "?": 35,
      "@": 36,
      "A": 37,
      "B": 38,
      "C": 39,
      "D": 40,
      "E": 41,
      "F": 42,
      "G": 43,
      "H": 44,
      "I": 45,
      "J": 46,
      "K": 47,
      "L": 48,
      "M": 49,
      "N": 50,
      "O": 51,
      "P": 52,
      "Q": 53,
      "R": 54,
      "S": 55,
      "T": 56,
      "U": 57,
      "V": 58,
      "W": 59,
      "X": 60,
      "Y": 61,
      "Z": 62,
      "[": 63,
      "\\": 64,
      "]": 65,
      "^": 66,
      "_": 67,
      "`": 68,
      "a": 69,
      "b": 70,
      "c": 71,
      "d": 72,
      "e": 73,
      "f": 74,
      "g": 75,
      "h": 76,
      "i": 77,
      "j": 78,
      "k": 79,
      "l": 80,
      "m": 81,
      "n": 82,
      "o": 83,
      "p": 84,
      "q": 85,
      "r": 86,
      "s": 87,
      "t": 88,
      "u": 89,
      "v": 90,
      "w": 91,
      "x": 92,
      "y": 93,
      "z": 94,
      "{": 95,
      "|": 96,
      "}": 97,
      "~": 98,
      "¡": 99,
      "¢": 100,
      "£": 101,
      "¤": 102,
      "¥": 103,
      "¦": 104,
      "§": 105,
      "¨": 106,
      "©": 107,
      "ª": 108,
      "«": 109,
      "¬": 110,
      "®": 111,
      "¯": 112,
      "°": 113,
      "±": 114,
      "²": 115,
      "³": 116,
      "´": 117,
      "µ": 118,
      "¶": 119,
      "·": 120,
      "¸": 121,
      "¹": 122,
      "º": 123,
      "»": 124,
      "¼": 125,
      "½": 126,
      "¾": 127,
      "¿": 128,
      "À": 129,
      "Á": 130,
      "Â": 131,
      "Ã": 132,
      "Ä": 133,
      "Å": 134,
      "Æ": 135,
      "Ç": 136,
      "È": 137,
      "É": 138,
      "Ê": 139,
      "Ë": 140,
      "Ì": 141,
      "Í": 142,
      "Î": 143,
      "Ï": 144,
      "Ð": 145,
      "Ñ": 146,
      "Ò": 147,
      "Ó": 148,
      "Ô": 149,
      "Õ": 150,
      "Ö": 151,
      "×": 152,
      "Ø": 153,
      "Ù": 154,
      "Ú": 155,
      "Û": 156,
      "Ü": 157,
      "Ý": 158,
      "Þ": 159,
      "ß": 160,
      "à": 161,
      "á": 162,
      "â": 163,
      "ã": 164,
      "ä": 165,
      "å": 166,
      "æ": 167,
      "ç": 168,
      "è": 169,
      "é": 170,
      "ê": 171,
      "ë": 172,
      "ì": 173,
      "í": 174,
      "î": 175,
      "ï": 176,
      "ð": 177,
      "ñ": 178,
      "ò": 179,
      "ó": 180,
      "ô": 181,
      "õ": 182,
      "ö": 183,
      "÷": 184,
      "ø": 185,
      "ù": 186,
      "ú": 187,
      "û": 188,
      "ü": 189,
      "ý": 190,
      "þ": 191,
      "ÿ": 192,
      "Ā": 193,
      "ā": 194,
      "Ă": 195,
      "ă": 196,
      "Ą": 197,
      "ą": 198,
      "Ć": 199,
      "ć": 200,
      "Ĉ": 201,
      "ĉ": 202,
      "Ċ": 203,
      "ċ": 204,
      "Č": 205,
      "č": 206,
      "Ď": 207,
      "ď": 208,
      "Đ": 209,
      "đ": 210,
      "Ē": 211,
      "ē": 212,
      "Ĕ": 213,
      "ĕ": 214,
      "Ė": 215,
      "ė": 216,
      "Ę": 217,
      "ę": 218,
      "Ě": 219,
      "ě": 220,
      "Ĝ": 221,
      "ĝ": 222,
      "Ğ": 223,
      "ğ": 224,
      "Ġ": 225,
      "ġ": 226,
      "Ģ": 227,
      "ģ": 228,
      "Ĥ": 229,
      "ĥ": 230,
      "Ħ": 231,
      "ħ": 232,
      "Ĩ": 233,
      "ĩ": 234,
      "Ī": 235,
      "ī": 236,
      "Ĭ": 237,
      "ĭ": 238,
      "Į": 239,
      "į": 240,
      "İ": 241,
      "ı": 242,
      "Ĳ": 243,
      "ĳ": 244,
      "Ĵ": 245,
      "ĵ": 246,
      "Ķ": 247,
      "ķ": 248,
      "ĸ": 249,
      "Ĺ": 250,
      "ĺ": 251,
      "Ļ": 252,
      "ļ": 253,
      "Ľ": 254,
      "ľ": 255,
      "Ŀ": 256,
      "ŀ": 257,
      "Ł": 258,
      "ł": 259,
      "Ń": 260,
      "Ġt": 261,
      "Ġa": 262,
      "he": 263,
      "in": 264,
      "re": 265,
      "Ġthe": 266,
      "00": 267,
      "on": 268,
      "er": 269,
      "Ġs": 270,
      "Ġw": 271,
      "at": 272,
      "Ġo": 273,
      "en": 274,
      "Ġc": 275,
      "it": 276,
      "is": 277,
      "an": 278,
      "or": 279,
      "Ġb": 280,
      "es": 281,
      "ed": 282,
      "Ġf": 283,
      "ing": 284,
      "Ġp": 285,
      "ou": 286,
      "Ġan": 287,
      "ar": 288,
      "Ġto": 289,
      "al": 290,
      "Ġm": 291,
      "Ġin": 292,
      "Ġof": 293,
      "0000": 294,
      "Ġd": 295,
      "Ġh": 296,
      "as": 297,
      "čĊ": 298,
      "Ġand": 299,
      "ic": 300,
      "Ġth": 301,
      "le": 302,
      "om": 303,
      "ion": 304,
      "ll": 305,
      "ent": 306,
      "st": 307,
      "Ġn": 308,
      "Ġl": 309,
      "Ġre": 310,
      "ve": 311,
      "Ġe": 312,
      "ly": 313,
      "Ġg": 314,
      "Ġbe": 315,
      "ro": 316,
      "id": 317,
      "ĠT": 318,
      "ac": 319,
      "ut": 320,
      ".\"": 321,
      "ot": 322,
      "ĠI": 323,
      "Ġthat": 324,
      "Ġon": 325,
      "ĠS": 326,
      "ay": 327,
      "Ġis": 328,
      "et": 329,
      "im": 330,
      "ad": 331,
      "am": 332,
      "ow": 333,
      "ig": 334,
      "Ġfor": 335,
      "ĠA": 336,
      "se": 337,
      "ver": 338,
      "ĠC": 339,
      "00000000": 340,
      "ur": 341,
      "ct": 342,
      "ld": 343,
      "Ġu": 344,
      "Ġst": 345,
      "Ġy": 346,
      "Ġit": 347,
      "Ġhe": 348,
      "ĠM": 349,
      "ir": 350,
      "ation": 351,
      "Ġwh": 352,
      "ith": 353,
      "ce": 354,
      "ter": 355,
      "ol": 356,
      "Ġwe": 357,
      "il": 358,
      "Ġwith": 359,
      "ĠB": 360,
      "Ġas": 361,
      "ch": 362,
      "ill": 363,
      "nd": 364,
      "ers": 365,
      "ĠP": 366,
      "Ġwas": 367,
      "Ġyou": 368,
      "ke": 369,
      "Ġcon": 370,
      "ts": 371,
      "Ġde": 372,
      "Ġr": 373,
      "ĠW": 374,
      "Ġ1": 375,
      "if": 376,
      "her": 377,
      "Ġat": 378,
      "ate": 379,
      "nt": 380,
      "ag": 381,
      "ĠH": 382,
      "Ġha": 383,
      "Ġse": 384,
      "ĠD": 385,
      "Ġpro": 386,
      "ore": 387,
      "ĠThe": 388,
      "Ġ2": 389,
      "ul": 390,
      "pp": 391,
      "ment": 392,
      "Ġare": 393,
      "ri": 394,
      "ĠR": 395,
      "Ġcom": 396,
      "us": 397,
      "op": 398,
      "ain": 399,
      "ust": 400,
      "res": 401,
      "and": 402,
      "ĠF": 403,
      "igh": 404,
      "rom": 405,
      "est": 406,
      "od": 407,
      "Ġne": 408,
      "ab": 409,
      "ĠN": 410,
      "Ġex": 411,
      "th": 412,
      "um": 413,
      "Ġnot": 414,
      "Ġv": 415,
      "os": 416,
      "Ġor": 417,
      "ess": 418,
      "ist": 419,
      "Ġhave": 420,
      "ĠG": 421,
      "ould": 422,
      "ity": 423,
      "em": 424,
      "Ġby": 425,
      "un": 426,
      "Ġfrom": 427,
      "Ġal": 428,
      "ive": 429,
      "ĠL": 430,
      "oc": 431,
      "el": 432,
      "Ġsu": 433,
      "Ġsh": 434,
      "Ġthis": 435,
      "ant": 436,
      "qu": 437,
      "ĠE": 438,
      "art": 439,
      "Ġle": 440,
      "pe": 441,
      "ort": 442,
      "ies": 443,
      "Ġch": 444,
      "end": 445,
      "Ġsa": 446,
      "Ġab": 447,
      "000000000000": 448,
      "ack": 449,
      "all": 450,
      "out": 451,
      "ie": 452,
      "ĠJ": 453,
      "red": 454,
      "Ġhas": 455,
      "ally": 456,
      "Ġpl": 457,
      "ĠO": 458,
      "Ġgo": 459,
      "ard": 460,
      "ight": 461,
      "iv": 462,
      "Ġhis": 463,
      "ome": 464,
      "ap": 465,
      "ost": 466,
      "gh": 467,
      "Ġtr": 468,
      "ear": 469,
      "our": 470,
      "Ġj": 471,
      "The": 472,
      "ak": 473,
      "Ġwor": 474,
      "ud": 475,
      "ast": 476,
      "Ġdo": 477,
      "Ġthey": 478,
      "Ġbut": 479,
      "ĠU": 480,
      "Ġwill": 481,
      "rou": 482,
      "Ġwhe": 483,
      "Ġsaid": 484,
      "ge": 485,
      "ans": 486,
      "Ġk": 487,
      "ich": 488,
      "Ġall": 489,
      "ok": 490,
      "01": 491,
      "ff": 492,
      "Ġwho": 493,
      "ide": 494,
      "Ġint": 495,
      "ther": 496,
      "Ġout": 497,
      "Ġcan": 498,
      "ial": 499,
      "ame": 500,
      "Ġtheir": 501,
      "ong": 502,
      "ect": 503,
      "Ġits": 504,
      "pl": 505,
      "ice": 506,
      "ions": 507,
      "ure": 508,
      "Ġmore": 509,
      "Ġwere": 510,
      "ep": 511,
      "Ġup": 512,
      "Ġme": 513,
      "age": 514,
      "ike": 515,
      "ous": 516,
      "one": 517,
      "Ġad": 518,
      "ine": 519,
      "Ġabout": 520,
      "cc": 521,
      "ated": 522,
      "act": 523,
      "ĠK": 524,
      "Ġus": 525,
      "ber": 526,
      "ra": 527,
      "og": 528,
      "Ġso": 529,
      "ime": 530,
      "Ġhad": 531,
      "Ġone": 532,
      "Ġwhich": 533,
      "are": 534,
      "Ġcl": 535,
      "Ġim": 536,
      "Ġwould": 537,
      "ub": 538,
      "pt": 539,
      "ĠTh": 540,
      "Ġcont": 541,
      "ind": 542,
      "ake": 543,
      "Ġag": 544,
      "iz": 545,
      "very": 546,
      "ue": 547,
      "Ġte": 548,
      "xt": 549,
      "Ġun": 550,
      "Ġcomp": 551,
      "Ġoff": 552,
      "ĠSt": 553,
      "ia": 554,
      "Ġen": 555,
      "Ġbeen": 556,
      "ays": 557,
      "au": 558,
      "ign": 559,
      "so": 560,
      "per": 561,
      "ary": 562,
      "ip": 563,
      "ere": 564,
      "Ġyear": 565,
      "ew": 566,
      "Ġlike": 567,
      "Ġinc": 568,
      "ace": 569,
      "Ġev": 570,
      "ont": 571,
      "ook": 572,
      "Ġpe": 573,
      "Ġman": 574,
      "Ġres": 575,
      "ry": 576,
      "ose": 577,
      "Ġper": 578,
      "ĠIn": 579,
      "Ġ0": 580,
      "ks": 581,
      "able": 582,
      "Ġsp": 583,
      "ite": 584,
      "ass": 585,
      "ord": 586,
      "ations": 587,
      "Ġother": 588,
      "ire": 589,
      "Ġ201": 590,
      "Ġsome": 591,
      "mer": 592,
      "ib": 593,
      "ile": 594,
      "ence": 595,
      "Ġ3": 596,
      "Ġdis": 597,
      "Ġover": 598,
      "ical": 599,
      "ens": 600,
      "Ġnew": 601,
      "Ġar": 602,
      "ress": 603,
      "ople": 604,
      "Ġalso": 605,
      "Ġbec": 606,
      "Ġthan": 607,
      "own": 608,
      "ĠY": 609,
      "Ġthem": 610,
      "44": 611,
      "ru": 612,
      "Ġapp": 613,
      "ough": 614,
      "ance": 615,
      "av": 616,
      "Ġyour": 617,
      "Ġwhen": 618,
      "Ġwhat": 619,
      "Ġsc": 620,
      "ĠCh": 621,
      "ond": 622,
      "ail": 623,
      "orm": 624,
      "fter": 625,
      "Ġqu": 626,
      "ree": 627,
      "ase": 628,
      "Ġjust": 629,
      "Ġpeople": 630,
      "Ġany": 631,
      "ach": 632,
      "ĠV": 633,
      "Ġkn": 634,
      "Ġpart": 635,
      "Ġtime": 636,
      "Ġher": 637,
      "ount": 638,
      "Ġif": 639,
      "Ġrec": 640,
      "Ġmy": 641,
      "reat": 642,
      "Ġget": 643,
      "lic": 644,
      "ian": 645,
      "Ġthere": 646,
      "ors": 647,
      "ons": 648,
      "Ġno": 649,
      "Ġwork": 650,
      "ings": 651,
      "Ġtw": 652,
      "Ġinto": 653,
      "oin": 654,
      "ound": 655,
      "irst": 656,
      "vel": 657,
      "ction": 658,
      "du": 659,
      "ult": 660,
      "ory": 661,
      "Ġour": 662,
      "ident": 663,
      "ob": 664,
      "ick": 665,
      "ition": 666,
      "ates": 667,
      "port": 668,
      "Ġ19": 669,
      "Ġplay": 670,
      "0000000000001": 671,
      "Ġpre": 672,
      "ove": 673,
      "ang": 674,
      "wn": 675,
      "ink": 676,
      "ause": 677,
      "ade": 678,
      "ish": 679,
      "Ġro": 680,
      "Ġshe": 681,
      "vers": 682,
      "Ġpol": 683,
      "ark": 684,
      "amp": 685,
      "ell": 686,
      "itt": 687,
      "Ġafter": 688,
      "Ġfirst": 689,
      "Ġcould": 690,
      "Ġhow": 691,
      "Ġacc": 692,
      "ious": 693,
      "Ġhim": 694,
      "00000000000000": 695,
      "nder": 696,
      "oll": 697,
      "aw": 698,
      "644": 699,
      "ild": 700,
      "Ġonly": 701,
      "ec": 702,
      "ustar": 703,
      "Ġ00000000000000": 704,
      "Ġatt": 705,
      "ĠHe": 706,
      "txt": 707,
      "hed": 708,
      "Ġpr": 709,
      "ov": 710,
      "0000644": 711,
      "000064400000000": 712,
      "ys": 713,
      "Ġspe": 714,
      "Ġcomm": 715,
      "Ġbl": 716,
      "hing": 717,
      "Ġ4": 718,
      "Ġact": 719,
      "Ġser": 720,
      "form": 721,
      "ict": 722,
      "ĠIt": 723,
      "ces": 724,
      "Ġdec": 725,
      "Ġbet": 726,
      "ne": 727,
      "Ġback": 728,
      "Ġ5": 729,
      "Ġtwo": 730,
      "ning": 731,
      "Ġmost": 732,
      "ft": 733,
      "ood": 734,
      "Ġam": 735,
      "Ġfe": 736,
      "Ġdid": 737,
      "iff": 738,
      "Ġagain": 739,
      "ater": 740,
      "round": 741,
      "rough": 742,
      "Ġyears": 743,
      "ments": 744,
      "Ġdes": 745,
      "ents": 746,
      "Ġunder": 747,
      "ual": 748,
      "Ġcons": 749,
      "Ġbecause": 750,
      "Ġnow": 751,
      "ull": 752,
      "old": 753,
      "ise": 754,
      "rit": 755,
      "sel": 756,
      "..": 757,
      "lud": 758,
      "Ġsee": 759,
      "Ġeven": 760,
      "ck": 761,
      "Ġneed": 762,
      "ublic": 763,
      "tern": 764,
      "iss": 765,
      "we": 766,
      "Ġinv": 767,
      "te": 768,
      "Ġknow": 769,
      "Ġem": 770,
      "Ġind": 771,
      "ced": 772,
      "Ġadd": 773,
      "ĠWe": 774,
      "les": 775,
      "Ġsec": 776,
      "oy": 777,
      "Ġevery": 778,
      "urn": 779,
      "fore": 780,
      "Ġco": 781,
      "Ġsupp": 782,
      "Ġmake": 783,
      "ĠUn": 784,
      "man": 785,
      "uch": 786,
      "pect": 787,
      "Ġthese": 788,
      "day": 789,
      "ĠAnd": 790,
      "Ġwhere": 791,
      "ock": 792,
      "ject": 793,
      "oun": 794,
      "vern": 795,
      "ational": 796,
      "ĠBut": 797,
      "Ġbu": 798,
      "Ġlook": 799,
      "Ġwant": 800,
      "oss": 801,
      "ating": 802,
      "Ġway": 803,
      "Ġwell": 804,
      "Ġrem": 805,
      "ĠThis": 806,
      "ĠWh": 807,
      "Ġinclud": 808,
      "Ġmay": 809,
      "Ġbeing": 810,
      "ump": 811,
      "000064400000000000000000000": 812,
      "Ġdef": 813,
      "row": 814,
      "Ġthen": 815,
      "Ġmany": 816,
      "ily": 817,
      "lect": 818,
      "Ġrel": 819,
      "ĠTr": 820,
      "Ġdiff": 821,
      "Ġcall": 822,
      "Ġimp": 823,
      "iew": 824,
      "Ġthink": 825,
      "ied": 826,
      "In": 827,
      "ased": 828,
      "Ġreg": 829,
      "meric": 830,
      "ason": 831,
      "aking": 832,
      "Ġ200": 833,
      "Ġfl": 834,
      "Ġvery": 835,
      "ath": 836,
      "Ġthrough": 837,
      "als": 838,
      "Ġshould": 839,
      "Ġpres": 840,
      "ited": 841,
      "ren": 842,
      "Ġsy": 843,
      "Ġsay": 844,
      "rib": 845,
      "Ġthose": 846,
      "Ġlast": 847,
      "uring": 848,
      "ters": 849,
      "Ġmuch": 850,
      "Ġshow": 851,
      "ran": 852,
      "Ġ6": 853,
      "ting": 854,
      "ities": 855,
      "oth": 856,
      "ific": 857,
      "arg": 858,
      "other": 859,
      "ss": 860,
      "ef": 861,
      "ower": 862,
      "ative": 863,
      "hen": 864,
      "ics": 865,
      "00000000000015": 866,
      "Ġph": 867,
      "ved": 868,
      "ues": 869,
      "Ġass": 870,
      "Ġdown": 871,
      "Ġdoes": 872,
      "arly": 873,
      "Ġend": 874,
      "Ġbel": 875,
      "Ġown": 876,
      "ty": 877,
      "Ġuse": 878,
      "ĠAmeric": 879,
      "und": 880,
      "Ġdont": 881,
      "Ġlong": 882,
      "Ġbefore": 883,
      "Ġbr": 884,
      "ward": 885,
      "Ġcount": 886,
      "Ġgovern": 887,
      "Ġstate": 888,
      "Ġmon": 889,
      "omet": 890,
      "ince": 891,
      "Ġke": 892,
      "ĠNew": 893,
      "ible": 894,
      "Th": 895,
      "Ġfin": 896,
      "gr": 897,
      "02": 898,
      "Ġteam": 899,
      "up": 900,
      "ats": 901,
      "Ġmade": 902,
      "Ġsuch": 903,
      "ee": 904,
      "ms": 905,
      "olog": 906,
      "ble": 907,
      "Ġsm": 908,
      "ets": 909,
      "ists": 910,
      "ener": 911,
      "Ġgood": 912,
      "000": 913,
      "Ġrep": 914,
      "ton": 915,
      "Ġgoing": 916,
      "Ġhel": 917,
      "Ġworld": 918,
      "ars": 919,
      "ility": 920,
      "its": 921,
      "Ġac": 922,
      "Ġstud": 923,
      "ix": 924,
      "ually": 925,
      "ife": 926,
      "Ġsub": 927,
      "Ġpoin": 928,
      "Ġsur": 929,
      "tain": 930,
      "Ġagainst": 931,
      "Ġeff": 932,
      "ven": 933,
      "Ġwee": 934,
      "Ġstart": 935,
      "ĠIm": 936,
      "erson": 937,
      "ng": 938,
      "ful": 939,
      "Ġent": 940,
      "Ġmin": 941,
      "stem": 942,
      "Ġ7": 943,
      "Ġstill": 944,
      "gan": 945,
      "Ġwhile": 946,
      "ool": 947,
      "Ġhelp": 948,
      "Ġgame": 949,
      "Ġlead": 950,
      "Ġright": 951,
      "Ġob": 952,
      "ier": 953,
      "Ġgu": 954,
      "roup": 955,
      "ork": 956,
      "Ġprodu": 957,
      "illion": 958,
      "ween": 959,
      "ving": 960,
      "ism": 961,
      "imes": 962,
      "ax": 963,
      "Ġinst": 964,
      "ames": 965,
      "03": 966,
      "Ġinter": 967,
      "Ġconf": 968,
      "ands": 969,
      "alk": 970,
      "Ġsim": 971,
      "Ġsays": 972,
      "ange": 973,
      "Ġthough": 974,
      "hes": 975,
      "Ġcol": 976,
      "Ġtake": 977,
      "Ġset": 978,
      "ures": 979,
      "ĠRe": 980,
      "Ġgr": 981,
      "uss": 982,
      "self": 983,
      "Ġdisc": 984,
      "cy": 985,
      "Ġbetween": 986,
      "Ġoffic": 987,
      "Ġop": 988,
      "Ġdiffere": 989,
      "Ġprov": 990,
      "ollow": 991,
      "Ġsign": 992,
      "ah": 993,
      "Ġed": 994,
      "ever": 995,
      "arch": 996,
      "cess": 997,
      "Ġcr": 998,
      "Ġnum": 999,
      "Ġlaw": 1000,
      "ution": 1001,
      "io": 1002,
      "led": 1003,
      "ĠYou": 1004,
      "Ġstr": 1005,
      "Ġref": 1006,
      "read": 1007,
      "Ġhigh": 1008,
      "air": 1009,
      "gg": 1010,
      "Ġter": 1011,
      "Ġsomet": 1012,
      "Ġsame": 1013,
      "hip": 1014,
      "Ġins": 1015,
      "Ġtrans": 1016,
      "Ġ8": 1017,
      "atch": 1018,
      "Ġexp": 1019,
      "ĠAl": 1020,
      "way": 1021,
      "velop": 1022,
      "ner": 1023,
      "ives": 1024,
      "ĠAr": 1025,
      "Ġreal": 1026,
      "cent": 1027,
      "Ġfound": 1028,
      "Ġrun": 1029,
      "ĠThey": 1030,
      "Ġaround": 1031,
      "Ġmed": 1032,
      "Ġmem": 1033,
      "Ġreport": 1034,
      "Ġ10": 1035,
      "ather": 1036,
      "lin": 1037,
      "Ġused": 1038,
      "Ġmod": 1039,
      "Ġsystem": 1040,
      "ave": 1041,
      "ves": 1042,
      "Ġreally": 1043,
      "az": 1044,
      "ouse": 1045,
      "oot": 1046,
      "Ġspec": 1047,
      "Ġgovernment": 1048,
      "Ġcour": 1049,
      "Ġret": 1050,
      "Ġ9": 1051,
      "Ġgroup": 1052,
      "Ġpublic": 1053,
      "Ġsl": 1054,
      "ying": 1055,
      "ĠIs": 1056,
      "Ġhere": 1057,
      "Ġgreat": 1058,
      "Ġcompan": 1059,
      "ins": 1060,
      "cer": 1061,
      "ĠCom": 1062,
      "Ġext": 1063,
      "05": 1064,
      "Ġthree": 1065,
      "ci": 1066,
      "Ġcur": 1067,
      "04": 1068,
      "orts": 1069,
      "ĠAs": 1070,
      "Ġcar": 1071,
      "ense": 1072,
      "ale": 1073,
      "Ġfam": 1074,
      "Ġboth": 1075,
      "Ġwom": 1076,
      "con": 1077,
      "Ġexper": 1078,
      "com": 1079,
      "irect": 1080,
      "Ġcap": 1081,
      "cept": 1082,
      "ĠSh": 1083,
      "Ġhapp": 1084,
      "Ġread": 1085,
      "ĠTrump": 1086,
      "ices": 1087,
      "11": 1088,
      "Ġfind": 1089,
      "alth": 1090,
      "ĠIf": 1091,
      "Ġdet": 1092,
      "ph": 1093,
      "ular": 1094,
      "ĠIts": 1095,
      "Ġsupport": 1096,
      "oh": 1097,
      "uth": 1098,
      "Ġday": 1099,
      "ted": 1100,
      "Ġduring": 1101,
      "Ġcre": 1102,
      "ric": 1103,
      "Ġbig": 1104,
      "akes": 1105,
      "Ġdevelop": 1106,
      "ank": 1107,
      "Ġsoc": 1108,
      "ĠLe": 1109,
      "ered": 1110,
      "Ġsince": 1111,
      "min": 1112,
      "Ġmonth": 1113,
      "Ġiss": 1114,
      "ivers": 1115,
      "Ġfollow": 1116,
      "Ġtold": 1117,
      "land": 1118,
      "Ġwar": 1119,
      "ision": 1120,
      "Ġplan": 1121,
      "ared": 1122,
      "pr": 1123,
      "ages": 1124,
      "Ġleg": 1125,
      "Ġpolit": 1126,
      "Ġbo": 1127,
      "Ġfew": 1128,
      "06": 1129,
      "ically": 1130,
      "Ġcent": 1131,
      "Ġperson": 1132,
      "ording": 1133,
      "vent": 1134,
      "Ġ.": 1135,
      "Ġexpl": 1136,
      "med": 1137,
      "aj": 1138,
      "att": 1139,
      "Ġfact": 1140,
      "ash": 1141,
      "07": 1142,
      "Ġgener": 1143,
      "bers": 1144,
      "Ġtoo": 1145,
      "Ġopp": 1146,
      "Ġfr": 1147,
      "Ġbelie": 1148,
      "Ġlot": 1149,
      "Ġprot": 1150,
      "Ġcontin": 1151,
      "get": 1152,
      "Ġrequ": 1153,
      "Ġweek": 1154,
      "Ġcle": 1155,
      "Ġfil": 1156,
      "iet": 1157,
      "Ġinf": 1158,
      "Ġcor": 1159,
      "Ġresp": 1160,
      "Ġput": 1161,
      "der": 1162,
      "ized": 1163,
      "Ġanother": 1164,
      "Ġche": 1165,
      "Ġsomething": 1166,
      "ness": 1167,
      "ĠDe": 1168,
      "Ġloc": 1169,
      "rent": 1170,
      "chool": 1171,
      "Ġdifferent": 1172,
      "uc": 1173,
      "ines": 1174,
      "Ġart": 1175,
      "ĠFor": 1176,
      "12": 1177,
      "ata": 1178,
      "Ġchar": 1179,
      "Ġcommun": 1180,
      "Ġinvest": 1181,
      "Ġhead": 1182,
      "Ġpower": 1183,
      "Ġpass": 1184,
      "Ġmet": 1185,
      "ights": 1186,
      "ute": 1187,
      "Ġfar": 1188,
      "Ġposs": 1189,
      "Ġrele": 1190,
      "Ġthings": 1191,
      "ex": 1192,
      "Ġvot": 1193,
      "ience": 1194,
      "47": 1195,
      "ik": 1196,
      "ned": 1197,
      "Ġdep": 1198,
      "els": 1199,
      "erest": 1200,
      "Ġask": 1201,
      "Ġcamp": 1202,
      "thing": 1203,
      "arl": 1204,
      "Ġeach": 1205,
      "Ġnever": 1206,
      "Ġsecond": 1207,
      "ross": 1208,
      "Ġnext": 1209,
      "Ġmight": 1210,
      "Ġmark": 1211,
      "Ġdem": 1212,
      "Ġgot": 1213,
      "Ġchild": 1214,
      "Ġbus": 1215,
      "ĠUS": 1216,
      "ield": 1217,
      "view": 1218,
      "Ġlife": 1219,
      "Ġbest": 1220,
      "ize": 1221,
      "iness": 1222,
      "Ġcome": 1223,
      "ĠPro": 1224,
      "ody": 1225,
      "ient": 1226,
      "Ġquest": 1227,
      "be": 1228,
      "Ġallow": 1229,
      "Ġopen": 1230,
      "ital": 1231,
      "ittle": 1232,
      "Ġseem": 1233,
      "Ġpost": 1234,
      "Ġpri": 1235,
      "Ġincluding": 1236,
      "nce": 1237,
      "ret": 1238,
      "ĠAn": 1239,
      "Ġwr": 1240,
      "Ġdirect": 1241,
      "Ġpercent": 1242,
      "Ġdist": 1243,
      "ĠRep": 1244,
      "ĠBl": 1245,
      "Ġincre": 1246,
      "Ġhome": 1247,
      "orn": 1248,
      "gram": 1249,
      "Ġcontro": 1250,
      "ired": 1251,
      "ten": 1252,
      "Ġhand": 1253,
      "15": 1254,
      "Ġcomple": 1255,
      "Ġhard": 1256,
      "ug": 1257,
      "osed": 1258,
      "Ġhum": 1259,
      "Ġcare": 1260,
      "Ġwithout": 1261,
      "conom": 1262,
      "Ġav": 1263,
      "chn": 1264,
      "erv": 1265,
      "ately": 1266,
      "Ġplace": 1267,
      "ple": 1268,
      "Ġgl": 1269,
      "Ġinform": 1270,
      "Ġproble": 1271,
      "ants": 1272,
      "Ġ12": 1273,
      "Ġide": 1274,
      "Ġmillion": 1275,
      "less": 1276,
      "Ġbuild": 1277,
      "ling": 1278,
      "Ġadv": 1279,
      "Ġnumber": 1280,
      "Ġcountry": 1281,
      "Ġimport": 1282,
      "Ġpartic": 1283,
      "gy": 1284,
      "13": 1285,
      "Ġtop": 1286,
      "Ġfour": 1287,
      "aim": 1288,
      "Ġel": 1289,
      "ral": 1290,
      "ished": 1291,
      "ably": 1292,
      "Ġbetter": 1293,
      "oney": 1294,
      "riend": 1295,
      "ways": 1296,
      "uro": 1297,
      "Wh": 1298,
      "ains": 1299,
      "Ġtri": 1300,
      "Ġrecent": 1301,
      "Ġturn": 1302,
      "Ġmov": 1303,
      "Ġinterest": 1304,
      "Ġlittle": 1305,
      "Ġappro": 1306,
      "ĠZ": 1307,
      "dd": 1308,
      "Ġless": 1309,
      "Ġbeh": 1310,
      "Ġcalled": 1311,
      "Ġbro": 1312,
      "ead": 1313,
      "Ġmil": 1314,
      "eb": 1315,
      "Ġpoint": 1316,
      "This": 1317,
      "Ġleft": 1318,
      "ĠInd": 1319,
      "Ġcase": 1320,
      "Ġattack": 1321,
      "Ġpop": 1322,
      "ised": 1323,
      "Ġdr": 1324,
      "Ġseason": 1325,
      "Ġrest": 1326,
      "Ġmove": 1327,
      "line": 1328,
      "Ġfull": 1329,
      "Ġkeep": 1330,
      "ĠSo": 1331,
      "Ġann": 1332,
      "ocr": 1333,
      "Ġdidnt": 1334,
      "Ġfun": 1335,
      "09": 1336,
      "16": 1337,
      "anc": 1338,
      "Ġmain": 1339,
      "ering": 1340,
      "Ġusing": 1341,
      "ration": 1342,
      "25": 1343,
      "Ġserv": 1344,
      "Ġval": 1345,
      "ajor": 1346,
      "Ġeffect": 1347,
      "Ġpay": 1348,
      "leg": 1349,
      "af": 1350,
      "46": 1351,
      "inal": 1352,
      "Ġ18": 1353,
      "ency": 1354,
      "ĠAt": 1355,
      "Ġfeel": 1356,
      "Ġprogram": 1357,
      "17": 1358,
      "Ġeconom": 1359,
      "Ġform": 1360,
      "ards": 1361,
      "ĠPh": 1362,
      "08": 1363,
      "app": 1364,
      "ĠSp": 1365,
      "Ġpos": 1366,
      "ĠAmerican": 1367,
      "ature": 1368,
      "Ġnews": 1369,
      "vious": 1370,
      "Ġwin": 1371,
      "cl": 1372,
      "ode": 1373,
      "Ġpolice": 1374,
      "atic": 1375,
      "Ġ15": 1376,
      "Ġlevel": 1377,
      "ians": 1378,
      "rem": 1379,
      "Ġsmall": 1380,
      "Ġlist": 1381,
      "ĠHow": 1382,
      "ional": 1383,
      "Ġdata": 1384,
      "45": 1385,
      "iving": 1386,
      "Ġeas": 1387,
      "ided": 1388,
      "Ġstand": 1389,
      "ready": 1390,
      "Ġschool": 1391,
      "Ġprocess": 1392,
      "uck": 1393,
      "Ġchange": 1394,
      "ology": 1395,
      "Ġprom": 1396,
      "Ġhist": 1397,
      "ird": 1398,
      "Ġ,": 1399,
      "ĠQ": 1400,
      "Ġty": 1401,
      "arge": 1402,
      "Ġdri": 1403,
      "Ġrece": 1404,
      "ger": 1405,
      "Ġcurrent": 1406,
      "Ġunt": 1407,
      "ploy": 1408,
      "Ġpresident": 1409,
      "ama": 1410,
      "But": 1411,
      "ĠOb": 1412,
      "Ġpar": 1413,
      "used": 1414,
      "reen": 1415,
      "ract": 1416,
      "Ġwhy": 1417,
      "Ġalready": 1418,
      "Ġbre": 1419,
      "ĠUnited": 1420,
      "22": 1421,
      "ohn": 1422,
      "orth": 1423,
      "As": 1424,
      "99": 1425,
      "ruct": 1426,
      "Ġlater": 1427,
      "Ġsol": 1428,
      "Ġlet": 1429,
      "Ġtechn": 1430,
      "Ġexpect": 1431,
      "ĠThere": 1432,
      "Ġmat": 1433,
      "Ġofficial": 1434,
      "Ġthats": 1435,
      "Ġalways": 1436,
      "Ġbusiness": 1437,
      "?\"": 1438,
      "Ġmoney": 1439,
      "Ġprof": 1440,
      "iver": 1441,
      "Ġclass": 1442,
      "Ġproject": 1443,
      "Ġbook": 1444,
      "Ġjob": 1445,
      "aff": 1446,
      "rap": 1447,
      "Ġtalk": 1448,
      "ases": 1449,
      "We": 1450,
      "son": 1451,
      "Ġi": 1452,
      "aign": 1453,
      "Ġorgan": 1454,
      "ĠCan": 1455,
      "Ġclaim": 1456,
      "Ġthing": 1457,
      "ĠChr": 1458,
      "Ġdesign": 1459,
      "Ġhealth": 1460,
      "ina": 1461,
      "iversity": 1462,
      "Ġmajor": 1463,
      "Ġchang": 1464,
      "urs": 1465,
      "ention": 1466,
      "Ġstory": 1467,
      "ĠShe": 1468,
      "Ġable": 1469,
      "Ġrese": 1470,
      "Ġinformation": 1471,
      "ertain": 1472,
      "iven": 1473,
      "here": 1474,
      "Ġpast": 1475,
      "Ġvis": 1476,
      "Ġele": 1477,
      "33": 1478,
      "Ġmust": 1479,
      "Ġ20": 1480,
      "Ġcity": 1481,
      "Ġfac": 1482,
      "Ġoper": 1483,
      "Ġaway": 1484,
      "Ġfree": 1485,
      "Ġkill": 1486,
      "Ġsk": 1487,
      "Ġimportant": 1488,
      "ĠGo": 1489,
      "ator": 1490,
      "ides": 1491,
      "Ġold": 1492,
      "wit": 1493,
      "ample": 1494,
      "ural": 1495,
      "It": 1496,
      "Ġpat": 1497,
      "ured": 1498,
      "ior": 1499,
      "Ġdoesnt": 1500,
      "Ġhappen": 1501,
      "ott": 1502,
      "ox": 1503,
      "outh": 1504,
      "Ġgrow": 1505,
      "Ġcost": 1506,
      "Ġest": 1507,
      "Ġleast": 1508,
      "Ġdays": 1509,
      "ained": 1510,
      "Ġhop": 1511,
      "Ġtest": 1512,
      "Ġvar": 1513,
      "ider": 1514,
      "Ġtell": 1515,
      "ending": 1516,
      "...": 1517,
      "ĠBe": 1518,
      "Ġwomen": 1519,
      "stand": 1520,
      "urity": 1521,
      "acy": 1522,
      "Ġcame": 1523,
      "Ġedit": 1524,
      "uthor": 1525,
      "Ġconst": 1526,
      "Ġaff": 1527,
      "ury": 1528,
      "Ġcampaign": 1529,
      "ission": 1530,
      "ĠMar": 1531,
      "Ġsit": 1532,
      "Ġenough": 1533,
      "ron": 1534,
      "Ġmaking": 1535,
      "Ġmar": 1536,
      "Ġfriend": 1537,
      "Ġview": 1538,
      "ption": 1539,
      "resident": 1540,
      "Ġrecord": 1541,
      "ccess": 1542,
      "Ġelect": 1543,
      "Ġkind": 1544,
      "ern": 1545,
      "Ġfamily": 1546,
      "35": 1547,
      "Ġtax": 1548,
      "Ġpolitical": 1549,
      "Ġpolic": 1550,
      "ĠCl": 1551,
      "Ġgames": 1552,
      "ived": 1553,
      "ĠComm": 1554,
      "Ġes": 1555,
      "eral": 1556,
      "oad": 1557,
      "rid": 1558,
      "ĠJohn": 1559,
      "Ġuntil": 1560,
      "Ġvide": 1561,
      "Ġcompany": 1562,
      "ĠSc": 1563,
      "Ġpo": 1564,
      "pped": 1565,
      "ush": 1566,
      "26": 1567,
      "Ġworking": 1568,
      "14": 1569,
      "ising": 1570,
      "ified": 1571,
      "bs": 1572,
      "ĠAll": 1573,
      "Ġve": 1574,
      "int": 1575,
      "ries": 1576,
      "Ġdeb": 1577,
      "Ġdeal": 1578,
      "ality": 1579,
      "Ġmen": 1580,
      "Ġfore": 1581,
      "Ġlarge": 1582,
      "ĠRepublic": 1583,
      "alf": 1584,
      "ror": 1585,
      "Ġtook": 1586,
      "augh": 1587,
      "aps": 1588,
      "Ġintern": 1589,
      "19": 1590,
      "ĠPl": 1591,
      "27": 1592,
      "Ġline": 1593,
      "ued": 1594,
      "ream": 1595,
      "Ġyoure": 1596,
      "ĠMan": 1597,
      "ĠThat": 1598,
      "Ġdel": 1599,
      "He": 1600,
      "Ġmean": 1601,
      "Ġactually": 1602,
      "aining": 1603,
      "Ġbecome": 1604,
      "side": 1605,
      "Ġair": 1606,
      "Ġformer": 1607,
      "18": 1608,
      "ones": 1609,
      "Ġoften": 1610,
      "Ġhuman": 1611,
      "iol": 1612,
      "ĠEuro": 1613,
      "crib": 1614,
      "Ġfund": 1615,
      "Ġaccording": 1616,
      "ember": 1617,
      "ĠRuss": 1618,
      "iqu": 1619,
      "eng": 1620,
      "Ġgive": 1621,
      "ĠDem": 1622,
      "Ġword": 1623,
      "ĠNo": 1624,
      "Ġbas": 1625,
      "Ġever": 1626,
      "ney": 1627,
      "Ġdev": 1628,
      "Ġreturn": 1629,
      "Ġname": 1630,
      "ley": 1631,
      "ware": 1632,
      "Ġtimes": 1633,
      "aring": 1634,
      "Ġplayers": 1635,
      "ister": 1636,
      "Ġbit": 1637,
      "ony": 1638,
      "gin": 1639,
      "Ġorder": 1640,
      "Ġsever": 1641,
      "ĠSy": 1642,
      "ĠMc": 1643,
      "36": 1644,
      "arn": 1645,
      "St": 1646,
      "ER": 1647,
      "let": 1648,
      "iber": 1649,
      "ither": 1650,
      "Ġant": 1651,
      "Ġperform": 1652,
      "ĠMay": 1653,
      "year": 1654,
      "Ġcant": 1655,
      "uture": 1656,
      "ison": 1657,
      "Ġcharac": 1658,
      "Ġmarket": 1659,
      "Ġdoing": 1660,
      "ization": 1661,
      "Ġsocial": 1662,
      "ĠCon": 1663,
      "37": 1664,
      "Ġsing": 1665,
      "Ġappear": 1666,
      "Ġra": 1667,
      "ots": 1668,
      "ched": 1669,
      "by": 1670,
      "iam": 1671,
      "Ġcrit": 1672,
      "Ġearly": 1673,
      "aken": 1674,
      "most": 1675,
      "idd": 1676,
      "Ġhaving": 1677,
      "icle": 1678,
      "ĠPresident": 1679,
      "Ġseen": 1680,
      "Ġwhether": 1681,
      "Ġla": 1682,
      "ĠWhen": 1683,
      "ĠSe": 1684,
      "mber": 1685,
      "Ġseveral": 1686,
      "Ġpot": 1687,
      "ĠOr": 1688,
      "rop": 1689,
      "Ġmilit": 1690,
      "Ġcontrol": 1691,
      "Ġevent": 1692,
      "Ġprop": 1693,
      "work": 1694,
      "Ġchildren": 1695,
      "ĠStates": 1696,
      "Ġpress": 1697,
      "Ġequ": 1698,
      "Ġsure": 1699,
      "ium": 1700,
      "ĠCol": 1701,
      "Ġlikely": 1702,
      "Ġ199": 1703,
      "Ġmeet": 1704,
      "idence": 1705,
      "Ġwent": 1706,
      "Ġocc": 1707,
      "Ġmedia": 1708,
      "enn": 1709,
      "Ġquestion": 1710,
      "Ġyoung": 1711,
      "ories": 1712,
      "Ġmembers": 1713,
      "ĠMr": 1714,
      "Ġcertain": 1715,
      "Ġeng": 1716,
      "ĠOn": 1717,
      "ially": 1718,
      "Ġmonths": 1719,
      "ortun": 1720,
      "ene": 1721,
      "Ġwater": 1722,
      "0000644000000000000000000001": 1723,
      "Ġexample": 1724,
      "Ġfive": 1725,
      "Ġdone": 1726,
      "Ġsuccess": 1727,
      "Ġarg": 1728,
      "Ġvers": 1729,
      "Ġalong": 1730,
      "Ġinvol": 1731,
      "ended": 1732,
      "ann": 1733,
      "vert": 1734,
      "fe": 1735,
      "Ġhour": 1736,
      "Ġwithin": 1737,
      "ential": 1738,
      "urch": 1739,
      "Ġside": 1740,
      "Ġcourse": 1741,
      "Ġonce": 1742,
      "ĠAd": 1743,
      "Ġamong": 1744,
      "ane": 1745,
      "imate": 1746,
      "Ġactiv": 1747,
      "Ġsex": 1748,
      "raft": 1749,
      "ĠYork": 1750,
      "Ġpriv": 1751,
      "Ġresult": 1752,
      "ulation": 1753,
      "Ġcho": 1754,
      "Ġfuture": 1755,
      "Ġpossible": 1756,
      "rew": 1757,
      "artment": 1758,
      "Ġconcer": 1759,
      "Ġshort": 1760,
      "lf": 1761,
      "ĠEurope": 1762,
      "Ġinvestig": 1763,
      "une": 1764,
      "Ġmeans": 1765,
      "Ġknown": 1766,
      "Ġproduct": 1767,
      "nect": 1768,
      "iting": 1769,
      "Ġprotect": 1770,
      "Ġhes": 1771,
      "Ġproblem": 1772,
      "Ġviol": 1773,
      "ball": 1774,
      "Ġthought": 1775,
      "Ġavail": 1776,
      ".,": 1777,
      "Ġ16": 1778,
      "uff": 1779,
      "ivid": 1780,
      "Ġyet": 1781,
      "Ġfail": 1782,
      "Ġlocal": 1783,
      "ourn": 1784,
      "ster": 1785,
      "Ġreason": 1786,
      "itive": 1787,
      "Ġhold": 1788,
      "Ġwrit": 1789,
      "Ġorig": 1790,
      "ators": 1791,
      "Ġnight": 1792,
      "Ġothers": 1793,
      "ĠTe": 1794,
      "Ġauthor": 1795,
      "gress": 1796,
      "ĠAm": 1797,
      "ald": 1798,
      "Ġmakes": 1799,
      "oci": 1800,
      "Ġcommunity": 1801,
      "Ġprob": 1802,
      "Ġsugg": 1803,
      "Ġacross": 1804,
      "Ġ2016": 1805,
      "Ġ30": 1806,
      "Ġstrong": 1807,
      "por": 1808,
      "Ġasked": 1809,
      "Ġ11": 1810,
      "75": 1811,
      "ubl": 1812,
      "Ġgiven": 1813,
      "Ġhig": 1814,
      "arm": 1815,
      "ĠDemocr": 1816,
      "ague": 1817,
      "Ġmus": 1818,
      "verage": 1819,
      "ests": 1820,
      "aged": 1821,
      "itions": 1822,
      "Ġ25": 1823,
      "Ġreported": 1824,
      "ensive": 1825,
      "ĠX": 1826,
      "Ġbelieve": 1827,
      "isc": 1828,
      "32": 1829,
      "ederal": 1830,
      "Ġunderstand": 1831,
      "ĠChrist": 1832,
      "ĠState": 1833,
      "Ġgetting": 1834,
      "Ġben": 1835,
      "Ġcut": 1836,
      "orld": 1837,
      "ober": 1838,
      "Ġannoun": 1839,
      "Ġident": 1840,
      "If": 1841,
      "hers": 1842,
      "Ġlim": 1843,
      "Ġvideo": 1844,
      "ĠHouse": 1845,
      "ler": 1846,
      "Ġfight": 1847,
      "Ġcreat": 1848,
      "Ġsent": 1849,
      "Ġsour": 1850,
      "ored": 1851,
      "Ġcond": 1852,
      "Ġtoday": 1853,
      "iron": 1854,
      "ert": 1855,
      "ĠUniversity": 1856,
      "ĠMin": 1857,
      "urther": 1858,
      "ults": 1859,
      "Ġnational": 1860,
      "Ġ2015": 1861,
      "Ġlow": 1862,
      "ances": 1863,
      "Ġnet": 1864,
      "ĠBr": 1865,
      "Ġbased": 1866,
      "Ġclose": 1867,
      "Ġstarted": 1868,
      "ashing": 1869,
      "Ġavailable": 1870,
      "Ġdeath": 1871,
      "Ġindust": 1872,
      "utes": 1873,
      "ĠWhat": 1874,
      "back": 1875,
      "reed": 1876,
      "Ġlove": 1877,
      "rest": 1878,
      "Ġhistory": 1879,
      "Ġalmost": 1880,
      "Ġissue": 1881,
      "iety": 1882,
      "88": 1883,
      "reet": 1884,
      "ĠCent": 1885,
      "Ġfollowing": 1886,
      "Ġmom": 1887,
      "Ġseries": 1888,
      "Ġ100": 1889,
      "ĠOne": 1890,
      "65": 1891,
      "resent": 1892,
      "ĠTo": 1893,
      "Ġtrying": 1894,
      "selves": 1895,
      "Ġago": 1896,
      "Ġca": 1897,
      "uly": 1898,
      "Ġnon": 1899,
      "Ġtoget": 1900,
      "Ġcomes": 1901,
      "Ġtogether": 1902,
      "ĠSen": 1903,
      "book": 1904,
      "AT": 1905,
      "Ġfoc": 1906,
      "arr": 1907,
      "Ġ2014": 1908,
      "Ġaccess": 1909,
      "ows": 1910,
      "ability": 1911,
      "use": 1912,
      "Ġidea": 1913,
      "Ġimpro": 1914,
      "Ġemploy": 1915,
      "Ġtrad": 1916,
      "Ġ13": 1917,
      "for": 1918,
      "Ġisnt": 1919,
      "ails": 1920,
      "Ġ14": 1921,
      "ĠEx": 1922,
      "ief": 1923,
      "ilar": 1924,
      "Ġclear": 1925,
      "ĠBro": 1926,
      "ument": 1927,
      "ĠPr": 1928,
      "Ġstates": 1929,
      "aster": 1930,
      "Ġpract": 1931,
      "ĠFl": 1932,
      "ĠCo": 1933,
      "ination": 1934,
      "Ġz": 1935,
      "Ġcomplete": 1936,
      "Ġadded": 1937,
      "itional": 1938,
      "Ġlooking": 1939,
      "ote": 1940,
      "10": 1941,
      "ged": 1942,
      "And": 1943,
      "Ġexperience": 1944,
      "Ġbad": 1945,
      "ids": 1946,
      "erence": 1947,
      "Ġanal": 1948,
      "ien": 1949,
      "Ġlive": 1950,
      "Ġmiss": 1951,
      "Ġindivid": 1952,
      "Ġcoun": 1953,
      "Ġrul": 1954,
      "Ġanything": 1955,
      "85": 1956,
      "Ġfav": 1957,
      "Ġhalf": 1958,
      "Ġ17": 1959,
      "my": 1960,
      "erman": 1961,
      "ustom": 1962,
      "24": 1963,
      "ograp": 1964,
      "Ġpresent": 1965,
      "unch": 1966,
      "ĠPol": 1967,
      "Ġsw": 1968,
      "Ġsaying": 1969,
      "Ġris": 1970,
      "osp": 1971,
      "ĠCanad": 1972,
      "Ġtheres": 1973,
      "rodu": 1974,
      "though": 1975,
      "ĠEng": 1976,
      "ĠClin": 1977,
      "Ġvict": 1978,
      "minist": 1979,
      "wards": 1980,
      "Ġsix": 1981,
      "Ġtaken": 1982,
      "Ġbill": 1983,
      "unt": 1984,
      "Ġaut": 1985,
      "Ġer": 1986,
      "34": 1987,
      "rug": 1988,
      "Ġmult": 1989,
      "ĠIve": 1990,
      "Ġarea": 1991,
      "raw": 1992,
      "yn": 1993,
      "Ġcompet": 1994,
      "Ġbehind": 1995,
      "Ġtot": 1996,
      "Ġmor": 1997,
      "ai": 1998,
      "Ġmilitary": 1999,
      "uge": 2000,
      "Ġproper": 2001,
      "ches": 2002,
      "Ġentire": 2003,
      "Ġtry": 2004,
      "Ġphot": 2005,
      "IN": 2006,
      "For": 2007,
      "Ġjoin": 2008,
      "Ġthreat": 2009,
      "ĠObama": 2010,
      "Ġblack": 2011,
      "Ġrather": 2012,
      "irc": 2013,
      "Ġindividual": 2014,
      "ales": 2015,
      "cing": 2016,
      "Ġlight": 2017,
      "par": 2018,
      "Ġfilm": 2019,
      "Ġdiscuss": 2020,
      "ĠSec": 2021,
      "Ġquick": 2022,
      "Ġsecurity": 2023,
      "67": 2024,
      "Ġpubl": 2025,
      "Ġnear": 2026,
      "over": 2027,
      "Ġmind": 2028,
      "ept": 2029,
      "empt": 2030,
      "Ġfall": 2031,
      "Ġspecial": 2032,
      "Ġprevious": 2033,
      "Ġparty": 2034,
      "aid": 2035,
      "witter": 2036,
      "Ġpret": 2037,
      "ĠAf": 2038,
      "Ġmess": 2039,
      "95": 2040,
      "cially": 2041,
      "Ġcourt": 2042,
      "ias": 2043,
      "Ġwanted": 2044,
      "Ġface": 2045,
      "Ġfood": 2046,
      "Ġstudy": 2047,
      "ĠNorth": 2048,
      "Ġsum": 2049,
      "Ġcult": 2050,
      "Ġredu": 2051,
      "Ġcolle": 2052,
      "ĠWar": 2053,
      "Ġpolicy": 2054,
      "Ġland": 2055,
      "ĠBrit": 2056,
      "Ġbring": 2057,
      "Ġcomb": 2058,
      "nes": 2059,
      "ĠNational": 2060,
      "Ġsingle": 2061,
      "Ġprobably": 2062,
      "Ġtaking": 2063,
      "Ġkey": 2064,
      "ĠDep": 2065,
      "ON": 2066,
      "ply": 2067,
      "of": 2068,
      "ĠWorld": 2069,
      "ĠIsra": 2070,
      "ined": 2071,
      "Ġnothing": 2072,
      "Ġfoot": 2073,
      "aper": 2074,
      "rote": 2075,
      "ĠCal": 2076,
      "ca": 2077,
      "aces": 2078,
      "87": 2079,
      "viron": 2080,
      "Ġbody": 2081,
      "ĠSu": 2082,
      "elt": 2083,
      "off": 2084,
      "Ġimm": 2085,
      "Ġcou": 2086,
      "de": 2087,
      "arter": 2088,
      "Ġcoming": 2089,
      "play": 2090,
      "Ġsignific": 2091,
      "olution": 2092,
      "Ġpoints": 2093,
      "icult": 2094,
      "ĠWith": 2095,
      "ĠGr": 2096,
      "ify": 2097,
      "Ġresearch": 2098,
      "Ġconnect": 2099,
      "Ġsimilar": 2100,
      "Ġcann": 2101,
      "Ġopt": 2102,
      "ĠCity": 2103,
      "Ġhowever": 2104,
      "Ġsomeone": 2105,
      "ming": 2106,
      "Ġrights": 2107,
      "Ġspace": 2108,
      "ĠAust": 2109,
      "Ġdescrib": 2110,
      "86": 2111,
      "Ġmass": 2112,
      "Ġban": 2113,
      "Ġeither": 2114,
      "Ġbenef": 2115,
      "Ġdecision": 2116,
      "Ġ2013": 2117,
      "ls": 2118,
      "Ġfront": 2119,
      "Ġfeat": 2120,
      "Ġsus": 2121,
      "Ġtarg": 2122,
      "reme": 2123,
      "On": 2124,
      "Ġplayer": 2125,
      "!\"": 2126,
      "Ġexist": 2127,
      "sy": 2128,
      "rict": 2129,
      "mb": 2130,
      "Ġwa": 2131,
      "Ġhit": 2132,
      "89": 2133,
      "Ġstop": 2134,
      "Ġfire": 2135,
      "Ġenc": 2136,
      "amed": 2137,
      "Ġcreate": 2138,
      "ully": 2139,
      "Ġhouse": 2140,
      "ring": 2141,
      "Ġfig": 2142,
      "Ġchall": 2143,
      "RE": 2144,
      "Ġfurther": 2145,
      "lish": 2146,
      "Ġfield": 2147,
      "Its": 2148,
      "Ġwrote": 2149,
      "Ġthird": 2150,
      "Ġbegin": 2151,
      "lement": 2152,
      "Ġpick": 2153,
      "ĠDav": 2154,
      "29": 2155,
      "Ġdoc": 2156,
      "Ġelse": 2157,
      "Ġrepl": 2158,
      "ung": 2159,
      "Ġsuggest": 2160,
      "oon": 2161,
      "AN": 2162,
      "Ġsuper": 2163,
      "Ġissues": 2164,
      "Ġstep": 2165,
      "Ġcompl": 2166,
      "ĠJan": 2167,
      "asing": 2168,
      "ĠHowever": 2169,
      "Ġdam": 2170,
      "Ġlarg": 2171,
      "Ġservice": 2172,
      "Ġ2012": 2173,
      "ĠGu": 2174,
      "23": 2175,
      "Ġgroups": 2176,
      "ĠApp": 2177,
      "Ġleaders": 2178,
      "Ġwhole": 2179,
      "pping": 2180,
      "Ġseems": 2181,
      "Ġtre": 2182,
      "ĠAmerica": 2183,
      "ively": 2184,
      "Ġtra": 2185,
      "Ġrelations": 2186,
      "ev": 2187,
      "Ġey": 2188,
      "Ġexec": 2189,
      "sw": 2190,
      "Ġmeas": 2191,
      "ĠWashing": 2192,
      "Ġcand": 2193,
      "Ġlab": 2194,
      "Ġeverything": 2195,
      "Ġdue": 2196,
      "Ġtheyre": 2197,
      "itted": 2198,
      "Ġinfl": 2199,
      "ĠAb": 2200,
      "ried": 2201,
      "pite": 2202,
      "ently": 2203,
      "Ġwatch": 2204,
      "ilt": 2205,
      "Ġsound": 2206,
      "ĠInst": 2207,
      "ivil": 2208,
      "Ġstudents": 2209,
      "ĠJust": 2210,
      "sh": 2211,
      "pecially": 2212,
      "ĠGe": 2213,
      "Ġfederal": 2214,
      "Ġroom": 2215,
      "Ġcustom": 2216,
      "uation": 2217,
      "Ġrole": 2218,
      "Ġstri": 2219,
      "Ġdou": 2220,
      "Ġofficials": 2221,
      "ana": 2222,
      "Ġcompanies": 2223,
      "oke": 2224,
      "ades": 2225,
      "ibility": 2226,
      "Ġshows": 2227,
      "Ġbegan": 2228,
      "An": 2229,
      "Ġstat": 2230,
      "Ġfinal": 2231,
      "arth": 2232,
      "Ġweeks": 2233,
      "Ġener": 2234,
      "Ġreleased": 2235,
      "Ġabove": 2236,
      "ĠSouth": 2237,
      "Ġposition": 2238,
      "arent": 2239,
      "Ġmatter": 2240,
      "Ġdevelopment": 2241,
      "Ġoutside": 2242,
      "aul": 2243,
      "Ġinit": 2244,
      "Ġ2017": 2245,
      "77": 2246,
      "Ġhimself": 2247,
      "IS": 2248,
      "attle": 2249,
      "Ġcop": 2250,
      "obal": 2251,
      "Ġstatement": 2252,
      "Ġaction": 2253,
      "Ġprovide": 2254,
      "Ġbreak": 2255,
      "Ġtreat": 2256,
      "ĠRes": 2257,
      "Ġrepresent": 2258,
      "ĠMy": 2259,
      "vironment": 2260,
      "inc": 2261,
      "arlier": 2262,
      "Ġtrue": 2263,
      "Ġ50": 2264,
      "head": 2265,
      "Ġhours": 2266,
      "Ġself": 2267,
      "ae": 2268,
      "bo": 2269,
      "ĠIntern": 2270,
      "Ġneg": 2271,
      "amer": 2272,
      "ĠEd": 2273,
      "Ġspecific": 2274,
      "Ġsignificant": 2275,
      "ĠAss": 2276,
      "Ġrad": 2277,
      "Ġitself": 2278,
      "There": 2279,
      "Ġcontinue": 2280,
      "ĠPart": 2281,
      "66": 2282,
      "ĠIsrael": 2283,
      "Ġgun": 2284,
      "ender": 2285,
      "Ġbecame": 2286,
      "Ġthemselves": 2287,
      "Ġaddress": 2288,
      "iod": 2289,
      "aced": 2290,
      "Ġcharacter": 2291,
      "Ġsimply": 2292,
      "Ġwasnt": 2293,
      "ĠWashington": 2294,
      "Ġlat": 2295,
      "Ġcountries": 2296,
      "Ġtyp": 2297,
      "Ġprofess": 2298,
      "ery": 2299,
      "oid": 2300,
      "Ġground": 2301,
      "ĠGerman": 2302,
      "Ġoffice": 2303,
      "ogn": 2304,
      "20": 2305,
      "ograph": 2306,
      "39": 2307,
      "Ġgeneral": 2308,
      "Ġdifficult": 2309,
      "now": 2310,
      "Ġrunning": 2311,
      "ĠNot": 2312,
      "AR": 2313,
      "30": 2314,
      "Ġevidence": 2315,
      "Ġexc": 2316,
      "eal": 2317,
      "ili": 2318,
      "lim": 2319,
      "cri": 2320,
      "Ġagree": 2321,
      "wh": 2322,
      "Ġinterview": 2323,
      "Ġdom": 2324,
      "Ġdest": 2325,
      "Ġtem": 2326,
      "Ġaccount": 2327,
      "Ġadminist": 2328,
      "ask": 2329,
      "55": 2330,
      "Ġrespons": 2331,
      "Ġdrug": 2332,
      "When": 2333,
      "angu": 2334,
      "Ġversion": 2335,
      "Ġneeds": 2336,
      "Ġcommon": 2337,
      "to": 2338,
      "Ġap": 2339,
      "Ġdeep": 2340,
      "Ġbelow": 2341,
      "ĠMed": 2342,
      "Ġplayed": 2343,
      "BC": 2344,
      "ĠThats": 2345,
      "Ġinj": 2346,
      "Ġneeded": 2347,
      "Ġfriends": 2348,
      "ĠAfter": 2349,
      "yearold": 2350,
      "acebook": 2351,
      "Ġabs": 2352,
      "ĠHis": 2353,
      "Ġpretty": 2354,
      "ĠFran": 2355,
      "Ġmusic": 2356,
      "Ġball": 2357,
      "ault": 2358,
      "Ġespecially": 2359,
      "Ġmag": 2360,
      "Ġinclude": 2361,
      "aren": 2362,
      "Ġquite": 2363,
      "Ġrelease": 2364,
      "ift": 2365,
      "Ġwhite": 2366,
      "lam": 2367,
      "Ġgen": 2368,
      "iddle": 2369,
      "ĠBar": 2370,
      "Ġsaw": 2371,
      "Ġhom": 2372,
      "ribut": 2373,
      "br": 2374,
      "ĠDo": 2375,
      "Ġlegal": 2376,
      "Ġindustry": 2377,
      "umb": 2378,
      "Ġphys": 2379,
      "Ġbuilding": 2380,
      "Ġenergy": 2381,
      "Ġplaying": 2382,
      "Ġcharg": 2383,
      "Ġanim": 2384,
      "Ġvalue": 2385,
      "atur": 2386,
      "go": 2387,
      "Ġlost": 2388,
      "Ġinstead": 2389,
      "omm": 2390,
      "Ġcandid": 2391,
      "Ġsense": 2392,
      "Ġhost": 2393,
      "sec": 2394,
      "ournal": 2395,
      "Ġalleg": 2396,
      "ĠMus": 2397,
      "onald": 2398,
      "reg": 2399,
      "Ġobject": 2400,
      "Ġmot": 2401,
      "84": 2402,
      "Ġple": 2403,
      "AS": 2404,
      "Ġteams": 2405,
      "ĠCar": 2406,
      "So": 2407,
      "Ġep": 2408,
      "Ġ24": 2409,
      "Ġred": 2410,
      "oring": 2411,
      "ĠThese": 2412,
      "osing": 2413,
      "ĠClinton": 2414,
      "ĠWhite": 2415,
      "Im": 2416,
      "ĠOct": 2417,
      "Ġbillion": 2418,
      "arc": 2419,
      "Ġtrack": 2420,
      "yle": 2421,
      "irt": 2422,
      "Ġopportun": 2423,
      "Ġforward": 2424,
      "istic": 2425,
      "ĠNews": 2426,
      "ients": 2427,
      "ĠWill": 2428,
      "Ġsuff": 2429,
      "ĠDr": 2430,
      "ns": 2431,
      "ival": 2432,
      "Ġrecently": 2433,
      "Ġlo": 2434,
      "ners": 2435,
      "You": 2436,
      "Ġserious": 2437,
      "ees": 2438,
      "Ġpain": 2439,
      "Ġeveryone": 2440,
      "Ġvote": 2441,
      "Ġlate": 2442,
      "Ġelection": 2443,
      "Ġdeter": 2444,
      "Ġshoot": 2445,
      "fer": 2446,
      "ccording": 2447,
      "Ġjud": 2448,
      "lling": 2449,
      "medi": 2450,
      "ĠWest": 2451,
      "asons": 2452,
      "hod": 2453,
      "Ġchanges": 2454,
      "ij": 2455,
      "ĠCong": 2456,
      "Ġeconomic": 2457,
      "Ġperiod": 2458,
      "ĠTwitter": 2459,
      "Ġstar": 2460,
      "Ġblock": 2461,
      "ĠPe": 2462,
      "Ġobs": 2463,
      "Ġwrong": 2464,
      "64": 2465,
      "Ġlonger": 2466,
      "Ġcheck": 2467,
      "ached": 2468,
      "ĠMe": 2469,
      "Ġcirc": 2470,
      "epend": 2471,
      "ique": 2472,
      "Ġpie": 2473,
      "Ġwoman": 2474,
      "Ġrelig": 2475,
      "ĠSept": 2476,
      "Ġconsum": 2477,
      "Ġtit": 2478,
      "ĠMarch": 2479,
      "Ġeduc": 2480,
      "oph": 2481,
      "Ġpred": 2482,
      "Ġmoment": 2483,
      "lt": 2484,
      "ager": 2485,
      "Ġsoon": 2486,
      "itting": 2487,
      "Ġworks": 2488,
      "Ġgir": 2489,
      "Ġpotential": 2490,
      "Ġonline": 2491,
      "alt": 2492,
      "Ġwords": 2493,
      "Ġcred": 2494,
      "Ġshare": 2495,
      "Ġconsider": 2496,
      "oe": 2497,
      "ental": 2498,
      "Ġled": 2499,
      "Ġhigher": 2500,
      "Ġwalk": 2501,
      "Ġheld": 2502,
      "onse": 2503,
      "Ġrev": 2504,
      "Ġfocus": 2505,
      "Ġlaws": 2506,
      "hood": 2507,
      "ancial": 2508,
      "val": 2509,
      "80": 2510,
      "Ġwebs": 2511,
      "015": 2512,
      "Ġstay": 2513,
      "Ġreve": 2514,
      "body": 2515,
      "Ġreview": 2516,
      "Ġsite": 2517,
      "Ġfunction": 2518,
      "ills": 2519,
      "Ġage": 2520,
      "ularly": 2521,
      "Ġsold": 2522,
      "where": 2523,
      "Ġtotal": 2524,
      "Ġprim": 2525,
      "Ġet": 2526,
      "Ġce": 2527,
      "overed": 2528,
      "irm": 2529,
      "ole": 2530,
      "Ġlear": 2531,
      "Ġpersonal": 2532,
      "Ġattempt": 2533,
      "Ġstru": 2534,
      "Ġwind": 2535,
      "ĠSm": 2536,
      "Ġaccept": 2537,
      "Ġrisk": 2538,
      "ĠAug": 2539,
      "Ġwont": 2540,
      "Ġresults": 2541,
      "Ġdiv": 2542,
      "Ġbar": 2543,
      "atives": 2544,
      "Ġapplic": 2545,
      "ĠSyri": 2546,
      "Ġdi": 2547,
      "Ġservices": 2548,
      "Ġaud": 2549,
      "Ġminutes": 2550,
      "Ġvol": 2551,
      "ĠHar": 2552,
      "ĠMich": 2553,
      "ogle": 2554,
      "Ġhy": 2555,
      "cil": 2556,
      "iding": 2557,
      "ham": 2558,
      "bb": 2559,
      "Ġarticle": 2560,
      "ĠGod": 2561,
      "Ġden": 2562,
      "ĠJune": 2563,
      "ends": 2564,
      "fect": 2565,
      "uary": 2566,
      "Ġdead": 2567,
      "Ġemail": 2568,
      "Ġcode": 2569,
      "ĠRepublican": 2570,
      "Ġfavor": 2571,
      "ires": 2572,
      "cial": 2573,
      "ples": 2574,
      "eed": 2575,
      "Ġupd": 2576,
      "icro": 2577,
      "Ġnecess": 2578,
      "Ġansw": 2579,
      "Ġscient": 2580,
      "Ġtarget": 2581,
      "Ġrespect": 2582,
      "Ġcreated": 2583,
      "hem": 2584,
      "Ġrate": 2585,
      "urd": 2586,
      "Ġcomput": 2587,
      "Ġpopular": 2588,
      "haps": 2589,
      "ilities": 2590,
      "Ġexpress": 2591,
      "ES": 2592,
      "ĠApr": 2593,
      "isl": 2594,
      "Ġearlier": 2595,
      "Ch": 2596,
      "Ġexpected": 2597,
      "anger": 2598,
      "ule": 2599,
      "Ġsurpr": 2600,
      "ĠDepartment": 2601,
      "Ġenvironment": 2602,
      "ĠJuly": 2603,
      "Ġcomment": 2604,
      "Ġproblems": 2605,
      "yr": 2606,
      "Ġreceived": 2607,
      "Ġeasy": 2608,
      "ateg": 2609,
      "iter": 2610,
      "itution": 2611,
      "Ġtechnology": 2612,
      "aging": 2613,
      "lear": 2614,
      "hel": 2615,
      "ĠEn": 2616,
      "Ġcannot": 2617,
      "Ġ2011": 2618,
      "Ġprivate": 2619,
      "What": 2620,
      "Ġlangu": 2621,
      "Ġport": 2622,
      "Ġincrease": 2623,
      "Ġpack": 2624,
      "Ġgoal": 2625,
      "Ġquestions": 2626,
      "ĠFacebook": 2627,
      "ĠCongress": 2628,
      "iple": 2629,
      "Ġways": 2630,
      "ude": 2631,
      "Ġshot": 2632,
      "ĠMond": 2633,
      "Ġannounced": 2634,
      "Ġusers": 2635,
      "Ġforce": 2636,
      "ĠEm": 2637,
      "Ġanyone": 2638,
      "ores": 2639,
      "uel": 2640,
      "Ġbase": 2641,
      "ĠPer": 2642,
      "Ġterror": 2643,
      "ites": 2644,
      "omb": 2645,
      "Ġpur": 2646,
      "ips": 2647,
      "Ġcivil": 2648,
      "Ġur": 2649,
      "put": 2650,
      "Ġexact": 2651,
      "like": 2652,
      "Ġmater": 2653,
      "Ġhope": 2654,
      "Ġinvolved": 2655,
      "Ġpoll": 2656,
      "ĠRed": 2657,
      "Ġtype": 2658,
      "lex": 2659,
      "itiz": 2660,
      "50": 2661,
      "ĠFrid": 2662,
      "ises": 2663,
      "Ġamount": 2664,
      "How": 2665,
      "Ġnearly": 2666,
      "ĠNow": 2667,
      "hern": 2668,
      "ĠAustral": 2669,
      "Ġspeak": 2670,
      "Ad": 2671,
      "onst": 2672,
      "eter": 2673,
      "At": 2674,
      "action": 2675,
      "ĠChina": 2676,
      "Ġmodel": 2677,
      "ech": 2678,
      "ĠSome": 2679,
      "Ġexecut": 2680,
      "itten": 2681,
      "duct": 2682,
      "Ġstaff": 2683,
      "ĠAct": 2684,
      "pro": 2685,
      "ĠApril": 2686,
      "Ġsen": 2687,
      "Ġreports": 2688,
      "Ġcontent": 2689,
      "aving": 2690,
      "ĠSte": 2691,
      "Ġpers": 2692,
      "ĠWed": 2693,
      "Ġcoll": 2694,
      "Ġrelationship": 2695,
      "aut": 2696,
      "ops": 2697,
      "okes": 2698,
      "Ġoriginal": 2699,
      "Ġinternational": 2700,
      "28": 2701,
      "Ġ21": 2702,
      "Ġinside": 2703,
      "Ġleave": 2704,
      "Ġkilled": 2705,
      "Ġcal": 2706,
      "key": 2707,
      "ĠCour": 2708,
      "ĠCount": 2709,
      "Ġresponse": 2710,
      "Ġcases": 2711,
      "Ġfans": 2712,
      "Ġbroad": 2713,
      "Ġcapt": 2714,
      "ĠAmericans": 2715,
      "any": 2716,
      "Ġglobal": 2717,
      "Ġarrest": 2718,
      "itc": 2719,
      "Ġaverage": 2720,
      "69": 2721,
      "74": 2722,
      "ittee": 2723,
      "Ġliving": 2724,
      "Ġoil": 2725,
      "ams": 2726,
      "Ġsource": 2727,
      "ĠWhile": 2728,
      "Ġones": 2729,
      "Ġworth": 2730,
      "ĠJap": 2731,
      "Ġcell": 2732,
      "Ġimmedi": 2733,
      "Ġrespond": 2734,
      "atural": 2735,
      "ging": 2736,
      "EN": 2737,
      "Ġworked": 2738,
      "Ġbecom": 2739,
      "Ġsubject": 2740,
      "ellig": 2741,
      "ĠTues": 2742,
      "Ġsoft": 2743,
      "ĠPal": 2744,
      "Ġability": 2745,
      "Ġestab": 2746,
      "Ġadm": 2747,
      "oint": 2748,
      "Al": 2749,
      "Ġpublished": 2750,
      "Ġtou": 2751,
      "Ġchance": 2752,
      "Ġ40": 2753,
      "Ġcollect": 2754,
      "Ġtakes": 2755,
      "ky": 2756,
      "Ġclub": 2757,
      "Ġassoci": 2758,
      "OR": 2759,
      "Ġ2010": 2760,
      "izing": 2761,
      "Ġroad": 2762,
      "Ġweap": 2763,
      "Ġsqu": 2764,
      "Ġworkers": 2765,
      "Ġlack": 2766,
      "Ġlog": 2767,
      "Ġpict": 2768,
      "Ġnorm": 2769,
      "Ġfinancial": 2770,
      "rought": 2771,
      "Ġfem": 2772,
      "Ġheav": 2773,
      "Ġterms": 2774,
      "Ġemer": 2775,
      "Ġbuy": 2776,
      "Ġprice": 2777,
      "Ġdefin": 2778,
      "oto": 2779,
      "Ġdecided": 2780,
      "21": 2781,
      "ological": 2782,
      "Ġmother": 2783,
      "Ġgave": 2784,
      "Ġdirector": 2785,
      "het": 2786,
      "bor": 2787,
      "lled": 2788,
      "ĠFriday": 2789,
      "ĠGeor": 2790,
      "ĠIslam": 2791,
      "Ġfre": 2792,
      "Ġcontr": 2793,
      "Ġforeign": 2794,
      "Ġcapital": 2795,
      "ĠOff": 2796,
      "osition": 2797,
      "Ġwhose": 2798,
      "Ġcurrently": 2799,
      "ĠSan": 2800,
      "Ġwon": 2801,
      "ĠMonday": 2802,
      "ĠCalif": 2803,
      "ovember": 2804,
      "000000000000147": 2805,
      "00006440000000000000000000002": 2806,
      "ĠIll": 2807,
      "79": 2808,
      "38": 2809,
      "ael": 2810,
      "60": 2811,
      "ĠFr": 2812,
      "Ġinflu": 2813,
      "Ġhappened": 2814,
      "ĠGl": 2815,
      "ĠAg": 2816,
      "Ġsituation": 2817,
      "Ġparticip": 2818,
      "Ġrequire": 2819,
      "Ġgoes": 2820,
      "ĠJanuary": 2821,
      "ctor": 2822,
      "ray": 2823,
      "Ġevents": 2824,
      "Ġrecogn": 2825,
      "Ġmaterial": 2826,
      "Ġmid": 2827,
      "Ġtal": 2828,
      "ought": 2829,
      "clus": 2830,
      "Ġareas": 2831,
      "Ġmethod": 2832,
      "Ġlives": 2833,
      "Ġindic": 2834,
      "Ġvia": 2835,
      "49": 2836,
      "ĠBy": 2837,
      "Ġoffer": 2838,
      "ĠTV": 2839,
      "Ġmis": 2840,
      "oved": 2841,
      "Ġill": 2842,
      "Ġturned": 2843,
      "Ġcy": 2844,
      "ĠSund": 2845,
      "Ġphone": 2846,
      "Ġarri": 2847,
      "Ġplans": 2848,
      "bit": 2849,
      "Ġaffect": 2850,
      "Ġhuge": 2851,
      "ĠSeptember": 2852,
      "ĠHill": 2853,
      "ĠNe": 2854,
      "Ġsimple": 2855,
      "ĠEl": 2856,
      "Ġintrodu": 2857,
      "ctions": 2858,
      "rain": 2859,
      "ĠId": 2860,
      "Ġregard": 2861,
      "eth": 2862,
      "ĠFeb": 2863,
      "vertise": 2864,
      "Ġconv": 2865,
      "Ġperformance": 2866,
      "Ġhon": 2867,
      "rown": 2868,
      "Ġmeeting": 2869,
      "fully": 2870,
      "ĠTuesday": 2871,
      "ruction": 2872,
      "Ġcareer": 2873,
      "Ġround": 2874,
      "ety": 2875,
      "Ġapproach": 2876,
      "Ġmember": 2877,
      "76": 2878,
      "ese": 2879,
      "na": 2880,
      "lev": 2881,
      "ĠAfric": 2882,
      "Ġtool": 2883,
      "Ġpage": 2884,
      "ĠWednes": 2885,
      "ened": 2886,
      "joy": 2887,
      "ĠJapan": 2888,
      "Ġimprove": 2889,
      "ĠNovember": 2890,
      "ĠDavid": 2891,
      "Ġimpact": 2892,
      "Ġquickly": 2893,
      "Ġpull": 2894,
      "order": 2895,
      "Ġhear": 2896,
      "Ġfelt": 2897,
      "ĠAng": 2898,
      "To": 2899,
      "Ġrace": 2900,
      "Ġhands": 2901,
      "apt": 2902,
      "atory": 2903,
      "ges": 2904,
      "ĠThurs": 2905,
      "ĠEuropean": 2906,
      "Ġvictim": 2907,
      "Ġthous": 2908,
      "Ġloss": 2909,
      "Ġengine": 2910,
      "Ġnumbers": 2911,
      "oud": 2912,
      "Ġdig": 2913,
      "ĠPaul": 2914,
      "Ġnetwork": 2915,
      "chie": 2916,
      "ett": 2917,
      "ĠCor": 2918,
      "Ġbuilt": 2919,
      "orters": 2920,
      "Ġrepe": 2921,
      "ĠOctober": 2922,
      "ences": 2923,
      "AL": 2924,
      "Ġmatch": 2925,
      "Ġfather": 2926,
      "Ġsecret": 2927,
      "arents": 2928,
      "Ġbank": 2929,
      "aily": 2930,
      "ĠGoogle": 2931,
      "ĠAugust": 2932,
      "Ġlegisl": 2933,
      "time": 2934,
      "00006440000000000000000000003": 2935,
      "ps": 2936,
      "ructure": 2937,
      "ĠBlack": 2938,
      "Ġeconomy": 2939,
      "Ġheard": 2940,
      "Ġord": 2941,
      "Ġproduction": 2942,
      "Ġincluded": 2943,
      "Ġlower": 2944,
      "ĠBritish": 2945,
      "ino": 2946,
      "Ġreveal": 2947,
      "Ġallowed": 2948,
      "ĠIS": 2949,
      "aur": 2950,
      "Ġcause": 2951,
      "Ġcouple": 2952,
      "Ġspent": 2953,
      "ĠCont": 2954,
      "Ġtravel": 2955,
      "Ġheart": 2956,
      "Ġperfect": 2957,
      "iers": 2958,
      "Ġtrade": 2959,
      "Ġtown": 2960,
      "load": 2961,
      "Ġsepar": 2962,
      "Ġcontract": 2963,
      "Ġwants": 2964,
      "Ġbehav": 2965,
      "uses": 2966,
      "Ġneigh": 2967,
      "Ġcover": 2968,
      "cember": 2969,
      "oor": 2970,
      "Ġknew": 2971,
      "king": 2972,
      "ĠSch": 2973,
      "ume": 2974,
      "Ġfair": 2975,
      "Ġ22": 2976,
      "ĠJew": 2977,
      "Ġwebsite": 2978,
      "ĠCaliforn": 2979,
      "Ġgets": 2980,
      "Ġste": 2981,
      "Ġsett": 2982,
      "Ġboard": 2983,
      "Ġrac": 2984,
      "estern": 2985,
      "ĠUK": 2986,
      "iction": 2987,
      "Ġtried": 2988,
      "rect": 2989,
      "Ġlink": 2990,
      "Ġfear": 2991,
      "Ġvarious": 2992,
      "ĠWednesday": 2993,
      "ĠQu": 2994,
      "Ġens": 2995,
      "ĠRussian": 2996,
      "Ġvisit": 2997,
      "Ġforces": 2998,
      "Ġvo": 2999,
      "Ġprevent": 3000,
      "gest": 3001,
      "aa": 3002,
      "co": 3003,
      "raz": 3004,
      "ening": 3005,
      "Ġattention": 3006,
      "Ġparticular": 3007,
      "Ġprogress": 3008,
      "Ġprep": 3009,
      "rel": 3010,
      "mon": 3011,
      "Ġpopulation": 3012,
      "Ġfell": 3013,
      "agement": 3014,
      "anks": 3015,
      "Ġwide": 3016,
      "Ġbud": 3017,
      "ĠCourt": 3018,
      "enc": 3019,
      "ceed": 3020,
      "ani": 3021,
      "Ġlooks": 3022,
      "ĠHer": 3023,
      "Ġmovement": 3024,
      "urning": 3025,
      "Ġgrowth": 3026,
      "ĠThursday": 3027,
      "ĠSw": 3028,
      "ession": 3029,
      "Ġliber": 3030,
      "Ġbrought": 3031,
      "Ġreach": 3032,
      "Ġlearn": 3033,
      "oo": 3034,
      "hest": 3035,
      "ibly": 3036,
      "ĠKore": 3037,
      "Ġtraining": 3038,
      "arily": 3039,
      "Ġhot": 3040,
      "Ġmention": 3041,
      "Ġveh": 3042,
      "Ġ23": 3043,
      "Ġtext": 3044,
      "idered": 3045,
      "Ġdemand": 3046,
      "undred": 3047,
      "Ġund": 3048,
      "ĠPost": 3049,
      "Ġcitiz": 3050,
      "inks": 3051,
      "cast": 3052,
      "force": 3053,
      "One": 3054,
      "ĠDecember": 3055,
      "pts": 3056,
      "70": 3057,
      "ledge": 3058,
      "face": 3059,
      "Ġmorning": 3060,
      "hold": 3061,
      "ED": 3062,
      "Ġess": 3063,
      "bd": 3064,
      "Ġsearch": 3065,
      "ĠPat": 3066,
      "ĠWell": 3067,
      "Ġimage": 3068,
      "idents": 3069,
      "yond": 3070,
      "Ġenjoy": 3071,
      "Ġreb": 3072,
      "Ġrules": 3073,
      "Ġhor": 3074,
      "Ġlatest": 3075,
      "Ġcard": 3076,
      "Ġsn": 3077,
      "Ġspeed": 3078,
      "Ġindepend": 3079,
      "ground": 3080,
      "Ġsize": 3081,
      "Ġfast": 3082,
      "Ġupon": 3083,
      "sequ": 3084,
      "Ġsong": 3085,
      "ĠPar": 3086,
      "ze": 3087,
      "icles": 3088,
      "Ġsubs": 3089,
      "31": 3090,
      "AC": 3091,
      "field": 3092,
      "Ġstrugg": 3093,
      "ification": 3094,
      "uments": 3095,
      "ĠRussia": 3096,
      "Ġexam": 3097,
      "ĠStreet": 3098,
      "Ġ2008": 3099,
      "uk": 3100,
      "IC": 3101,
      "Ġfeatures": 3102,
      "omp": 3103,
      "Ġsens": 3104,
      "Ġslow": 3105,
      "Ġtalking": 3106,
      "ĠPark": 3107,
      "Ġdoub": 3108,
      "Ġcoach": 3109,
      "come": 3110,
      "Ġsystems": 3111,
      "Ġsafe": 3112,
      "Ġwond": 3113,
      "Ġconsidered": 3114,
      "alled": 3115,
      "Ġextreme": 3116,
      "Ġleader": 3117,
      "Ġ...": 3118,
      "aries": 3119,
      "IT": 3120,
      "Ġmedical": 3121,
      "ĠAnt": 3122,
      "Ġlanguage": 3123,
      "After": 3124,
      "Ġconduct": 3125,
      "Ġaddition": 3126,
      "Ġlevels": 3127,
      "iant": 3128,
      "OS": 3129,
      "Ġachie": 3130,
      "utions": 3131,
      "sych": 3132,
      "Ġsort": 3133,
      "ope": 3134,
      "ĠSunday": 3135,
      "rim": 3136,
      "Ġparents": 3137,
      "elligence": 3138,
      "ape": 3139,
      "ĠSenate": 3140,
      "With": 3141,
      "ysis": 3142,
      "Ġcritic": 3143,
      "uf": 3144,
      "ĠKe": 3145,
      "Ġexcept": 3146,
      "Ġpen": 3147,
      "icks": 3148,
      "ba": 3149,
      "Ġwritten": 3150,
      "down": 3151,
      "Ġinvestigation": 3152,
      "erc": 3153,
      "aker": 3154,
      "Ph": 3155,
      "imately": 3156,
      "Ġdraw": 3157,
      "yl": 3158,
      "Ġmach": 3159,
      "Ġprior": 3160,
      "Ġcompletely": 3161,
      "Ġadministration": 3162,
      "ĠTex": 3163,
      "ament": 3164,
      "ĠMuslim": 3165,
      "cle": 3166,
      "Ġconc": 3167,
      "aph": 3168,
      "Ġbox": 3169,
      "ĠRom": 3170,
      "Ġplat": 3171,
      "Ġimmig": 3172,
      "Ġjobs": 3173,
      "Ġdoll": 3174,
      "Ġ2009": 3175,
      "bed": 3176,
      "ĠSatur": 3177,
      "Ġincreasing": 3178,
      "While": 3179,
      "df": 3180,
      "Ġinn": 3181,
      "Ġsexual": 3182,
      "Ġclimate": 3183,
      "ĠLond": 3184,
      "ĠMark": 3185,
      "Ġbott": 3186,
      "Ġregul": 3187,
      "ĠCounty": 3188,
      "ĠTimes": 3189,
      "Ġconserv": 3190,
      "ĠMore": 3191,
      "ĠCenter": 3192,
      "OP": 3193,
      "Ġspokes": 3194,
      "oms": 3195,
      "Ġparticularly": 3196,
      "eared": 3197,
      "Ġdespite": 3198,
      "raq": 3199,
      "isions": 3200,
      "Ġdocument": 3201,
      "itch": 3202,
      "Ġscreen": 3203,
      "rench": 3204,
      "Ġnatural": 3205,
      "Ġsurve": 3206,
      "Ġeffort": 3207,
      "Ġpaper": 3208,
      "Ġopportunity": 3209,
      "Ġobvious": 3210,
      "ources": 3211,
      "ĠCalifornia": 3212,
      "Ġrange": 3213,
      "Ġmessage": 3214,
      "ruary": 3215,
      "Ġofficers": 3216,
      "Ġexactly": 3217,
      "Ġinteresting": 3218,
      "nces": 3219,
      "light": 3220,
      "Ġseven": 3221,
      "sc": 3222,
      "Ġeight": 3223,
      "Sh": 3224,
      "Ġalthough": 3225,
      "AM": 3226,
      "ĠParty": 3227,
      "the": 3228,
      "Ġviolence": 3229,
      "ĠNet": 3230,
      "ishing": 3231,
      "ĠDonald": 3232,
      "anced": 3233,
      "based": 3234,
      "Ġbiggest": 3235,
      "ibr": 3236,
      "Ġmajority": 3237,
      "inally": 3238,
      "oses": 3239,
      "Ġattacks": 3240,
      "uit": 3241,
      "akers": 3242,
      "Ġhundred": 3243,
      "range": 3244,
      "Ġanswer": 3245,
      "Ġclaims": 3246,
      "unk": 3247,
      "ĠEven": 3248,
      "Ġlay": 3249,
      "ille": 3250,
      "Ġexperien": 3251,
      "Ġcrim": 3252,
      "Ġjournal": 3253,
      "entially": 3254,
      "Ġscience": 3255,
      "Ġsometimes": 3256,
      "urt": 3257,
      "ĠSand": 3258,
      "ĠMor": 3259,
      "ny": 3260,
      "Ġproducts": 3261,
      "Ġdefense": 3262,
      "Ġrequired": 3263,
      "Ġquarter": 3264,
      "ĠSpe": 3265,
      "Ġcarry": 3266,
      "Ġlooked": 3267,
      "Ġhistor": 3268,
      "ĠTH": 3269,
      "Ġextra": 3270,
      "ĠMcC": 3271,
      "Ġcertainly": 3272,
      "Ġ26": 3273,
      "59": 3274,
      "pir": 3275,
      "add": 3276,
      "ĠBec": 3277,
      "aves": 3278,
      "Ġgas": 3279,
      "Ġx": 3280,
      "72": 3281,
      "Ġsurv": 3282,
      "ĠIraq": 3283,
      "Ġcommunic": 3284,
      "Ġblood": 3285,
      "Ġpaid": 3286,
      "Ġpan": 3287,
      "Ġimag": 3288,
      "Ġdro": 3289,
      "Ġpractice": 3290,
      "ĠKing": 3291,
      "Ġmiddle": 3292,
      "Ġfinally": 3293,
      "Ġaw": 3294,
      "ux": 3295,
      "Ġcross": 3296,
      "Ġremain": 3297,
      "lying": 3298,
      "atter": 3299,
      "ĠInt": 3300,
      "illed": 3301,
      "ĠBo": 3302,
      "Ġtable": 3303,
      "uclear": 3304,
      "Ġprison": 3305,
      "ĠCanada": 3306,
      "erve": 3307,
      "Ġpath": 3308,
      "Ġsaf": 3309,
      "Ġstarting": 3310,
      "ĠEast": 3311,
      "54": 3312,
      "bf": 3313,
      "inese": 3314,
      "Ġdanger": 3315,
      "Ġstories": 3316,
      "abor": 3317,
      "vertisement": 3318,
      "Ġleading": 3319,
      "Ġpoor": 3320,
      "Ġult": 3321,
      "Ġarent": 3322,
      "Ġstuff": 3323,
      "Ġ60": 3324,
      "ma": 3325,
      "Ġrout": 3326,
      "Ġshowed": 3327,
      "Ġdescribed": 3328,
      "Ġgiving": 3329,
      "Ġguy": 3330,
      "82": 3331,
      "Ġchanged": 3332,
      "Ġquality": 3333,
      "Ġmodern": 3334,
      "ĠFebruary": 3335,
      "Ġdetails": 3336,
      "ously": 3337,
      "bc": 3338,
      "ounts": 3339,
      "Ġnation": 3340,
      "Ġsociety": 3341,
      "Ġprovided": 3342,
      "eff": 3343,
      "ĠDes": 3344,
      "They": 3345,
      "Ġconvers": 3346,
      "ension": 3347,
      "Ġoccur": 3348,
      "Ġremains": 3349,
      "enge": 3350,
      "Ġcontact": 3351,
      "Ġmultiple": 3352,
      "hib": 3353,
      "Ġ27": 3354,
      "56": 3355,
      "Ġnamed": 3356,
      "Ġson": 3357,
      "ospital": 3358,
      "Ġterm": 3359,
      "ĠLondon": 3360,
      "Ġeducation": 3361,
      "Ġwriting": 3362,
      "Ġassist": 3363,
      "fl": 3364,
      "Ġchief": 3365,
      "Ġusually": 3366,
      "pper": 3367,
      "Ġfix": 3368,
      "Ġcosts": 3369,
      "ables": 3370,
      "uing": 3371,
      "ari": 3372,
      "aught": 3373,
      "Ġweve": 3374,
      "Ġdon": 3375,
      "ĠFirst": 3376,
      "Ġmob": 3377,
      "Ġdamage": 3378,
      "Ġparts": 3379,
      "ĠRepublicans": 3380,
      "ĠGener": 3381,
      "Ġlif": 3382,
      "Ġthinking": 3383,
      "Ġdemonst": 3384,
      "US": 3385,
      "Ġincreased": 3386,
      "ĠDemocratic": 3387,
      "Ġ28": 3388,
      "lection": 3389,
      "Ġcontinued": 3390,
      "Ġperhaps": 3391,
      "Ġpurp": 3392,
      "Ġgrowing": 3393,
      "istan": 3394,
      "Ġguys": 3395,
      "ĠSoc": 3396,
      "Ġready": 3397,
      "orks": 3398,
      "ems": 3399,
      "Ġcomments": 3400,
      "Ġdied": 3401,
      "Ġsubst": 3402,
      "inary": 3403,
      "Ġhous": 3404,
      "ĠTrumps": 3405,
      "Ġunf": 3406,
      "Ġsummer": 3407,
      "Ġculture": 3408,
      "Ġwouldnt": 3409,
      "FL": 3410,
      "ĠCoun": 3411,
      "Ġbi": 3412,
      "Ġmaintain": 3413,
      "Ġwrite": 3414,
      "ĠSaturday": 3415,
      "Ġimplement": 3416,
      "Ġtowards": 3417,
      "Ġvoters": 3418,
      "Ġpurch": 3419,
      "Ġrequest": 3420,
      "mp": 3421,
      "ĠBill": 3422,
      "ĠJack": 3423,
      "Ġmill": 3424,
      "amb": 3425,
      "Ġmovie": 3426,
      "gs": 3427,
      "Ġefforts": 3428,
      "Ġfile": 3429,
      "Ġcamer": 3430,
      "Ġperm": 3431,
      "Ġspeech": 3432,
      "Ġcele": 3433,
      "73": 3434,
      "asc": 3435,
      "....": 3436,
      "Ġplatform": 3437,
      "Ġreading": 3438,
      "reedom": 3439,
      "Ġavoid": 3440,
      "Ġalone": 3441,
      "arian": 3442,
      "Ġver": 3443,
      "Ġspot": 3444,
      "Ġselect": 3445,
      "wo": 3446,
      "iles": 3447,
      "ĠJames": 3448,
      "Ġconsist": 3449,
      "ĠSer": 3450,
      "Ġkids": 3451,
      "Ġdirectly": 3452,
      "Ġreality": 3453,
      "Ġil": 3454,
      "Ġstandard": 3455,
      "83": 3456,
      "ĠTur": 3457,
      "ico": 3458,
      "ĠChinese": 3459,
      "Ġbeyond": 3460,
      "ĠCons": 3461,
      "ĠLeague": 3462,
      "Ġcalls": 3463,
      "Ġclos": 3464,
      "Ġuser": 3465,
      "Ġyes": 3466,
      "zz": 3467,
      "Ġincludes": 3468,
      "Ġepis": 3469,
      "Ġcouldnt": 3470,
      "ĠAir": 3471,
      "ext": 3472,
      "Ġcomplex": 3473,
      "Ġimmediately": 3474,
      "Ġfootball": 3475,
      "Ġeffects": 3476,
      "fort": 3477,
      "icated": 3478,
      "Ġremember": 3479,
      "Tr": 3480,
      "inated": 3481,
      "Ġrecomm": 3482,
      "ban": 3483,
      "Ġchalleng": 3484,
      "Ġthroughout": 3485,
      "airs": 3486,
      "Ġsle": 3487,
      "ĠIran": 3488,
      "Ġcorpor": 3489,
      "ĠPlay": 3490,
      "cf": 3491,
      "Ġchoice": 3492,
      "acts": 3493,
      "reng": 3494,
      "ares": 3495,
      "ĠTexas": 3496,
      "ek": 3497,
      "ĠThen": 3498,
      "Ġsafety": 3499,
      "Ġschools": 3500,
      "ĠIndian": 3501,
      "ford": 3502,
      "iment": 3503,
      "Ġscene": 3504,
      "ĠMichael": 3505,
      "Ġresearc": 3506,
      "Ġadditional": 3507,
      "Ġgone": 3508,
      "ĠIndia": 3509,
      "Ġut": 3510,
      "Ġdesigned": 3511,
      "201": 3512,
      "Ġsell": 3513,
      "Ġ29": 3514,
      "Ġopin": 3515,
      "Ġsil": 3516,
      "Ġcharacters": 3517,
      "Ġcenter": 3518,
      "Ġahead": 3519,
      "That": 3520,
      "cd": 3521,
      "Ġrelative": 3522,
      "Ġthousands": 3523,
      "Ġletter": 3524,
      "ĠII": 3525,
      "Ġpiece": 3526,
      "using": 3527,
      "oper": 3528,
      "ampions": 3529,
      "Ġten": 3530,
      "Ġtro": 3531,
      "Ġregion": 3532,
      "Ġmeaning": 3533,
      "Ġfigure": 3534,
      "ĠSuper": 3535,
      "Ġdebate": 3536,
      "Ġdecl": 3537,
      "aches": 3538,
      "00006440000000000000000000004": 3539,
      "itute": 3540,
      "Ġdisplay": 3541,
      "Ġtwe": 3542,
      "Ġtoward": 3543,
      "Ġblog": 3544,
      "ĠGreen": 3545,
      "adem": 3546,
      "aly": 3547,
      "ĠDemocrats": 3548,
      "Ġstudent": 3549,
      "Ġdisapp": 3550,
      "BI": 3551,
      "Ġmoved": 3552,
      "Ġclean": 3553,
      "isis": 3554,
      "Ġsoftware": 3555,
      "Ġappears": 3556,
      "Ġreceive": 3557,
      "astic": 3558,
      "ĠWilliam": 3559,
      "ĠRich": 3560,
      "ago": 3561,
      "icient": 3562,
      "ilies": 3563,
      "OT": 3564,
      "Ġcounter": 3565,
      "Ġmaybe": 3566,
      "Ġproperty": 3567,
      "Ġign": 3568,
      "42": 3569,
      "Ġpressure": 3570,
      "wise": 3571,
      "urg": 3572,
      "ression": 3573,
      "eg": 3574,
      "Ġpassed": 3575,
      "Ġrock": 3576,
      "ĠHes": 3577,
      "Ġdark": 3578,
      "Ġsat": 3579,
      "Ġnom": 3580,
      "ĠEnglish": 3581,
      "Ġcommand": 3582,
      "ĠMinister": 3583,
      "atever": 3584,
      "Ġstage": 3585,
      "Ġmoving": 3586,
      "Ġconditions": 3587,
      "Ġhelped": 3588,
      "Ġyoull": 3589,
      "Ġhappy": 3590,
      "Ġbooks": 3591,
      "ken": 3592,
      "Ġfailed": 3593,
      "Ġcrow": 3594,
      "00006440000000000000000000005": 3595,
      "Ġlaunch": 3596,
      "Ġbrain": 3597,
      "57": 3598,
      "ara": 3599,
      "ean": 3600,
      "itation": 3601,
      "Ġalleged": 3602,
      "Ġtour": 3603,
      "ĠAssoci": 3604,
      "ĠFrench": 3605,
      "Ġreligious": 3606,
      "set": 3607,
      "Ġdrive": 3608,
      "Ġsuspect": 3609,
      "Ġcompared": 3610,
      "ĠOf": 3611,
      "Ġdeg": 3612,
      "roy": 3613,
      "imum": 3614,
      "Ġcast": 3615,
      "Ġtouch": 3616,
      "rants": 3617,
      "irth": 3618,
      "rupt": 3619,
      "Ġstore": 3620,
      "Ġnuclear": 3621,
      "ĠTheres": 3622,
      "Ġreasons": 3623,
      "alls": 3624,
      "Ġbudget": 3625,
      "Ġbeginning": 3626,
      "Ġwife": 3627,
      "olute": 3628,
      "rated": 3629,
      "40": 3630,
      "ĠMart": 3631,
      "Ġencour": 3632,
      "Ġbattle": 3633,
      "Ġdifference": 3634,
      "ston": 3635,
      "Ġcitizens": 3636,
      "ivity": 3637,
      "62": 3638,
      "ĠSim": 3639,
      "ĠVal": 3640,
      "Ġaim": 3641,
      "ĠMon": 3642,
      "rief": 3643,
      "Ġtitle": 3644,
      "Ġdate": 3645,
      "Ġmyself": 3646,
      "Ġprec": 3647,
      "itness": 3648,
      "wood": 3649,
      "Ġstra": 3650,
      "oes": 3651,
      "ĠDay": 3652,
      "Ġpositive": 3653,
      "ĠStar": 3654,
      "Ġrob": 3655,
      "Ġbal": 3656,
      "Ġrefer": 3657,
      "ha": 3658,
      "ocked": 3659,
      "Ġlimited": 3660,
      "ĠEvery": 3661,
      "Ġeyes": 3662,
      "Ġshown": 3663,
      "Ġnature": 3664,
      "Ġdisp": 3665,
      "Ġestim": 3666,
      "ida": 3667,
      "Ġpowerful": 3668,
      "Ġfan": 3669,
      "Ġpark": 3670,
      "Ġofficer": 3671,
      "ĠRober": 3672,
      "Ġarch": 3673,
      "ĠOh": 3674,
      "agon": 3675,
      "43": 3676,
      "Ġforced": 3677,
      "Ġanalysis": 3678,
      "AD": 3679,
      "Ġnecessary": 3680,
      "Ġcontribut": 3681,
      "Ġsal": 3682,
      "Ġunique": 3683,
      "Ġthrow": 3684,
      "Ġilleg": 3685,
      "Ġgovernments": 3686,
      "egr": 3687,
      "bl": 3688,
      "63": 3689,
      "ĠServ": 3690,
      "Ġtrust": 3691,
      "Ġdevice": 3692,
      "Ġcentury": 3693,
      "aint": 3694,
      "onents": 3695,
      "Ġcollege": 3696,
      "Ġprojects": 3697,
      "Ġmix": 3698,
      "OM": 3699,
      "ufact": 3700,
      "iable": 3701,
      "ĠChe": 3702,
      "Ġlargest": 3703,
      "Ġspending": 3704,
      "ĠBel": 3705,
      "Ġphysical": 3706,
      "lands": 3707,
      "rs": 3708,
      "Ġmeant": 3709,
      "Ġeasily": 3710,
      "Ġautom": 3711,
      "Ġcomputer": 3712,
      "Ġindividuals": 3713,
      "Ġaware": 3714,
      "ĠAP": 3715,
      "Ġprin": 3716,
      "Ġconference": 3717,
      "lease": 3718,
      "78": 3719,
      "Ġcool": 3720,
      "ET": 3721,
      "Ġconfir": 3722,
      "Ġpresidential": 3723,
      "ĠTor": 3724,
      "cient": 3725,
      "Ġfollowed": 3726,
      "Ġpus": 3727,
      "Ġstreng": 3728,
      "Ġeventually": 3729,
      "ĠBen": 3730,
      "Ġang": 3731,
      "Ġgrad": 3732,
      "68": 3733,
      "Ġactions": 3734,
      "Ġfeature": 3735,
      "chan": 3736,
      "Ġsusp": 3737,
      "men": 3738,
      "Ġexecutive": 3739,
      "ĠWind": 3740,
      "Ġfeed": 3741,
      "Ġsmart": 3742,
      "Ġcat": 3743,
      "Ġhar": 3744,
      "Ġyourself": 3745,
      "Ġren": 3746,
      "Ġfamilies": 3747,
      "Ġdetail": 3748,
      "She": 3749,
      "etro": 3750,
      "Ġpolitics": 3751,
      "ĠMex": 3752,
      "Ġnice": 3753,
      "Ġorganization": 3754,
      "cul": 3755,
      "Ġagency": 3756,
      "venue": 3757,
      "Ġpromot": 3758,
      "Ġcentral": 3759,
      "Ġgives": 3760,
      "pre": 3761,
      "ĠCap": 3762,
      "Ġallows": 3763,
      "iring": 3764,
      "48": 3765,
      "da": 3766,
      "Ġweapons": 3767,
      "ĠJer": 3768,
      "enty": 3769,
      "Ġoverall": 3770,
      "encies": 3771,
      "Ġappeared": 3772,
      "ressed": 3773,
      "Ġsigned": 3774,
      "Ġuns": 3775,
      "Ġcustomers": 3776,
      "Ġtreatment": 3777,
      "Ġuses": 3778,
      "Ġaltern": 3779,
      "ĠGovern": 3780,
      "Ġgoals": 3781,
      "EC": 3782,
      "ĠInternational": 3783,
      "Ġdise": 3784,
      "Ġpsych": 3785,
      "Ġoption": 3786,
      "aud": 3787,
      "Ġideas": 3788,
      "yan": 3789,
      "aughter": 3790,
      "Ġfrequ": 3791,
      "Ġbeaut": 3792,
      "vention": 3793,
      "Ġdecades": 3794,
      "Ġsenior": 3795,
      "ĠWhy": 3796,
      "Ġcandidate": 3797,
      "ĠEarth": 3798,
      "Ġanaly": 3799,
      "Ġrap": 3800,
      "Ġtruth": 3801,
      "ĠArab": 3802,
      "Now": 3803,
      "board": 3804,
      "Ġrelated": 3805,
      "Ġcrisis": 3806,
      "Ġcrime": 3807,
      "osh": 3808,
      "Ġconflic": 3809,
      "Ġmist": 3810,
      "bum": 3811,
      "itor": 3812,
      "ĠEU": 3813,
      "resh": 3814,
      "ĠChristian": 3815,
      "Ġdeveloped": 3816,
      "Ġcorrect": 3817,
      "Advertisement": 3818,
      "ĠCr": 3819,
      "ĠSchool": 3820,
      "Ġorganiz": 3821,
      "Ġhighly": 3822,
      "Ġapparent": 3823,
      "Ġemb": 3824,
      "iance": 3825,
      "Ġchallenge": 3826,
      "Ġnoted": 3827,
      "Ġdrop": 3828,
      "Ġprograms": 3829,
      "ĠOur": 3830,
      "ocks": 3831,
      "Ġnormal": 3832,
      "Ġpeace": 3833,
      "ID": 3834,
      "Ġsto": 3835,
      "owers": 3836,
      "Ġreform": 3837,
      "000000000000015": 3838,
      "Ġbenefits": 3839,
      "ĠHigh": 3840,
      "Ġcontinues": 3841,
      "che": 3842,
      "ĠComp": 3843,
      "Ġincome": 3844,
      "Ġfully": 3845,
      "Ġcredit": 3846,
      "Ġnote": 3847,
      "ĠRec": 3848,
      "uty": 3849,
      "ĠPolice": 3850,
      "ĠSmith": 3851,
      "amm": 3852,
      "ĠBer": 3853,
      "Ġdoor": 3854,
      "ĠAngel": 3855,
      "Ġfirm": 3856,
      "Ġcharge": 3857,
      "Ġpreviously": 3858,
      "Ġsales": 3859,
      "Ġlines": 3860,
      "berg": 3861,
      "Ġclearly": 3862,
      "erved": 3863,
      "Ġexpand": 3864,
      "ource": 3865,
      "ĠFrom": 3866,
      "Ġrates": 3867,
      "Ġprem": 3868,
      "Ġintelligence": 3869,
      "Ġprimary": 3870,
      "cript": 3871,
      "Ġstraight": 3872,
      "aming": 3873,
      "Ġknowledge": 3874,
      "Ġlic": 3875,
      "itely": 3876,
      "Ġcrowd": 3877,
      "room": 3878,
      "Ġsave": 3879,
      "Ġsuccessful": 3880,
      "Ġspir": 3881,
      "Ġadvant": 3882,
      "Ġarm": 3883,
      "ĠDef": 3884,
      "urance": 3885,
      "Ġdraft": 3886,
      "ĠCouncil": 3887,
      "riage": 3888,
      "Ġresources": 3889,
      "According": 3890,
      "oti": 3891,
      "Ġfa": 3892,
      "ĠMac": 3893,
      "Ġcriminal": 3894,
      "Ġlarger": 3895,
      "Ġgreater": 3896,
      "Ġowners": 3897,
      "Ġrule": 3898,
      "Ġmeasure": 3899,
      "Ġspread": 3900,
      "Ġband": 3901,
      "Ġbrother": 3902,
      "oul": 3903,
      "Ġexch": 3904,
      "amas": 3905,
      "Ġlets": 3906,
      "Ġminor": 3907,
      "Ġreached": 3908,
      "Ġkept": 3909,
      "Ġplaces": 3910,
      "ounds": 3911,
      "Ġliter": 3912,
      "Ġcolor": 3913,
      "box": 3914,
      "Ġpatients": 3915,
      "Ġseemed": 3916,
      "olic": 3917,
      "ĠTom": 3918,
      "Ġshooting": 3919,
      "iled": 3920,
      "Ġtraff": 3921,
      "Ġleague": 3922,
      "iders": 3923,
      "Ġregular": 3924,
      "Ġdetermin": 3925,
      "Ġ2007": 3926,
      "secut": 3927,
      "EL": 3928,
      "ĠBrown": 3929,
      "vere": 3930,
      "iny": 3931,
      "Ġincident": 3932,
      "Ġworlds": 3933,
      "inn": 3934,
      "ĠFlor": 3935,
      "ĠSyria": 3936,
      "ki": 3937,
      "ĠGold": 3938,
      "Ġmanager": 3939,
      "Ġrare": 3940,
      "Ġvirt": 3941,
      "Ġfeet": 3942,
      "Ġsources": 3943,
      "Ġstudies": 3944,
      "52": 3945,
      "Ġfavorite": 3946,
      "Ġsend": 3947,
      "ranch": 3948,
      "Ġmanufact": 3949,
      "ĠUnion": 3950,
      "antly": 3951,
      "ĠDis": 3952,
      "Ġknows": 3953,
      "Ġpros": 3954,
      "Ġboy": 3955,
      "Ġemot": 3956,
      "Ġpun": 3957,
      "ĠUp": 3958,
      "Ġoptions": 3959,
      "ĠGeorge": 3960,
      "ategy": 3961,
      "ĠInternet": 3962,
      "Ġvoice": 3963,
      "Ġcaused": 3964,
      "ĠLa": 3965,
      "Ġfighting": 3966,
      "Ġstatus": 3967,
      "Ġabsolute": 3968,
      "ris": 3969,
      "Ġenem": 3970,
      "Ġwhats": 3971,
      "Ġcities": 3972,
      "EO": 3973,
      "ĠMag": 3974,
      "Ġrise": 3975,
      "71": 3976,
      "days": 3977,
      "Ġreflect": 3978,
      "orter": 3979,
      "Ġunc": 3980,
      "ĠMost": 3981,
      "41": 3982,
      "61": 3983,
      "ĠWere": 3984,
      "orney": 3985,
      "Ġir": 3986,
      "Ġactivity": 3987,
      "Ġintegr": 3988,
      "ĠBre": 3989,
      "ero": 3990,
      "Ġlaun": 3991,
      "ĠRob": 3992,
      "Ġemployees": 3993,
      "Ġcalling": 3994,
      "Ġnames": 3995,
      "oday": 3996,
      "band": 3997,
      "By": 3998,
      "Ġgreen": 3999,
      "ios": 4000,
      "ĠGeneral": 4001,
      "icit": 4002,
      "Ġshut": 4003,
      "levision": 4004,
      "ube": 4005,
      "Ġtrou": 4006,
      "Ġbasic": 4007,
      "Ġclaimed": 4008,
      "Ġslight": 4009,
      "ength": 4010,
      "ING": 4011,
      "Ġresearchers": 4012,
      "Ġdemocr": 4013,
      "while": 4014,
      "All": 4015,
      "Ġwilling": 4016,
      "Ġended": 4017,
      "Ġspend": 4018,
      "Ġswe": 4019,
      "oles": 4020,
      "Ġprices": 4021,
      "just": 4022,
      "Ġlik": 4023,
      "craft": 4024,
      "term": 4025,
      "ĠApple": 4026,
      "Ġadding": 4027,
      "Ġtraditional": 4028,
      "Ġjump": 4029,
      "ĠChic": 4030,
      "Ġ31": 4031,
      "ĠHillary": 4032,
      "Ġalbum": 4033,
      "00006440000000000000000000006": 4034,
      "AP": 4035,
      "Ġsupposed": 4036,
      "ifying": 4037,
      "ords": 4038,
      "Ġeth": 4039,
      "Ġattract": 4040,
      "etic": 4041,
      "fd": 4042,
      "Ġraised": 4043,
      "Ġcharges": 4044,
      "me": 4045,
      "Is": 4046,
      "wide": 4047,
      "Ġcreating": 4048,
      "usion": 4049,
      "bon": 4050,
      "Ġfine": 4051,
      "iced": 4052,
      "alse": 4053,
      "Ġmostly": 4054,
      "Ġgold": 4055,
      "Ġyouve": 4056,
      "Ġpolicies": 4057,
      "Ġacqu": 4058,
      "Ġconcerns": 4059,
      "Ġhappens": 4060,
      "Ġimpl": 4061,
      "Ġcommer": 4062,
      "Ġbeat": 4063,
      "53": 4064,
      "right": 4065,
      "roll": 4066,
      "kn": 4067,
      "Ġscen": 4068,
      "Ġcars": 4069,
      "mit": 4070,
      "Ġstyle": 4071,
      "Ġrank": 4072,
      "Ġleaving": 4073,
      "Ġhospital": 4074,
      "Ġpredict": 4075,
      "sey": 4076,
      "Ġweb": 4077,
      "Ġcry": 4078,
      "Ġauthorities": 4079,
      "Ġfemale": 4080,
      "ĠSun": 4081,
      "iju": 4082,
      "Ġfunding": 4083,
      "ĠReg": 4084,
      "Ġappl": 4085,
      "OU": 4086,
      "Ġpush": 4087,
      "Ġmer": 4088,
      "Ġwait": 4089,
      "Ġactual": 4090,
      "Ġseeing": 4091,
      "Ġvac": 4092,
      "Ġconcept": 4093,
      "ville": 4094,
      "ipp": 4095,
      "que": 4096,
      "ĠAlex": 4097,
      "Ġensure": 4098,
      "ros": 4099,
      "ĠAccording": 4100,
      "ĠLaw": 4101,
      "Ġbehavior": 4102,
      "Ġcritical": 4103,
      "ribution": 4104,
      "Ġanti": 4105,
      "omen": 4106,
      "Ġweight": 4107,
      "ĠGermany": 4108,
      "tt": 4109,
      "Ġvalues": 4110,
      "Ġbirth": 4111,
      "Ġplant": 4112,
      "Ġ35": 4113,
      "Ġmechan": 4114,
      "inger": 4115,
      "more": 4116,
      "Ġagreement": 4117,
      "Ġoffered": 4118,
      "ota": 4119,
      "Ġadop": 4120,
      "Ġdire": 4121,
      "ĠBay": 4122,
      "Ġbrief": 4123,
      "ĠTrans": 4124,
      "Ġwild": 4125,
      "Ġrevealed": 4126,
      "iverse": 4127,
      "ĠScott": 4128,
      "ĠPort": 4129,
      "Ġdevices": 4130,
      "cb": 4131,
      "Ġnations": 4132,
      "arliam": 4133,
      "Ġapplication": 4134,
      "Ġwhatever": 4135,
      "Ġrecords": 4136,
      "Ġwat": 4137,
      "ipped": 4138,
      "ĠBecause": 4139,
      "IA": 4140,
      "roid": 4141,
      "Ġstation": 4142,
      "ĠSecret": 4143,
      "itude": 4144,
      "ĠMatt": 4145,
      "earch": 4146,
      "Ġqual": 4147,
      "Ġchoose": 4148,
      "rows": 4149,
      "Ġlawy": 4150,
      "ĠFranc": 4151,
      "ĠMo": 4152,
      "Ġenforce": 4153,
      "onent": 4154,
      "Ġposted": 4155,
      "81": 4156,
      "Ġmassive": 4157,
      "Ġpicture": 4158,
      "istry": 4159,
      "Ġbeg": 4160,
      "ya": 4161,
      "Ġbelieved": 4162,
      "ĠPhil": 4163,
      "Ġlearned": 4164,
      "ado": 4165,
      "Ġcelebr": 4166,
      "Ġpropos": 4167,
      "ĠYes": 4168,
      ",\"": 4169,
      "ears": 4170,
      "ĠEngland": 4171,
      "Ġfeeling": 4172,
      "Ġetc": 4173,
      "Ġdream": 4174,
      "ĠOp": 4175,
      "acing": 4176,
      "Ġparties": 4177,
      "ijuana": 4178,
      "Ġwonder": 4179,
      "Ġgrand": 4180,
      "ĠStud": 4181,
      "Ġcommit": 4182,
      "ĠGet": 4183,
      "rian": 4184,
      "Ġstrategy": 4185,
      "Ġwhom": 4186,
      "odes": 4187,
      "Ġenter": 4188,
      "igned": 4189,
      "Ġproduced": 4190,
      "azing": 4191,
      "Ġ80": 4192,
      "Ġarrested": 4193,
      "ica": 4194,
      "lined": 4195,
      "Ġtemper": 4196,
      "Ġasking": 4197,
      "Ġmission": 4198,
      "Ġfat": 4199,
      "rant": 4200,
      "Ġshowing": 4201,
      "ĠPhoto": 4202,
      "orial": 4203,
      "Ġproduce": 4204,
      "Some": 4205,
      "Ġconfirmed": 4206,
      "Ġcru": 4207,
      "Ġdebt": 4208,
      "IL": 4209,
      "Ġstreet": 4210,
      "Ġnegoti": 4211,
      "Ġvictims": 4212,
      "Ġlose": 4213,
      "Be": 4214,
      "lick": 4215,
      "Ġ90": 4216,
      "Ġindependent": 4217,
      "Ġborder": 4218,
      "Ġstream": 4219,
      "ĠMod": 4220,
      "Ġinfluence": 4221,
      "Ġteac": 4222,
      "Ġoperations": 4223,
      "ĠHealth": 4224,
      "Ġtend": 4225,
      "ugg": 4226,
      "rate": 4227,
      "aks": 4228,
      "Ġestablish": 4229,
      "fa": 4230,
      "Ġdrink": 4231,
      "Ġprovides": 4232,
      "Ġminister": 4233,
      "ils": 4234,
      "ona": 4235,
      "ST": 4236,
      "New": 4237,
      "ĠLou": 4238,
      "Ġresidents": 4239,
      "ĠBig": 4240,
      "aked": 4241,
      "Ġadvoc": 4242,
      "Ġdefend": 4243,
      "Ġdigital": 4244,
      "ĠBush": 4245,
      "ĠLab": 4246,
      "overy": 4247,
      "icians": 4248,
      "ĠAustralia": 4249,
      "Ġpattern": 4250,
      "Ġruns": 4251,
      "uman": 4252,
      "ĠAM": 4253,
      "Ġfreedom": 4254,
      "Ġmount": 4255,
      "ented": 4256,
      "rav": 4257,
      "ĠOther": 4258,
      "Ġbab": 4259,
      "Ġimages": 4260,
      "cription": 4261,
      "ection": 4262,
      "ea": 4263,
      "ĠIr": 4264,
      "Ġinstall": 4265,
      "Ġeffective": 4266,
      "Ġvill": 4267,
      "Ġbenefit": 4268,
      "Ġhighest": 4269,
      "Ġweekend": 4270,
      "ĠGreat": 4271,
      "Ġchem": 4272,
      "arliament": 4273,
      "ĠWestern": 4274,
      "ags": 4275,
      "Ġresponsible": 4276,
      "Ġlearning": 4277,
      "ĠWall": 4278,
      "Ġhavent": 4279,
      "Ġtypes": 4280,
      "Ġopposition": 4281,
      "estic": 4282,
      "ront": 4283,
      "Ġdollars": 4284,
      "ĠFlorida": 4285,
      "ĠSl": 4286,
      "000000000000146": 4287,
      "Ġfit": 4288,
      "ĠPress": 4289,
      "ĠPalest": 4290,
      "ĠMal": 4291,
      "Ġworse": 4292,
      "Ġtrain": 4293,
      "Ġsolution": 4294,
      "Ġbrand": 4295,
      "Ġmap": 4296,
      "Ġborn": 4297,
      "ĠPeople": 4298,
      "Ġopening": 4299,
      "Ġtheory": 4300,
      "Ġtick": 4301,
      "Ġinvestment": 4302,
      "Ġear": 4303,
      "Ġoffers": 4304,
      "Ġsection": 4305,
      "Ġgenerally": 4306,
      "iation": 4307,
      "Ġinterested": 4308,
      "ĠMil": 4309,
      "ĠMany": 4310,
      "Ġtrial": 4311,
      "Ġder": 4312,
      "ĠYour": 4313,
      "ĠDel": 4314,
      "Ġexplained": 4315,
      "Ġagreed": 4316,
      "Ġran": 4317,
      "Ġhero": 4318,
      "ĠMike": 4319,
      "Ġkick": 4320,
      "Ġmur": 4321,
      "Ġdaily": 4322,
      "000000000000152": 4323,
      "ĠBu": 4324,
      "cell": 4325,
      "ipe": 4326,
      "Ġassum": 4327,
      "tons": 4328,
      "mine": 4329,
      "Ġreplace": 4330,
      "ĠCommittee": 4331,
      "ste": 4332,
      "db": 4333,
      "Ar": 4334,
      "Ġdefe": 4335,
      "ĠLiber": 4336,
      "Ġmillions": 4337,
      "rol": 4338,
      "Ġpartners": 4339,
      "Ġoccas": 4340,
      "ĠNFL": 4341,
      "ĠJustice": 4342,
      "ĠCup": 4343,
      "Ġmemory": 4344,
      "Ġload": 4345,
      "Ġunderstanding": 4346,
      "ĠChicago": 4347,
      "Re": 4348,
      "Ġdestroy": 4349,
      "Ġbur": 4350,
      "Ġopinion": 4351,
      "ĠAtt": 4352,
      "ties": 4353,
      "Ġheavy": 4354,
      "ctors": 4355,
      "Ġproposed": 4356,
      "ĠTer": 4357,
      "Ġhundreds": 4358,
      "Ġextremely": 4359,
      "ĠFin": 4360,
      "Ġcondition": 4361,
      "illing": 4362,
      "Ġassociated": 4363,
      "udd": 4364,
      "oly": 4365,
      "Ġ32": 4366,
      "However": 4367,
      "Ġhell": 4368,
      "Ġ2006": 4369,
      "atically": 4370,
      "ĠMicro": 4371,
      "Ġsites": 4372,
      "ĠArt": 4373,
      "Ġonto": 4374,
      "Ġillegal": 4375,
      "ĠFrance": 4376,
      "ĠSam": 4377,
      "Ġvs": 4378,
      "51": 4379,
      "Ġunlike": 4380,
      "Ġprotest": 4381,
      "CC": 4382,
      "Ġthus": 4383,
      "Ġreject": 4384,
      "ĠOffice": 4385,
      "Ġprofessional": 4386,
      "No": 4387,
      "pri": 4388,
      "Ġjudge": 4389,
      "uries": 4390,
      "Ġfalse": 4391,
      "arks": 4392,
      "Ġchair": 4393,
      "icial": 4394,
      "Ġelectric": 4395,
      "Ġbasis": 4396,
      "97": 4397,
      "gen": 4398,
      "Ġopened": 4399,
      "Ġtelevision": 4400,
      "ĠCommission": 4401,
      "Ġmarriage": 4402,
      "ĠFound": 4403,
      "Ġstre": 4404,
      "rial": 4405,
      "Ġadvantage": 4406,
      "Ġsleep": 4407,
      "Ġsurround": 4408,
      "works": 4409,
      "ĠIslamic": 4410,
      "Ġbecomes": 4411,
      "Ġachieve": 4412,
      "icip": 4413,
      "SA": 4414,
      "Ġobtain": 4415,
      "Ġchurch": 4416,
      "Ġrestrict": 4417,
      "Ġinitial": 4418,
      "cape": 4419,
      "ĠEv": 4420,
      "ĠCommun": 4421,
      "Ġgirl": 4422,
      "ading": 4423,
      "Ġice": 4424,
      "Ġeasier": 4425,
      "96": 4426,
      "cience": 4427,
      "Ġcontrovers": 4428,
      "Ġscientists": 4429,
      "Ġmiles": 4430,
      "Ġannounce": 4431,
      "Ġnegative": 4432,
      "ĠAre": 4433,
      "Ġ500": 4434,
      "ĠSanders": 4435,
      "Ġaccused": 4436,
      "Ġlegislation": 4437,
      "Un": 4438,
      "dom": 4439,
      "ih": 4440,
      "Ġspl": 4441,
      "Ġwealth": 4442,
      "ĠUk": 4443,
      "Ġmax": 4444,
      "outhern": 4445,
      "Ġsolid": 4446,
      "Ġeye": 4447,
      "Ġbecoming": 4448,
      "Ġtim": 4449,
      "Ġactive": 4450,
      "ĠMad": 4451,
      "ĠSecurity": 4452,
      "ĠLike": 4453,
      "ĠAdd": 4454,
      "eline": 4455,
      "00006440000000000000000000007": 4456,
      "58": 4457,
      "ĠWindows": 4458,
      "Ex": 4459,
      "Ġwinning": 4460,
      "Ġserved": 4461,
      "Ġincred": 4462,
      "orthern": 4463,
      "Ġshared": 4464,
      "agues": 4465,
      "Ġlimit": 4466,
      "Ġmanagement": 4467,
      "Ġbottom": 4468,
      "ĠOver": 4469,
      "Ġresist": 4470,
      "Ġharm": 4471,
      "Ġserve": 4472,
      "Ġrat": 4473,
      "Ġreduce": 4474,
      "ĠFox": 4475,
      "Ġspecies": 4476,
      "Ġnotice": 4477,
      "ortunately": 4478,
      "Ġreturned": 4479,
      "Ġdocuments": 4480,
      "ĠVir": 4481,
      "Ġframe": 4482,
      "ander": 4483,
      "Ġcards": 4484,
      "ĠDist": 4485,
      "Ġbackground": 4486,
      "Ġscore": 4487,
      "rig": 4488,
      "BA": 4489,
      "Ġvictory": 4490,
      "Ġmale": 4491,
      "98": 4492,
      "dc": 4493,
      "Ġbed": 4494,
      "Ġ70": 4495,
      "inate": 4496,
      "ada": 4497,
      "known": 4498,
      "FC": 4499,
      "BS": 4500,
      "Ġmicro": 4501,
      "Ġamb": 4502,
      "coming": 4503,
      "istics": 4504,
      "mark": 4505,
      "Ġexplain": 4506,
      "Ġbomb": 4507,
      "Ġcommunities": 4508,
      "iful": 4509,
      "Ġdangerous": 4510,
      "ĠSince": 4511,
      "Ġdie": 4512,
      "Pro": 4513,
      "Ġlocation": 4514,
      "Ġconservative": 4515,
      "ram": 4516,
      "Ġphoto": 4517,
      "Ġfresh": 4518,
      "Ġteach": 4519,
      "ĠUs": 4520,
      "agn": 4521,
      "Ġputting": 4522,
      "fc": 4523,
      "Ġcomfort": 4524,
      "Ġnotes": 4525,
      "Ġhearing": 4526,
      "Ġpurpose": 4527,
      "Ġassault": 4528,
      "Ġdirection": 4529,
      "Ġexisting": 4530,
      "Ġinstance": 4531,
      "urb": 4532,
      "Ġbelief": 4533,
      "Ġcore": 4534,
      "Ġwatching": 4535,
      "Ġneighbor": 4536,
      "GB": 4537,
      "lant": 4538,
      "ĠGame": 4539,
      "Ġcandidates": 4540,
      "asts": 4541,
      "witch": 4542,
      "Ġcamera": 4543,
      "ĠCanadian": 4544,
      "lished": 4545,
      "Ġseparate": 4546,
      "ĠUN": 4547,
      "Ġaudience": 4548,
      "Ġdoubt": 4549,
      "Ġpurs": 4550,
      "ĠChurch": 4551,
      "ingly": 4552,
      "vest": 4553,
      "Ġmobile": 4554,
      "Ġdism": 4555,
      "Ġfaith": 4556,
      "Ġleadership": 4557,
      "Ġappeal": 4558,
      "ĠPM": 4559,
      "Ġanimals": 4560,
      "Ġmarijuana": 4561,
      "Ġdefinitely": 4562,
      "issions": 4563,
      "ĠInc": 4564,
      "ĠCle": 4565,
      "PS": 4566,
      "fb": 4567,
      "ining": 4568,
      "yright": 4569,
      "Ġinternet": 4570,
      "Ġcoverage": 4571,
      "Ġdrugs": 4572,
      "Ġworst": 4573,
      "Ġcontain": 4574,
      "OL": 4575,
      "Ġrepeated": 4576,
      "omas": 4577,
      "Ġsupporters": 4578,
      "acity": 4579,
      "Ġfloor": 4580,
      "Not": 4581,
      "94": 4582,
      "Ġradio": 4583,
      "za": 4584,
      "ĠTre": 4585,
      "Ġrefere": 4586,
      "Ġargument": 4587,
      "iliar": 4588,
      "Ġmachine": 4589,
      "Ġissued": 4590,
      "Ġsuggested": 4591,
      "Ġcoal": 4592,
      "EM": 4593,
      "Ġviews": 4594,
      "ĠJewish": 4595,
      "Ġclosed": 4596,
      "well": 4597,
      "Ġship": 4598,
      "Ġgirls": 4599,
      "Ġplays": 4600,
      "ampionship": 4601,
      "Ġlaunched": 4602,
      "Ġcommercial": 4603,
      "ĠHall": 4604,
      "ĠRo": 4605,
      "Ġtrend": 4606,
      "ĠTim": 4607,
      "inct": 4608,
      "ĠBank": 4609,
      "Ġtransfer": 4610,
      "ĠCarol": 4611,
      "gency": 4612,
      "Ġded": 4613,
      "ĠQue": 4614,
      "ĠInstitute": 4615,
      "Ġitems": 4616,
      "Ġstated": 4617,
      "oples": 4618,
      "ĠJohnson": 4619,
      "My": 4620,
      "ours": 4621,
      "iest": 4622,
      "ĠPC": 4623,
      "Ġlabor": 4624,
      "Ġblue": 4625,
      "Ġcharged": 4626,
      "Ġwel": 4627,
      "Ġdat": 4628,
      "Ġspoke": 4629,
      "bert": 4630,
      "ĠFBI": 4631,
      "olid": 4632,
      "Ġstructure": 4633,
      "ĠDirect": 4634,
      "tered": 4635,
      "ghan": 4636,
      "ius": 4637,
      "ĠAc": 4638,
      "ulf": 4639,
      "Ġtraffic": 4640,
      "ography": 4641,
      "Ġnine": 4642,
      "92": 4643,
      "Ġfarm": 4644,
      "Ġcompetition": 4645,
      "Ġrequires": 4646,
      "Ġplease": 4647,
      "olf": 4648,
      "Ġsmaller": 4649,
      "Ġnovel": 4650,
      "Ġdriving": 4651,
      "Ġnor": 4652,
      "ĠDec": 4653,
      "andom": 4654,
      "Ġhus": 4655,
      "iling": 4656,
      "Ġepisode": 4657,
      "Ġtesting": 4658,
      "Ġtask": 4659,
      "zen": 4660,
      "ĠLos": 4661,
      "ĠPre": 4662,
      "Ġtelling": 4663,
      "Ġhack": 4664,
      "Ġsun": 4665,
      "Ġdouble": 4666,
      "Ġdisease": 4667,
      "ĠChris": 4668,
      "Ġdiscovered": 4669,
      "kins": 4670,
      "Ġnone": 4671,
      "Ġsupported": 4672,
      "Ġentirely": 4673,
      "lines": 4674,
      "Ġgay": 4675,
      "Ġfinding": 4676,
      "Ġvehicle": 4677,
      "ady": 4678,
      "SP": 4679,
      "ĠMont": 4680,
      "Ġtools": 4681,
      "Ġcompar": 4682,
      "asy": 4683,
      "lege": 4684,
      "Ġlargely": 4685,
      "semb": 4686,
      "Ġcash": 4687,
      "Ġcateg": 4688,
      "Ġconcerned": 4689,
      "ĠDN": 4690,
      "icy": 4691,
      "ĠGree": 4692,
      "Ġactivities": 4693,
      "ulated": 4694,
      "Ġtransport": 4695,
      "ĠMer": 4696,
      "ĠIsraeli": 4697,
      "Ġbanks": 4698,
      "Get": 4699,
      "ads": 4700,
      "orrow": 4701,
      "ĠUkrain": 4702,
      "Ġstrength": 4703,
      "Ġexerc": 4704,
      "Ġwall": 4705,
      "ĠPri": 4706,
      "resp": 4707,
      "house": 4708,
      "ĠJim": 4709,
      "Ġcaught": 4710,
      "ĠVer": 4711,
      "Ġstrateg": 4712,
      "Ġsports": 4713,
      "izes": 4714,
      "Ġtruly": 4715,
      "Ġaspect": 4716,
      "Ġsurface": 4717,
      "iller": 4718,
      "Ġgrant": 4719,
      "Ġconsequ": 4720,
      "Ġolder": 4721,
      "ĠSup": 4722,
      "Ġallowing": 4723,
      "Ġrestaur": 4724,
      "Ġbusinesses": 4725,
      "Ġsan": 4726,
      "Ġraise": 4727,
      "going": 4728,
      "Ġstock": 4729,
      "ĠSub": 4730,
      "Ġaccur": 4731,
      "Ġcommittee": 4732,
      "Ġmurder": 4733,
      "ĠRobert": 4734,
      "ĠSil": 4735,
      "Ġdecade": 4736,
      "Ġholding": 4737,
      "Ġmissing": 4738,
      "ĠConf": 4739,
      "Ġafford": 4740,
      "Ġnorth": 4741,
      "ribute": 4742,
      "Ġ2005": 4743,
      "itable": 4744,
      "Ġdecisions": 4745,
      "Ġrough": 4746,
      "ym": 4747,
      "itcoin": 4748,
      "Ġconcern": 4749,
      "NN": 4750,
      "oyal": 4751,
      "cks": 4752,
      "Ġjustice": 4753,
      "ario": 4754,
      "ĠKen": 4755,
      "ĠJones": 4756,
      "Ġ45": 4757,
      "andon": 4758,
      "oman": 4759,
      "Ġbelieves": 4760,
      "ĠHere": 4761,
      "Ġcatch": 4762,
      "actions": 4763,
      "Ġcells": 4764,
      "ĠMiss": 4765,
      "cknow": 4766,
      "Ġorganizations": 4767,
      "arant": 4768,
      "ibrary": 4769,
      "ĠAfrican": 4770,
      "Ġpresence": 4771,
      "ĠGood": 4772,
      "Ġinsurance": 4773,
      "ossible": 4774,
      "Ġchann": 4775,
      "ĠPak": 4776,
      "ception": 4777,
      "Ġdepartment": 4778,
      "Ġhomes": 4779,
      "Ġconstruction": 4780,
      "Ġrefuge": 4781,
      "Ġ2018": 4782,
      "Ġannual": 4783,
      "ĠInstead": 4784,
      "Ġoffensive": 4785,
      "Ġphil": 4786,
      "Ġfuel": 4787,
      "abb": 4788,
      "Ġtells": 4789,
      "93": 4790,
      "rast": 4791,
      "Ġwitness": 4792,
      "osure": 4793,
      "Ġguess": 4794,
      "Ġoccup": 4795,
      "ĠKh": 4796,
      "ĠGOP": 4797,
      "Ġwaiting": 4798,
      "Mr": 4799,
      "Ġsequ": 4800,
      "Ġconflict": 4801,
      "Ġdeliver": 4802,
      "Ġlength": 4803,
      "Ġattend": 4804,
      "Ġplaced": 4805,
      "Ġfourth": 4806,
      "pective": 4807,
      "PA": 4808,
      "Ġeat": 4809,
      "ĠKorea": 4810,
      "ici": 4811,
      "Ġfiles": 4812,
      "Ġgeneration": 4813,
      "Ġproviding": 4814,
      "ĠSal": 4815,
      "Ġplanning": 4816,
      "Ġuseful": 4817,
      "itz": 4818,
      "Ġjoined": 4819,
      "Ġunit": 4820,
      "Ġmentioned": 4821,
      "Ġremoved": 4822,
      "anging": 4823,
      "ĠStep": 4824,
      "phone": 4825,
      "lig": 4826,
      "90": 4827,
      "Ġenforcement": 4828,
      "Ġassess": 4829,
      "Ġamazing": 4830,
      "Ġupdate": 4831,
      "Ġstopped": 4832,
      "Ġfant": 4833,
      "Ġrecommend": 4834,
      "ĠJeff": 4835,
      "ĠFore": 4836,
      "ups": 4837,
      "Ġscale": 4838,
      "Ġestablished": 4839,
      "Ġinterests": 4840,
      "Ġhasnt": 4841,
      "ĠJapanese": 4842,
      "Ġspokesman": 4843,
      "ĠProf": 4844,
      "Image": 4845,
      "Ġinjury": 4846,
      "Ġhousing": 4847,
      "Ġintroduced": 4848,
      "Ġiniti": 4849,
      "upp": 4850,
      "icon": 4851,
      "Ġcancer": 4852,
      "Ġcook": 4853,
      "Ġspirit": 4854,
      "Ġstick": 4855,
      "Ġmeasures": 4856,
      "Ġabuse": 4857,
      "Ġtransl": 4858,
      "ĠWil": 4859,
      "ĠLeg": 4860,
      "ĠConst": 4861,
      "oted": 4862,
      "vant": 4863,
      "Ġearn": 4864,
      "Ġmodels": 4865,
      "cious": 4866,
      "ĠCEO": 4867,
      "Ġsetting": 4868,
      "Ġearth": 4869,
      "Ġcoin": 4870,
      "Ġdog": 4871,
      "nel": 4872,
      "hens": 4873,
      "Ġclick": 4874,
      "Con": 4875,
      "ĠVirgin": 4876,
      "Ġbul": 4877,
      "Ġgraph": 4878,
      "Ġprefer": 4879,
      "Ġconversation": 4880,
      "Ġappropri": 4881,
      "olly": 4882,
      "rey": 4883,
      "Ġdiscussion": 4884,
      "Ġmanaged": 4885,
      "Ġhair": 4886,
      "Ġdownload": 4887,
      "Ġskills": 4888,
      "ĠAfghan": 4889,
      "ĠAngeles": 4890,
      "ĠAssociation": 4891,
      "Ġfinished": 4892,
      "ĠTHE": 4893,
      "ĠMicroso": 4894,
      "Ġacknow": 4895,
      "ancy": 4896,
      "Ġfocused": 4897,
      "ĠJud": 4898,
      "Ġcommitted": 4899,
      "Ġweak": 4900,
      "Ġconclud": 4901,
      "ĠPalestin": 4902,
      "ications": 4903,
      "Ġtherefore": 4904,
      "Ġidentified": 4905,
      "ka": 4906,
      "mas": 4907,
      "ĠRock": 4908,
      "CH": 4909,
      "Ġexclus": 4910,
      "ĠChar": 4911,
      "ĠAlthough": 4912,
      "ĠGroup": 4913,
      "Ġ2000": 4914,
      "Ġkeeping": 4915,
      "Ġtough": 4916,
      "ĠMet": 4917,
      "These": 4918,
      "gers": 4919,
      "Ġarrived": 4920,
      "Ġnewsp": 4921,
      "Ġsides": 4922,
      "ait": 4923,
      "Ġdetect": 4924,
      "Ġrelatively": 4925,
      "Ġdaughter": 4926,
      "ype": 4927,
      "win": 4928,
      "Ġtweet": 4929,
      "ridge": 4930,
      "Ġexchange": 4931,
      "Ġfunds": 4932,
      "ava": 4933,
      "Ġveter": 4934,
      "Ġslightly": 4935,
      "Ġfeels": 4936,
      "Ġoperation": 4937,
      "Ġfigures": 4938,
      "ĠSur": 4939,
      "ĠMP": 4940,
      "ĠFire": 4941,
      "Ġprotection": 4942,
      "enses": 4943,
      "Ġidentity": 4944,
      "ulate": 4945,
      "Ġgender": 4946,
      "ĠInter": 4947,
      "Ġtrip": 4948,
      "ĠPet": 4949,
      "Ġdepend": 4950,
      "isation": 4951,
      "Ġsteps": 4952,
      "Ġaggress": 4953,
      "Ġscri": 4954,
      "itutional": 4955,
      "!!": 4956,
      "apped": 4957,
      "Ġkid": 4958,
      "ĠSupreme": 4959,
      "Ġthanks": 4960,
      "Ġotherwise": 4961,
      "Ġcontext": 4962,
      "Ġmig": 4963,
      "ĠOut": 4964,
      "anda": 4965,
      "Ġsurvey": 4966,
      "Ġgain": 4967,
      "tr": 4968,
      "rees": 4969,
      "ula": 4970,
      "Ġelements": 4971,
      "500": 4972,
      "ĠBern": 4973,
      "isf": 4974,
      "Ġmere": 4975,
      "ĠKn": 4976,
      "ĠLouis": 4977,
      "dden": 4978,
      "Ġdefensive": 4979,
      "ication": 4980,
      "verse": 4981,
      "Ġseek": 4982,
      "Ġcorner": 4983,
      "Ġconnection": 4984,
      "Ġvolunt": 4985,
      "Ġsust": 4986,
      "ronic": 4987,
      "Ġcircum": 4988,
      "Ġfailure": 4989,
      "Ġscientific": 4990,
      "Ġbod": 4991,
      "DA": 4992,
      "ĠST": 4993,
      "ĠTheir": 4994,
      "yp": 4995,
      "Ġmarkets": 4996,
      "Ġroll": 4997,
      "eah": 4998,
      "iot": 4999,
      "Ġtransform": 5000,
      "Ġsouth": 5001,
      "wing": 5002,
      "Ġhate": 5003,
      "Ġstarts": 5004,
      "Ġkilling": 5005,
      "Ġphotos": 5006,
      "equ": 5007,
      "Ġspect": 5008,
      "adium": 5009,
      "More": 5010,
      "Ġsubm": 5011,
      "Ġstruct": 5012,
      "Ġremind": 5013,
      "Ġstrike": 5014,
      "200": 5015,
      "Ġwindow": 5016,
      "Ġge": 5017,
      "acks": 5018,
      "Ġseasons": 5019,
      "Ġpet": 5020,
      "ĠNor": 5021,
      "makers": 5022,
      "place": 5023,
      "outs": 5024,
      "Ġsch": 5025,
      "ĠJose": 5026,
      "bre": 5027,
      "Ġtalks": 5028,
      "uct": 5029,
      "ĠAndroid": 5030,
      "Ġstanding": 5031,
      "Ġspeaking": 5032,
      "Ġbigger": 5033,
      "ancing": 5034,
      "umn": 5035,
      "RA": 5036,
      "Ġsudden": 5037,
      "Ġcollection": 5038,
      "Ġsuggests": 5039,
      "rick": 5040,
      "Ġimmigration": 5041,
      "Ġtaxes": 5042,
      "Ġplanned": 5043,
      "Ġstandards": 5044,
      "ĠLast": 5045,
      "how": 5046,
      "Ġenvironmental": 5047,
      "Ġmental": 5048,
      "Ġfamiliar": 5049,
      "Ġfle": 5050,
      "lor": 5051,
      "Ġpossibly": 5052,
      "Ġsupply": 5053,
      "atures": 5054,
      "kin": 5055,
      "azon": 5056,
      "arsh": 5057,
      "Ġcarried": 5058,
      "kes": 5059,
      "Ġcountrys": 5060,
      "Ġdriver": 5061,
      "Ġwish": 5062,
      "ĠAfrica": 5063,
      "Ġrevolution": 5064,
      "ĠJoe": 5065,
      "apers": 5066,
      "ighter": 5067,
      "ĠSecretary": 5068,
      "Ġseconds": 5069,
      "gu": 5070,
      "Ġneighb": 5071,
      "Ġaward": 5072,
      "Ġhelping": 5073,
      "azine": 5074,
      "Ġpartner": 5075,
      "Ġguard": 5076,
      "Ġhappening": 5077,
      "Ġunderst": 5078,
      "imb": 5079,
      "isco": 5080,
      "ĠCollege": 5081,
      "season": 5082,
      "Ġimpossible": 5083,
      "uate": 5084,
      "Ġdecide": 5085,
      "uters": 5086,
      "ĠMary": 5087,
      "Ġcrew": 5088,
      "iser": 5089,
      "onym": 5090,
      "rations": 5091,
      "ĠAlso": 5092,
      "ĠBitcoin": 5093,
      "cher": 5094,
      "Ġabsolutely": 5095,
      "Ġshes": 5096,
      "Ġowner": 5097,
      "Ġalternative": 5098,
      "ĠAny": 5099,
      "Ġfiled": 5100,
      "Ġwed": 5101,
      "Ġrid": 5102,
      "Ġdevelopers": 5103,
      "la": 5104,
      "ynam": 5105,
      "ĠResearch": 5106,
      "eless": 5107,
      "icide": 5108,
      "Ġacadem": 5109,
      "Ġcold": 5110,
      "Ġterrit": 5111,
      "Ġunivers": 5112,
      "ĠTeam": 5113,
      "Ġunless": 5114,
      "Des": 5115,
      "Ġfilms": 5116,
      "idering": 5117,
      "Ġdomestic": 5118,
      "Ġappre": 5119,
      "ĠThomas": 5120,
      "rency": 5121,
      "ĠTime": 5122,
      "Ġtests": 5123,
      "Ġrich": 5124,
      "Ġturns": 5125,
      "Ġneighborhood": 5126,
      "Ġvariety": 5127,
      "gn": 5128,
      "Ġmut": 5129,
      "ĠArmy": 5130,
      "Ġdropped": 5131,
      "Ġapparently": 5132,
      "ĠJon": 5133,
      "hedul": 5134,
      "Ġbatter": 5135,
      "stream": 5136,
      "sp": 5137,
      "ĠDont": 5138,
      "Ġcommission": 5139,
      "Ġhonest": 5140,
      "Ġaccounts": 5141,
      "Ġsoldiers": 5142,
      "igan": 5143,
      "Ġ2004": 5144,
      "Ġvul": 5145,
      "ĠAtlant": 5146,
      "Ġbalance": 5147,
      "Ġvotes": 5148,
      "Ġscr": 5149,
      "Ġhed": 5150,
      "ĠUnder": 5151,
      "rd": 5152,
      "Ġregist": 5153,
      "Ġque": 5154,
      "Ġhumans": 5155,
      "ĠThose": 5156,
      "ĠSee": 5157,
      "erous": 5158,
      "ĠHam": 5159,
      "ocol": 5160,
      "awn": 5161,
      "ucky": 5162,
      "ipping": 5163,
      "owl": 5164,
      "gar": 5165,
      "Ġbeautiful": 5166,
      "ĠMexico": 5167,
      "Ġlosing": 5168,
      "Ġbeer": 5169,
      "Ġtack": 5170,
      "Ġcuts": 5171,
      "ĠSyrian": 5172,
      "Ġunits": 5173,
      "Ġarmy": 5174,
      "Ġ300": 5175,
      "Ġincreasingly": 5176,
      "Ġhealthy": 5177,
      "Ġinnov": 5178,
      "ĠPrime": 5179,
      "imal": 5180,
      "Americ": 5181,
      "Ġprinc": 5182,
      "isters": 5183,
      "Ġphilos": 5184,
      "Ġdegree": 5185,
      "Ġapply": 5186,
      "ĠDen": 5187,
      "Ġcloser": 5188,
      "mm": 5189,
      "aded": 5190,
      "ĠPut": 5191,
      "Ġworry": 5192,
      "Ġexperts": 5193,
      "Ġapplications": 5194,
      "Ġfellow": 5195,
      "Ġec": 5196,
      "uke": 5197,
      "ĠMartin": 5198,
      "ĠTwo": 5199,
      "Ġauthority": 5200,
      "eds": 5201,
      "Ġtwice": 5202,
      "Ġprofessor": 5203,
      "Ġcorporate": 5204,
      "Ġpair": 5205,
      "lets": 5206,
      "Ġadjust": 5207,
      "Ġoperating": 5208,
      "Ġsounds": 5209,
      "itect": 5210,
      "ĠFrank": 5211,
      "ĠMos": 5212,
      "Ġagencies": 5213,
      "Ġarms": 5214,
      "Ġapart": 5215,
      "rastructure": 5216,
      "Ġlived": 5217,
      "Ġchanging": 5218,
      "Ġvir": 5219,
      "ashed": 5220,
      "Ġultimately": 5221,
      "Ġesc": 5222,
      "91": 5223,
      "Ġinternal": 5224,
      "ola": 5225,
      "TC": 5226,
      "pm": 5227,
      "icted": 5228,
      "ĠCamp": 5229,
      "Ġath": 5230,
      "ĠAN": 5231,
      "Le": 5232,
      "ruit": 5233,
      "ĠRyan": 5234,
      "Ġvast": 5235,
      "Ġregarding": 5236,
      "Ġschedul": 5237,
      "Ġpaying": 5238,
      "Ġreligion": 5239,
      "ĠUSA": 5240,
      "00006440000000000000000000001": 5241,
      "Ġdeveloping": 5242,
      "Ġlands": 5243,
      "Ġtast": 5244,
      "Ġskin": 5245,
      "Ġpossibility": 5246,
      "Ġexpensive": 5247,
      "ĠPlan": 5248,
      "Ġimagine": 5249,
      "Ġequip": 5250,
      "ĠGovernment": 5251,
      "Ġerror": 5252,
      "ania": 5253,
      "mans": 5254,
      "ĠOnce": 5255,
      "ĠBost": 5256,
      "Ġseeking": 5257,
      "ĠBur": 5258,
      "ansion": 5259,
      "Ġvehicles": 5260,
      "Ġflight": 5261,
      "onto": 5262,
      "ĠAri": 5263,
      "Ġvision": 5264,
      "ĠCath": 5265,
      "Ġyards": 5266,
      "coh": 5267,
      "HL": 5268,
      "ĠDon": 5269,
      "roud": 5270,
      "Ġelim": 5271,
      "Ġelections": 5272,
      "Ġsitting": 5273,
      "ĠBob": 5274,
      "ayer": 5275,
      "Ġheat": 5276,
      "ader": 5277,
      "Last": 5278,
      "Ġsymb": 5279,
      "ĠImages": 5280,
      "ĠFe": 5281,
      "IM": 5282,
      "ĠCentral": 5283,
      "Ġinstit": 5284,
      "part": 5285,
      "ĠProt": 5286,
      "ums": 5287,
      "ĠWho": 5288,
      "Ġdistrict": 5289,
      "OW": 5290,
      "Ġsolar": 5291,
      "Ġcovered": 5292,
      "Ġresponsibility": 5293,
      "Ġdeploy": 5294,
      "ologies": 5295,
      "ĠPeter": 5296,
      "ĠPlease": 5297,
      "Thats": 5298,
      "isted": 5299,
      "ĠPublic": 5300,
      "Ġtheyve": 5301,
      "ĠJes": 5302,
      "Ġcapacity": 5303,
      "ĠService": 5304,
      "Ġserver": 5305,
      "ocal": 5306,
      "Ġfol": 5307,
      "ĠMass": 5308,
      "ĠMiddle": 5309,
      "Read": 5310,
      "osen": 5311,
      "Ġhyp": 5312,
      "Ġbroken": 5313,
      "Ġshall": 5314,
      "ano": 5315,
      "Ġsurprise": 5316,
      "Ġfif": 5317,
      "Ġpresented": 5318,
      "Ġunion": 5319,
      "Ġstars": 5320,
      "Ġpil": 5321,
      "ĠEgy": 5322,
      "hi": 5323,
      "Ġton": 5324,
      "Ġlob": 5325,
      "uration": 5326,
      "Ġintended": 5327,
      "Ġhusband": 5328,
      "Ġguarant": 5329,
      "Ġ202": 5330,
      "Ġanimal": 5331,
      "Ġforms": 5332,
      "Ġspecifically": 5333,
      "Ġplanet": 5334,
      "Ġdrivers": 5335,
      "itors": 5336,
      "prof": 5337,
      "Ġfamous": 5338,
      "Ġtrail": 5339,
      "Ġtight": 5340,
      "Pl": 5341,
      "Ġuniversity": 5342,
      "Ġwriter": 5343,
      "Ġodd": 5344,
      "ĠIN": 5345,
      "porary": 5346,
      "Ġing": 5347,
      "enced": 5348,
      "Ġsea": 5349,
      "Cl": 5350,
      "Ġexpert": 5351,
      "rible": 5352,
      "Ġstreets": 5353,
      "Ġflow": 5354,
      "AA": 5355,
      "ĠLat": 5356,
      "eder": 5357,
      "Ġhelps": 5358,
      "ION": 5359,
      "Ġpotentially": 5360,
      "Ġrapid": 5361,
      "ker": 5362,
      "Ġoccurred": 5363,
      "ĠChief": 5364,
      "Ġestimated": 5365,
      "avy": 5366,
      "ipl": 5367,
      "Ġdetermine": 5368,
      "Ġbreat": 5369,
      "Ġfired": 5370,
      "Ġdepart": 5371,
      "Ġlocated": 5372,
      "Ġpieces": 5373,
      "IV": 5374,
      "Ġ34": 5375,
      "oom": 5376,
      "ointed": 5377,
      "LE": 5378,
      "oving": 5379,
      "ĠBritain": 5380,
      "ĠDistrict": 5381,
      "ĠMur": 5382,
      "ĠFoundation": 5383,
      "ĠSocial": 5384,
      "Ġprove": 5385,
      "rist": 5386,
      "Ġconce": 5387,
      "Ġrandom": 5388,
      "Ġequal": 5389,
      "ĠSing": 5390,
      "ĠGal": 5391,
      "coin": 5392,
      "Trump": 5393,
      "Ġprepared": 5394,
      "Ġschem": 5395,
      "Ġgar": 5396,
      "ĠOpen": 5397,
      "Ġselling": 5398,
      "vis": 5399,
      "phas": 5400,
      "ĠWin": 5401,
      "ENT": 5402,
      "Ġbringing": 5403,
      "ressive": 5404,
      "ĠRub": 5405,
      "Ġteen": 5406,
      "IP": 5407,
      "IG": 5408,
      "point": 5409,
      "Ġconsult": 5410,
      "reens": 5411,
      "ĠDan": 5412,
      "Ġstress": 5413,
      "och": 5414,
      "Ġtrig": 5415,
      "Ġconclus": 5416,
      "Ġsecure": 5417,
      "ĠParis": 5418,
      "Ġinsp": 5419,
      "Ġfaster": 5420,
      "ĠFree": 5421,
      "Ġrefused": 5422,
      "Ġsector": 5423,
      "Ġcooper": 5424,
      "illa": 5425,
      "inating": 5426,
      "neys": 5427,
      "uster": 5428,
      "ĠSant": 5429,
      "ĠMel": 5430,
      "Ġ44": 5431,
      "Ġboost": 5432,
      "ĠWeb": 5433,
      "Ġoffering": 5434,
      "Ġdin": 5435,
      "Ġcouncil": 5436,
      "Ġconducted": 5437,
      "ĠRem": 5438,
      "Ġtroops": 5439,
      "Ġoriginally": 5440,
      "aine": 5441,
      "Ġtourn": 5442,
      "ĠFederal": 5443,
      "ĠCharl": 5444,
      "Ġprosecut": 5445,
      "Ġvoted": 5446,
      "Ġplenty": 5447,
      "ĠRichard": 5448,
      "ĠCarolina": 5449,
      "Ġvulner": 5450,
      "Ġequipment": 5451,
      "Ġremove": 5452,
      "Ġinfrastructure": 5453,
      "ĠSpr": 5454,
      "Ġcarbon": 5455,
      "ĠBoth": 5456,
      "ĠStr": 5457,
      "Ġbroke": 5458,
      "Ġmethods": 5459,
      "Ġjail": 5460,
      "Ġpositions": 5461,
      "Ġid": 5462,
      "Ġelected": 5463,
      "Ġcultural": 5464,
      "Ġmarg": 5465,
      "Ġexpressed": 5466,
      "ĠWilliams": 5467,
      "Ġremained": 5468,
      "ĠCur": 5469,
      "DP": 5470,
      "orage": 5471,
      "Ġchallenges": 5472,
      "anche": 5473,
      "ĠMicrosoft": 5474,
      "ĠDuring": 5475,
      "Ġretail": 5476,
      "Ġgreatest": 5477,
      "ĠRiver": 5478,
      "ĠJournal": 5479,
      "Ġemails": 5480,
      "Ġobviously": 5481,
      "Ġchemical": 5482,
      "Ġproposal": 5483,
      "Ġcoord": 5484,
      "rie": 5485,
      "Ġsignificantly": 5486,
      "org": 5487,
      "Ġclin": 5488,
      "uthors": 5489,
      "related": 5490,
      "Ġfinish": 5491,
      "empts": 5492,
      "ĠMedic": 5493,
      "ĠGuard": 5494,
      "Ġplus": 5495,
      "Ġpointed": 5496,
      "Ġappearance": 5497,
      "Ġruling": 5498,
      "ĠBoston": 5499,
      "Sp": 5500,
      "ĠBook": 5501,
      "Ġsigns": 5502,
      "Ġfactors": 5503,
      "Ġclot": 5504,
      "Ġsport": 5505,
      "ĠAustralian": 5506,
      "Ġexperiment": 5507,
      "Ġreduced": 5508,
      "Ġcombat": 5509,
      "Ġherself": 5510,
      "Of": 5511,
      "lymp": 5512,
      "ortion": 5513,
      "ĠCru": 5514,
      "Ġyouth": 5515,
      "ownt": 5516,
      "ashion": 5517,
      "Ġindeed": 5518,
      "Ġdetermined": 5519,
      "Ġtele": 5520,
      "noon": 5521,
      "Ġsale": 5522,
      "net": 5523,
      "ĠHaw": 5524,
      "Ġfacing": 5525,
      "Ġapps": 5526,
      "Ġmal": 5527,
      "Ġpoliticians": 5528,
      "ĠAC": 5529,
      "Ġ33": 5530,
      "Ġmode": 5531,
      "Ġvideos": 5532,
      "Ġera": 5533,
      "Ġbought": 5534,
      "100000000000015": 5535,
      "endment": 5536,
      "Bl": 5537,
      "ĠSteve": 5538,
      "stein": 5539,
      "Ġattorney": 5540,
      "Ġcas": 5541,
      "Ġweapon": 5542,
      "ey": 5543,
      "ocking": 5544,
      "ĠIsland": 5545,
      "olved": 5546,
      "Ġwerent": 5547,
      "Ġthr": 5548,
      "Ġaffected": 5549,
      "Ġconcent": 5550,
      "ighters": 5551,
      "Ġinvolve": 5552,
      "idden": 5553,
      "Ġstret": 5554,
      "uts": 5555,
      "ucks": 5556,
      "Ġvoting": 5557,
      "Ġhurt": 5558,
      "Ġleads": 5559,
      "Ġwearing": 5560,
      "Ġpercentage": 5561,
      "Ġappreci": 5562,
      "auc": 5563,
      "From": 5564,
      "den": 5565,
      "ĠRad": 5566,
      "ruption": 5567,
      "Ġlongterm": 5568,
      "Ġsupporting": 5569,
      "Ġtact": 5570,
      "Ġscript": 5571,
      "ĠPac": 5572,
      "ĠColor": 5573,
      "Ġseriously": 5574,
      "arp": 5575,
      "Ġbasically": 5576,
      "Ġconsumers": 5577,
      "Ġliberal": 5578,
      "Ġwood": 5579,
      "Ġ2003": 5580,
      "Ġshift": 5581,
      "Ġplants": 5582,
      "Ġemergency": 5583,
      "Ġrecorded": 5584,
      "Ġshape": 5585,
      "sts": 5586,
      "Ġbound": 5587,
      "Ġargued": 5588,
      "Ġremaining": 5589,
      "Ġsurprising": 5590,
      "Ġexplos": 5591,
      "Ġelement": 5592,
      "Us": 5593,
      "Ġdifferences": 5594,
      "Ġgrew": 5595,
      "Ġopportunities": 5596,
      "Ġprospect": 5597,
      "Ġexcited": 5598,
      "ĠNAS": 5599,
      "ĠFrancisco": 5600,
      "cean": 5601,
      "Ġturning": 5602,
      "vey": 5603,
      "hered": 5604,
      "Ġminimum": 5605,
      "Ġaccident": 5606,
      "Ġpeoples": 5607,
      "Ġthank": 5608,
      "aling": 5609,
      "Ġcombined": 5610,
      "ĠAmazon": 5611,
      "Ġdiss": 5612,
      "Ġmotiv": 5613,
      "TH": 5614,
      "ĠConserv": 5615,
      "Ġhandle": 5616,
      "Ġ1990": 5617,
      "Ġexperienced": 5618,
      "ĠVirginia": 5619,
      "uls": 5620,
      "Ġpulled": 5621,
      "Ġswitch": 5622,
      "Ġglass": 5623,
      "Ġpowers": 5624,
      "Ġreporters": 5625,
      "ĠPower": 5626,
      "essions": 5627,
      "Ġdram": 5628,
      "Ġpurchase": 5629,
      "Ġprime": 5630,
      "ĠBet": 5631,
      "ĠSaud": 5632,
      "Ġidentify": 5633,
      "ĠLee": 5634,
      "300000000000015": 5635,
      "ĠToronto": 5636,
      "Ġmort": 5637,
      "Ġlisten": 5638,
      "ĠDaily": 5639,
      "ĠRoad": 5640,
      "Ġconsidering": 5641,
      "ĠNov": 5642,
      "ĠOlymp": 5643,
      "Ġconstruct": 5644,
      "Up": 5645,
      "Ġaid": 5646,
      "Ġquant": 5647,
      "ita": 5648,
      "Ġdim": 5649,
      "Ġ2001": 5650,
      "Ġbelong": 5651,
      "Go": 5652,
      "Ġcollabor": 5653,
      "Ġends": 5654,
      "ĠEgypt": 5655,
      "Ġhopes": 5656,
      "Ġnarr": 5657,
      "Ġtreated": 5658,
      "Ġminute": 5659,
      "Ġvisual": 5660,
      "ĠSpace": 5661,
      "aints": 5662,
      "Ġproced": 5663,
      "Ġcompleted": 5664,
      "Ġsac": 5665,
      "what": 5666,
      "Ġreact": 5667,
      "ĠRel": 5668,
      "ĠGen": 5669,
      "ĠShow": 5670,
      "Ġafternoon": 5671,
      "ket": 5672,
      "Ġpages": 5673,
      "Ġpassing": 5674,
      "Ġspring": 5675,
      "ogue": 5676,
      "terday": 5677,
      "uous": 5678,
      "ĠGrand": 5679,
      "mosp": 5680,
      "Ġburn": 5681,
      "lyn": 5682,
      "ĠForce": 5683,
      "ompl": 5684,
      "ivered": 5685,
      "Ġfra": 5686,
      "cohol": 5687,
      "standing": 5688,
      "Ġast": 5689,
      "Ġsuppl": 5690,
      "Ġstruggle": 5691,
      "Ġdistance": 5692,
      "Ġrevenue": 5693,
      "Ġopposed": 5694,
      "esters": 5695,
      "Ġtrouble": 5696,
      "Ġwidely": 5697,
      "ĠScot": 5698,
      "Ġlots": 5699,
      "Ġpanel": 5700,
      "ĠObamas": 5701,
      "Cont": 5702,
      "Ġtun": 5703,
      "Ġproceed": 5704,
      "Ġcalcul": 5705,
      "Ġstorm": 5706,
      "ĠBBC": 5707,
      "Even": 5708,
      "Ġtypically": 5709,
      "ĠProject": 5710,
      "Ġreference": 5711,
      "Ġbaby": 5712,
      "gment": 5713,
      "Ġdiscl": 5714,
      "rier": 5715,
      "Ġrein": 5716,
      "apping": 5717,
      "idel": 5718,
      "Ġattempts": 5719,
      "Ġseat": 5720,
      "Ġtalked": 5721,
      "Ġsevere": 5722,
      "Ġprivacy": 5723,
      "anged": 5724,
      "isher": 5725,
      "Ġtechnical": 5726,
      "Ġquiet": 5727,
      "Ġ36": 5728,
      "ĠMa": 5729,
      "osite": 5730,
      "Ġongoing": 5731,
      "ĠSqu": 5732,
      "Ġcraz": 5733,
      "see": 5734,
      "Ġemphas": 5735,
      "Ġadvance": 5736,
      "oves": 5737,
      "Ġapproved": 5738,
      "ĠAT": 5739,
      "Ġsubstant": 5740,
      "Ġcloud": 5741,
      "Ġdismiss": 5742,
      "ĠMem": 5743,
      "Pol": 5744,
      "aled": 5745,
      "Ġment": 5746,
      "Ġdenied": 5747,
      "Ġfrust": 5748,
      "ĠTheyre": 5749,
      "ĠOk": 5750,
      "ensions": 5751,
      "odd": 5752,
      "lers": 5753,
      "Ġgra": 5754,
      "Ġsatisf": 5755,
      "Ġevening": 5756,
      "rawn": 5757,
      "Ġsets": 5758,
      "Ġagent": 5759,
      "Ġcapable": 5760,
      "Ġmaster": 5761,
      "Ġmovies": 5762,
      "Ġinstitutions": 5763,
      "200000000000015": 5764,
      "rog": 5765,
      "inas": 5766,
      "Ġcontrast": 5767,
      "Ġapprox": 5768,
      "abilities": 5769,
      "Ġemp": 5770,
      "ĠGM": 5771,
      "ache": 5772,
      "aped": 5773,
      "ĠYet": 5774,
      "Ġpackage": 5775,
      "ĠAmericas": 5776,
      "ĠML": 5777,
      "Ġfactor": 5778,
      "ĠCNN": 5779,
      "Ġregime": 5780,
      "Another": 5781,
      "Ġconfident": 5782,
      "Ġcopyright": 5783,
      "SS": 5784,
      "hew": 5785,
      "First": 5786,
      "Ġstands": 5787,
      "Ġweather": 5788,
      "Ġentertain": 5789,
      "Ġzone": 5790,
      "ĠSol": 5791,
      "ĠSystem": 5792,
      "ributed": 5793,
      "Ġbuildings": 5794,
      "ĠPenn": 5795,
      "ĠWal": 5796,
      "Ġreaction": 5797,
      "ĠHuman": 5798,
      "Ġupgr": 5799,
      "Ġresponded": 5800,
      "Ġmatters": 5801,
      "Ġcreation": 5802,
      "Theres": 5803,
      "ini": 5804,
      "adow": 5805,
      "ĠID": 5806,
      "Ġforget": 5807,
      "Ġboys": 5808,
      "Ġinstruct": 5809,
      "Ġlit": 5810,
      "Ġlaugh": 5811,
      "Ġconfidence": 5812,
      "yth": 5813,
      "Ġbodies": 5814,
      "Ġmand": 5815,
      "ĠiPh": 5816,
      "ĠTra": 5817,
      "Ġflo": 5818,
      "Ġtradition": 5819,
      "Ġnumerous": 5820,
      "Ġunable": 5821,
      "ĠScience": 5822,
      "Ġrenew": 5823,
      "cel": 5824,
      "oken": 5825,
      "Ġvalid": 5826,
      "Ġflag": 5827,
      "ĠDC": 5828,
      "elly": 5829,
      "Ġbull": 5830,
      "agers": 5831,
      "Ġcopy": 5832,
      "ĠAndrew": 5833,
      "ĠSum": 5834,
      "Ġexplo": 5835,
      "oking": 5836,
      "Ġaircraft": 5837,
      "onom": 5838,
      "unction": 5839,
      "ĠJul": 5840,
      "respond": 5841,
      "ĠBraz": 5842,
      "ĠLin": 5843,
      "Ġwrites": 5844,
      "cont": 5845,
      "Ġviolent": 5846,
      "ĠWhe": 5847,
      "ulations": 5848,
      "Ġreaders": 5849,
      "Ġpitch": 5850,
      "Since": 5851,
      "Our": 5852,
      "idge": 5853,
      "Ġoptim": 5854,
      "Ġcrimes": 5855,
      "ĠChristmas": 5856,
      "Ġenemy": 5857,
      "ĠDou": 5858,
      "inals": 5859,
      "Ġdefault": 5860,
      "ato": 5861,
      "Ġfly": 5862,
      "Ġcart": 5863,
      "apter": 5864,
      "ĠBack": 5865,
      "Ġlegit": 5866,
      "Ġadvert": 5867,
      "met": 5868,
      "Ġcaption": 5869,
      "Ġintent": 5870,
      "Ġforg": 5871,
      "asp": 5872,
      "Ġdiscrim": 5873,
      "OD": 5874,
      "war": 5875,
      "Ġdeclared": 5876,
      "Ġobjects": 5877,
      "ooth": 5878,
      "Ġdelivered": 5879,
      "Ġdeclined": 5880,
      "Ġfaces": 5881,
      "Ġexperiences": 5882,
      "Ġexcell": 5883,
      "angers": 5884,
      "Ġsuffered": 5885,
      "Ġproud": 5886,
      "ishes": 5887,
      "Ġloved": 5888,
      "Ġdelay": 5889,
      "PR": 5890,
      "Ġperman": 5891,
      "Ġordered": 5892,
      "Ġinjured": 5893,
      "ternal": 5894,
      "ĠDirector": 5895,
      "Ġterrorist": 5896,
      "Ġshouldnt": 5897,
      "Ġreportedly": 5898,
      "Ġrot": 5899,
      "ĠSher": 5900,
      "Ġthoughts": 5901,
      "zer": 5902,
      "Ġpure": 5903,
      "Ġreporting": 5904,
      "Ġperspective": 5905,
      "Ġsem": 5906,
      "UT": 5907,
      "cribe": 5908,
      "ĠJews": 5909,
      "obe": 5910,
      "Ġpicked": 5911,
      "ĠKim": 5912,
      "Ġadvice": 5913,
      "Ġvan": 5914,
      "oral": 5915,
      "ĠFollow": 5916,
      "ĠFer": 5917,
      "abin": 5918,
      "Ġsam": 5919,
      "Ġaccompl": 5920,
      "Ġpictures": 5921,
      "hab": 5922,
      "ĠMaybe": 5923,
      "Ġcircumst": 5924,
      "Ġbrows": 5925,
      "Ġtransition": 5926,
      "Ġagents": 5927,
      "ĠPhot": 5928,
      "ixt": 5929,
      "Sc": 5930,
      "Ġexplains": 5931,
      "Ġplayoff": 5932,
      "Ġappropriate": 5933,
      "ĠRod": 5934,
      "ĠMedia": 5935,
      "ĠToday": 5936,
      "ĠAv": 5937,
      "ĠRev": 5938,
      "Ġadmitted": 5939,
      "Ġarmed": 5940,
      "edia": 5941,
      "Ġconnected": 5942,
      "Ġpublicly": 5943,
      "Ġguns": 5944,
      "ĠWood": 5945,
      "icious": 5946,
      "bur": 5947,
      "ĠVict": 5948,
      "Ġwalking": 5949,
      "Ġgiant": 5950,
      "Ġactivists": 5951,
      "mates": 5952,
      "ĠBus": 5953,
      "Ġsad": 5954,
      "Ġbatt": 5955,
      "look": 5956,
      "ĠSign": 5957,
      "astern": 5958,
      "Ġmessages": 5959,
      "mar": 5960,
      "Ġrail": 5961,
      "Ġgather": 5962,
      "Ġconfirm": 5963,
      "ĠLets": 5964,
      "employ": 5965,
      "ilty": 5966,
      "ĠMuslims": 5967,
      "Well": 5968,
      "Ġeditor": 5969,
      "uations": 5970,
      "Ġmoral": 5971,
      "Ġyell": 5972,
      "Ġradical": 5973,
      "Ġeval": 5974,
      "ounded": 5975,
      "ĠJackson": 5976,
      "resents": 5977,
      "abled": 5978,
      "Ġarchitect": 5979,
      "Ġroute": 5980,
      "Ġfindings": 5981,
      "ĠTechn": 5982,
      "uild": 5983,
      "ampion": 5984,
      "Ġupdates": 5985,
      "Ġnetworks": 5986,
      "Ġcoff": 5987,
      "ionally": 5988,
      "ĠFig": 5989,
      "dule": 5990,
      "Ġleaves": 5991,
      "aniel": 5992,
      "ĠWork": 5993,
      "run": 5994,
      "Ġtech": 5995,
      "Ġstatements": 5996,
      "pet": 5997,
      "ĠLife": 5998,
      "Ġrealize": 5999,
      "Ġcrack": 6000,
      "gl": 6001,
      "Ġfish": 6002,
      "nergy": 6003,
      "ĠNY": 6004,
      "Ġdoctors": 6005,
      "estival": 6006,
      "Ġfilled": 6007,
      "Ġquarterback": 6008,
      "Ġedge": 6009,
      "ĠLet": 6010,
      "Ġdipl": 6011,
      "Ġpractices": 6012,
      "ansas": 6013,
      "ĠSecond": 6014,
      "under": 6015,
      "100": 6016,
      "ĠOhio": 6017,
      "ĠRead": 6018,
      "Ġmissed": 6019,
      "ĠSov": 6020,
      "Ġsession": 6021,
      "Ġdynam": 6022,
      "iat": 6023,
      "Ġrain": 6024,
      "Ġ2002": 6025,
      "ĠHou": 6026,
      "Ġessentially": 6027,
      "Ġallegations": 6028,
      "Ġincor": 6029,
      "formation": 6030,
      "Ġargue": 6031,
      "useum": 6032,
      "ĠVol": 6033,
      "Ġexamples": 6034,
      "ĠOnly": 6035,
      "ga": 6036,
      "asure": 6037,
      "person": 6038,
      "Ġthinks": 6039,
      "isms": 6040,
      "acter": 6041,
      "Ġenh": 6042,
      "Ġ75": 6043,
      "essor": 6044,
      "class": 6045,
      "Ġeffectively": 6046,
      "erves": 6047,
      "irds": 6048,
      "omin": 6049,
      "Ġwear": 6050,
      "Ġdial": 6051,
      "ĠAnn": 6052,
      "otic": 6053,
      "Ġauthors": 6054,
      "ĠBlue": 6055,
      "Ġcauses": 6056,
      "Ġourselves": 6057,
      "Ġcontains": 6058,
      "ador": 6059,
      "ĠReuters": 6060,
      "Ġatmosp": 6061,
      "ĠHen": 6062,
      "ĠGeorg": 6063,
      "Ġpool": 6064,
      "Ġmarried": 6065,
      "Ġske": 6066,
      "Ġalt": 6067,
      "Ġlabel": 6068,
      "Ġexercise": 6069,
      "Ġbare": 6070,
      "Ġsecretary": 6071,
      "inent": 6072,
      "Ġwarm": 6073,
      "ERS": 6074,
      "arrow": 6075,
      "Ġlawyer": 6076,
      "Ġexpansion": 6077,
      "Ġrent": 6078,
      "ĠItal": 6079,
      "Ġtalent": 6080,
      "evin": 6081,
      "Ġphilosoph": 6082,
      "Ġ1980": 6083,
      "Ġprompt": 6084,
      "Ġtotally": 6085,
      "ubs": 6086,
      "Ġpref": 6087,
      "Ġshop": 6088,
      "ĠRE": 6089,
      "Ġfaced": 6090,
      "During": 6091,
      "Ġfacts": 6092,
      "Ġlisted": 6093,
      "Ġnewspaper": 6094,
      "arters": 6095,
      "Ġconfig": 6096,
      "Ġmir": 6097,
      "Ġcriticism": 6098,
      "Ġinjuries": 6099,
      "Follow": 6100,
      "Ġbond": 6101,
      "lo": 6102,
      "Ġinitially": 6103,
      "care": 6104,
      "Ġmaterials": 6105,
      "Ġdiplom": 6106,
      "Ġmoder": 6107,
      "Ġaccepted": 6108,
      "Ġbegins": 6109,
      "ourney": 6110,
      "Ġdatab": 6111,
      "Ġlinked": 6112,
      "Ġadvanced": 6113,
      "Ġwarned": 6114,
      "Ġsubsequ": 6115,
      "Ġscheduled": 6116,
      "Ġneither": 6117,
      "Ġsuit": 6118,
      "Ġarticles": 6119,
      "Ġexplan": 6120,
      "Ġdebut": 6121,
      "enda": 6122,
      "Ġcentre": 6123,
      "Ġresolution": 6124,
      "orders": 6125,
      "ĠSwed": 6126,
      "Ġsongs": 6127,
      "amental": 6128,
      "ĠSports": 6129,
      "Ġparent": 6130,
      "Ġmyster": 6131,
      "orry": 6132,
      "Ġinput": 6133,
      "Ġabandon": 6134,
      "Ġdesire": 6135,
      "II": 6136,
      "Ġsuc": 6137,
      "Ġstores": 6138,
      "Ġathlet": 6139,
      "Ġsurprised": 6140,
      "His": 6141,
      "ĠWeek": 6142,
      "Ġopponents": 6143,
      "ĠAfghanistan": 6144,
      "Ġfort": 6145,
      "Ġnecessarily": 6146,
      "Ġcoast": 6147,
      "esome": 6148,
      "hedule": 6149,
      "Ġimproved": 6150,
      "Tube": 6151,
      "Ġflood": 6152,
      "Ġthreats": 6153,
      "Ġconsequences": 6154,
      "erences": 6155,
      "Ġmoves": 6156,
      "Ġbutton": 6157,
      "TS": 6158,
      "ĠHist": 6159,
      "ĠBarack": 6160,
      "ĠMs": 6161,
      "erry": 6162,
      "Ġannouncement": 6163,
      "ĠMount": 6164,
      "Ġnearby": 6165,
      "Ġstood": 6166,
      "Ġapplied": 6167,
      "amin": 6168,
      "ĠStan": 6169,
      "Ġspons": 6170,
      "Ġcompanys": 6171,
      "ĠWalk": 6172,
      "orse": 6173,
      "sembly": 6174,
      "Ġmagn": 6175,
      "illance": 6176,
      "Ġ49": 6177,
      "ĠHol": 6178,
      "ilit": 6179,
      "Ġcreative": 6180,
      "ĠTO": 6181,
      "Ġphen": 6182,
      "Ġfranch": 6183,
      "ĠAff": 6184,
      "Ġpra": 6185,
      "Ġfollows": 6186,
      "ĠLib": 6187,
      "xual": 6188,
      "gent": 6189,
      "Ġrepresents": 6190,
      "Ġincreases": 6191,
      "Just": 6192,
      "ras": 6193,
      "Ġheads": 6194,
      "Ġfill": 6195,
      "Ġaf": 6196,
      "ĠISIS": 6197,
      "Ġdemocracy": 6198,
      "Ġremark": 6199,
      "ĠDev": 6200,
      "Ġperformed": 6201,
      "ĠDevelop": 6202,
      "Ġshots": 6203,
      "Ġtrib": 6204,
      "TV": 6205,
      "ĠAnother": 6206,
      "ĠLabour": 6207,
      "Ġtree": 6208,
      "Why": 6209,
      "Ġroughly": 6210,
      "Ġadds": 6211,
      "Ġmotor": 6212,
      "Ġentry": 6213,
      "Ġoverw": 6214,
      "athan": 6215,
      "Ġoffense": 6216,
      "Ġoutput": 6217,
      "Ġgrab": 6218,
      "Ġpushed": 6219,
      "aza": 6220,
      "ĠAriz": 6221,
      "usal": 6222,
      "ĠImage": 6223,
      "edy": 6224,
      "ĠIP": 6225,
      "Ġdecre": 6226,
      "Ġnative": 6227,
      "Ab": 6228,
      "Ġsought": 6229,
      "Ġ400": 6230,
      "Ġguilty": 6231,
      "Ġboss": 6232,
      "Ġinvestors": 6233,
      "ĠPrem": 6234,
      "Ġtargets": 6235,
      "Ġbehavi": 6236,
      "Ġconsistent": 6237,
      "Ġrising": 6238,
      "ĠColumb": 6239,
      "Ġregions": 6240,
      "Ġbrings": 6241,
      "Ġhistorical": 6242,
      "Ġclassic": 6243,
      "Other": 6244,
      "rank": 6245,
      "Ġfunctions": 6246,
      "Ġmanufacture": 6247,
      "ĠCarl": 6248,
      "Ġscored": 6249,
      "iffs": 6250,
      "Ġwarning": 6251,
      "rip": 6252,
      "icing": 6253,
      "Ġcorrespond": 6254,
      "Ġresc": 6255,
      "Ġartists": 6256,
      "Ġcombination": 6257,
      "ĠLake": 6258,
      "Ġhighlight": 6259,
      "Ġdistribution": 6260,
      "Ġsquare": 6261,
      "Ġbright": 6262,
      "Ġunlikely": 6263,
      "iques": 6264,
      "Ġsymbol": 6265,
      "ĠEach": 6266,
      "Ġentered": 6267,
      "Ġtom": 6268,
      "Ġdiscussed": 6269,
      "road": 6270,
      "ww": 6271,
      "Ġexistence": 6272,
      "ĠOF": 6273,
      "Ġhousehold": 6274,
      "Ġstring": 6275,
      "asters": 6276,
      "TA": 6277,
      "ĠPakistan": 6278,
      "Ġcolleagues": 6279,
      "Ġlock": 6280,
      "Ġwithd": 6281,
      "ĠIre": 6282,
      "MA": 6283,
      "Ġprint": 6284,
      "ĠOl": 6285,
      "Ġlie": 6286,
      "Ġsomewhat": 6287,
      "Ġlawsuit": 6288,
      "Ġreceiving": 6289,
      "Ġresident": 6290,
      "Ġfairly": 6291,
      "Ġbreaking": 6292,
      "Ġclasses": 6293,
      "Ġwaste": 6294,
      "alty": 6295,
      "App": 6296,
      "Ġalcohol": 6297,
      "Ġmanage": 6298,
      "duc": 6299,
      "Ġillust": 6300,
      "Ġtemperature": 6301,
      "Ġmoments": 6302,
      "Rep": 6303,
      "Ġdownt": 6304,
      "Ġfraud": 6305,
      "Ġsnow": 6306,
      "Ġconvin": 6307,
      "active": 6308,
      "sen": 6309,
      "onn": 6310,
      "Ġartist": 6311,
      "ĠAut": 6312,
      "Ġschol": 6313,
      "ĠMichigan": 6314,
      "Ġheavily": 6315,
      "irty": 6316,
      "Ġrow": 6317,
      "ĠRights": 6318,
      "ĠRight": 6319,
      "Ġsav": 6320,
      "enger": 6321,
      "ĠSupp": 6322,
      "oung": 6323,
      "Ġdefined": 6324,
      "Ġfemin": 6325,
      "arden": 6326,
      "Ġlibrary": 6327,
      "Ġprohib": 6328,
      "Ġmotion": 6329,
      "LA": 6330,
      "ala": 6331,
      "Ġsucceed": 6332,
      "ĠKorean": 6333,
      "Ġblow": 6334,
      "Ġlinks": 6335,
      "Ġimportance": 6336,
      "Ġclubs": 6337,
      "Ġbroadcast": 6338,
      "Res": 6339,
      "Ġempt": 6340,
      "Ġessential": 6341,
      "Ġparticipants": 6342,
      "fortunately": 6343,
      "Ġ48": 6344,
      "Ġconsumer": 6345,
      "Ġ37": 6346,
      "ĠWik": 6347,
      "Ġprotests": 6348,
      "Ġ42": 6349,
      "ensus": 6350,
      "Ind": 6351,
      "ĠDiv": 6352,
      "ĠSP": 6353,
      "ollywood": 6354,
      "ĠBrook": 6355,
      "Ġstorage": 6356,
      "Over": 6357,
      "Ġtow": 6358,
      "ĠiPhone": 6359,
      "Ġanywhere": 6360,
      "Ġcontest": 6361,
      "Ġclient": 6362,
      "Ġreplaced": 6363,
      "Ġnav": 6364,
      "Ġsick": 6365,
      "ĠBoard": 6366,
      "Ġrally": 6367,
      "ĠSeattle": 6368,
      "ĠSomet": 6369,
      "ĠCatholic": 6370,
      "Ġcurrency": 6371,
      "Ġdeaths": 6372,
      "ĠOld": 6373,
      "Ġcourts": 6374,
      "Am": 6375,
      "ocket": 6376,
      "host": 6377,
      "Ġcere": 6378,
      "044": 6379,
      "Ġride": 6380,
      "inem": 6381,
      "Ġbuying": 6382,
      "Add": 6383,
      "ĠDie": 6384,
      "Ġrelevant": 6385,
      "Ġmarketing": 6386,
      "ĠExp": 6387,
      "ican": 6388,
      "Ġallegedly": 6389,
      "Ġregulations": 6390,
      "li": 6391,
      "Ġfavour": 6392,
      "Ġmetal": 6393,
      "andal": 6394,
      "oked": 6395,
      "Ġyounger": 6396,
      "Ġfewer": 6397,
      "pass": 6398,
      "Ġacts": 6399,
      "ĠHel": 6400,
      "ĠRam": 6401,
      "Ġshif": 6402,
      "Ġpromise": 6403,
      "ĠGar": 6404,
      "Ġexpression": 6405,
      "ĠMot": 6406,
      "Ġcitys": 6407,
      "ORE": 6408,
      "Ġsplit": 6409,
      "ĠSaudi": 6410,
      "Ġfacility": 6411,
      "hetic": 6412,
      "Ġplot": 6413,
      "ĠLong": 6414,
      "isp": 6415,
      "Ġbitcoin": 6416,
      "Ġbag": 6417,
      "hips": 6418,
      "Ġcrazy": 6419,
      "Ġclosely": 6420,
      "uzz": 6421,
      "do": 6422,
      "Ġsees": 6423,
      "ĠElect": 6424,
      "Ġancient": 6425,
      "ayers": 6426,
      "Ġcraft": 6427,
      "Ġversions": 6428,
      "ĠEll": 6429,
      "Ġadults": 6430,
      "hus": 6431,
      "Spe": 6432,
      "Ġparliament": 6433,
      "mond": 6434,
      "Although": 6435,
      "Ġtransp": 6436,
      "Ġmagazine": 6437,
      "Many": 6438,
      "Ġbike": 6439,
      "Ġholds": 6440,
      "ĠIns": 6441,
      "Ġrum": 6442,
      "Ġacknowled": 6443,
      "Ġfashion": 6444,
      "ĠEr": 6445,
      "Ġplane": 6446,
      "Ġhoping": 6447,
      "acle": 6448,
      "Ġexperim": 6449,
      "night": 6450,
      "IF": 6451,
      "Ġevolution": 6452,
      "Ġisol": 6453,
      "Here": 6454,
      "Ġbon": 6455,
      "Ġimmigrants": 6456,
      "Ġbat": 6457,
      "Ġemotional": 6458,
      "ĠTurkey": 6459,
      "Ġopposite": 6460,
      "ĠCard": 6461,
      "ĠSk": 6462,
      "Ġsocalled": 6463,
      "Ġyoud": 6464,
      "illy": 6465,
      "Ġexcellent": 6466,
      "Ġ150": 6467,
      "ette": 6468,
      "Ġtrick": 6469,
      "Ġwave": 6470,
      "Ġ.\"": 6471,
      "ĠIreland": 6472,
      "Ġlies": 6473,
      "real": 6474,
      "onna": 6475,
      "Ġcampus": 6476,
      "Ġ38": 6477,
      "anish": 6478,
      "Ġimmediate": 6479,
      "Ġdetailed": 6480,
      "Ġvirtual": 6481,
      "ĠAL": 6482,
      "ĠHarr": 6483,
      "Ġhur": 6484,
      "Ġindustrial": 6485,
      "Ġeverybody": 6486,
      "Ġunus": 6487,
      "Ġmine": 6488,
      "ĠSn": 6489,
      "ĠWild": 6490,
      "DS": 6491,
      "Ġdeeply": 6492,
      "Ġteachers": 6493,
      "Ġcheap": 6494,
      "Ġchain": 6495,
      "ĠYouTube": 6496,
      "word": 6497,
      "Ġvice": 6498,
      "Ġinstru": 6499,
      "Ġposts": 6500,
      "Ġfundamental": 6501,
      "ĠHome": 6502,
      "ĠWatch": 6503,
      "Ġgrown": 6504,
      "Ġsuffering": 6505,
      "Ġtournament": 6506,
      "ĠHell": 6507,
      "efully": 6508,
      "Ġhardware": 6509,
      "Ġreturns": 6510,
      "Ġacting": 6511,
      "Ġcycle": 6512,
      "ĠBrazil": 6513,
      "Ġcircumstances": 6514,
      "ĠSoviet": 6515,
      "pan": 6516,
      "hand": 6517,
      "Ġharder": 6518,
      "Ġrestaurant": 6519,
      "Ġstrange": 6520,
      "eer": 6521,
      "Ġped": 6522,
      "cho": 6523,
      "Ġmainstream": 6524,
      "tion": 6525,
      "Ġtermin": 6526,
      "Ġflat": 6527,
      "ĠDown": 6528,
      "Ġwins": 6529,
      "Ġrelationships": 6530,
      "ĠEconom": 6531,
      "adel": 6532,
      "ĠFar": 6533,
      "ĠEric": 6534,
      "Ġyesterday": 6535,
      "Ġpushing": 6536,
      "ellect": 6537,
      "ĠAgain": 6538,
      "Ġextent": 6539,
      "water": 6540,
      "Ġreferred": 6541,
      "ena": 6542,
      "ĠHy": 6543,
      "Ġhat": 6544,
      "ĠNBA": 6545,
      "ĠPan": 6546,
      "600000000000015": 6547,
      "olve": 6548,
      "Ġdecline": 6549,
      "Ġcarrying": 6550,
      "Ġliterally": 6551,
      "ĠAsia": 6552,
      "Ġisland": 6553,
      "Ġmanner": 6554,
      "Ġmeat": 6555,
      "Ġadvent": 6556,
      "Ġcontroversial": 6557,
      "Ġurban": 6558,
      "Ġdivision": 6559,
      "Ġrepeatedly": 6560,
      "ĠBest": 6561,
      "Ġpatient": 6562,
      "Ġmouth": 6563,
      "state": 6564,
      "Ġformed": 6565,
      "ĠHouston": 6566,
      "Ġfeatured": 6567,
      "ĠJesus": 6568,
      "Ġcomfortable": 6569,
      "ulous": 6570,
      "Ġconfront": 6571,
      "bec": 6572,
      "Ġoverwhel": 6573,
      "Ġguide": 6574,
      "greg": 6575,
      "ician": 6576,
      "ĠTop": 6577,
      "Ġembr": 6578,
      "Ġalongside": 6579,
      "ĠPalestinian": 6580,
      "ĠGames": 6581,
      "ĠLu": 6582,
      "ĠPolit": 6583,
      "lls": 6584,
      "Ġobserv": 6585,
      "ĠClass": 6586,
      "Ġcompetitive": 6587,
      "Ġflu": 6588,
      "ĠFil": 6589,
      "Ġsharing": 6590,
      "ĠWeve": 6591,
      "Ġtiny": 6592,
      "ĠArch": 6593,
      "Ġrape": 6594,
      "Ġsigning": 6595,
      "Ġefficient": 6596,
      "Ġdedicated": 6597,
      "ĠGra": 6598,
      "ĠFam": 6599,
      "Ġwomens": 6600,
      "Ġegg": 6601,
      "Ġearned": 6602,
      "Ġowned": 6603,
      "Ġdepth": 6604,
      "Ġkinds": 6605,
      "ĠUkraine": 6606,
      "Ġpip": 6607,
      "Ġattempted": 6608,
      "etime": 6609,
      "Ġring": 6610,
      "anges": 6611,
      "Ġregional": 6612,
      "ller": 6613,
      "Ġpersons": 6614,
      "Ġcausing": 6615,
      "Ġcommitment": 6616,
      "nic": 6617,
      "Ġfrequently": 6618,
      "anes": 6619,
      "Ġrealized": 6620,
      "Ġwire": 6621,
      "uated": 6622,
      "Ġ64": 6623,
      "400000000000015": 6624,
      "ologist": 6625,
      "Ġdoctor": 6626,
      "Ġcert": 6627,
      "west": 6628,
      "ĠWars": 6629,
      "ĠMat": 6630,
      "Ġtargeted": 6631,
      "Ġdescribe": 6632,
      "Ġmedic": 6633,
      "ĠWhats": 6634,
      "ĠCy": 6635,
      "top": 6636,
      "Ġupdated": 6637,
      "FP": 6638,
      "ta": 6639,
      "ĠCharles": 6640,
      "ĠDavis": 6641,
      "pret": 6642,
      "Ġwalked": 6643,
      "ĠNations": 6644,
      "irms": 6645,
      "ĠSky": 6646,
      "Ġprotected": 6647,
      "ĠWay": 6648,
      "ĠJr": 6649,
      "Ġfasc": 6650,
      "700000000000015": 6651,
      "ĠValley": 6652,
      "Ġjoint": 6653,
      "Ġskill": 6654,
      "Ġupcoming": 6655,
      "Ġschedule": 6656,
      "atell": 6657,
      "OC": 6658,
      "ingu": 6659,
      "Ġinspired": 6660,
      "Ġtort": 6661,
      "Ġsurveillance": 6662,
      "ĠTay": 6663,
      "ĠPR": 6664,
      "ĠClub": 6665,
      "ĠMS": 6666,
      "Ġreput": 6667,
      "ideo": 6668,
      "Ġsand": 6669,
      "Ġacce": 6670,
      "rich": 6671,
      "sters": 6672,
      "Ġserving": 6673,
      "ĠBat": 6674,
      "iveness": 6675,
      "Ġsimpl": 6676,
      "Ġchannel": 6677,
      "Ġorders": 6678,
      "law": 6679,
      "alle": 6680,
      "Ġnewslet": 6681,
      "utch": 6682,
      "otes": 6683,
      "ĠEnergy": 6684,
      "esc": 6685,
      "Ġdesk": 6686,
      "Do": 6687,
      "ĠThank": 6688,
      "rors": 6689,
      "uable": 6690,
      "Ġpled": 6691,
      "ĠTit": 6692,
      "ĠVan": 6693,
      "Ġaside": 6694,
      "ĠJava": 6695,
      "Then": 6696,
      "Ġwal": 6697,
      "oma": 6698,
      "izz": 6699,
      "oming": 6700,
      "Ġusual": 6701,
      "Ġ65": 6702,
      "ĠTal": 6703,
      "Ġunemploy": 6704,
      "Ġpassion": 6705,
      "vin": 6706,
      "Ġassets": 6707,
      "ugh": 6708,
      "ĠDefense": 6709,
      "Ġknowing": 6710,
      "ĠLook": 6711,
      "ĠMax": 6712,
      "Ġneut": 6713,
      "Ġwatched": 6714,
      "Ġstruck": 6715,
      "gor": 6716,
      "Ġliqu": 6717,
      "Ġsentence": 6718,
      "Ġobserved": 6719,
      "ĠMic": 6720,
      "ĠCruz": 6721,
      "Ġwhos": 6722,
      "Ġ000": 6723,
      "iciency": 6724,
      "Ġfixed": 6725,
      "Ġjourney": 6726,
      "Ġdu": 6727,
      "ĠBrad": 6728,
      "Ġdogs": 6729,
      "ĠColorado": 6730,
      "rum": 6731,
      "Ġgod": 6732,
      "Ġsurrounding": 6733,
      "ĠSar": 6734,
      "Ġcommunication": 6735,
      "xy": 6736,
      "Ġpregn": 6737,
      "Ġformat": 6738,
      "Ġbasket": 6739,
      "ĠEnter": 6740,
      "ĠSC": 6741,
      "Ġtested": 6742,
      "American": 6743,
      "Ġhall": 6744,
      "Ġexciting": 6745,
      "Ġdiet": 6746,
      "Ġheight": 6747,
      "but": 6748,
      "Ġdealing": 6749,
      "Ġprote": 6750,
      "Ġsweet": 6751,
      "Ġreward": 6752,
      "Ġclients": 6753,
      "iously": 6754,
      "aed": 6755,
      "Ġsending": 6756,
      "Ġprecise": 6757,
      "Ġcustomer": 6758,
      "ĠChild": 6759,
      "Ġproof": 6760,
      "Ġfolks": 6761,
      "Ġagenda": 6762,
      "Ġexplore": 6763,
      "Ġapproval": 6764,
      "ĠTw": 6765,
      "IR": 6766,
      "Ġfuck": 6767,
      "life": 6768,
      "Ġhotel": 6769,
      "Qu": 6770,
      "Ġconver": 6771,
      "ĠLord": 6772,
      "ĠJord": 6773,
      "Ġdefeat": 6774,
      "ĠYoure": 6775,
      "ographic": 6776,
      "Ġsuicide": 6777,
      "iants": 6778,
      "Ġcongress": 6779,
      "iger": 6780,
      "enders": 6781,
      "Ġdomin": 6782,
      "Ġapproximately": 6783,
      "ĠOS": 6784,
      "ĠPS": 6785,
      "Ġsubsid": 6786,
      "ora": 6787,
      "Ġunknown": 6788,
      "Ġpromote": 6789,
      "Despite": 6790,
      "han": 6791,
      "ati": 6792,
      "Ġking": 6793,
      "Ġextended": 6794,
      "Ġcrash": 6795,
      "ensity": 6796,
      "certain": 6797,
      "Ġrefugees": 6798,
      "Ġ1970": 6799,
      "Were": 6800,
      "ĠWhere": 6801,
      "Ġ39": 6802,
      "ĠDam": 6803,
      "Every": 6804,
      "Ġalive": 6805,
      "Ġwake": 6806,
      "Ġgap": 6807,
      "ockey": 6808,
      "Ġconscious": 6809,
      "rive": 6810,
      "Ġcolumn": 6811,
      "Ġdestroyed": 6812,
      "Ġsample": 6813,
      "Ġprotesters": 6814,
      "Ġchairman": 6815,
      "Ġexhib": 6816,
      "verty": 6817,
      "Ġsho": 6818,
      "PD": 6819,
      "ĠFour": 6820,
      "VER": 6821,
      "Ġforth": 6822,
      "nam": 6823,
      "Ġadult": 6824,
      "Ġmaximum": 6825,
      "osis": 6826,
      "ĠCast": 6827,
      "Ġmistake": 6828,
      "Ġvolume": 6829,
      "Ġmatches": 6830,
      "pool": 6831,
      "ĠArizona": 6832,
      "Donald": 6833,
      "Ġtodays": 6834,
      "Ġwinter": 6835,
      "Ġnarrow": 6836,
      "Ġwid": 6837,
      "Ġdiscover": 6838,
      "Ġrisks": 6839,
      "Ġbattery": 6840,
      "Most": 6841,
      "Ġslowly": 6842,
      "Ġrequirements": 6843,
      "Ġterrorism": 6844,
      "Ġproperties": 6845,
      "Ġgovernor": 6846,
      "Ġzero": 6847,
      "Ġnoticed": 6848,
      "Ġattacked": 6849,
      "acc": 6850,
      "Ġpromised": 6851,
      "Ġhonor": 6852,
      "Ġgang": 6853,
      "oration": 6854,
      "Ġpoverty": 6855,
      "weight": 6856,
      "Ġputs": 6857,
      "Ġeating": 6858,
      "ĠLove": 6859,
      "Ġ55": 6860,
      "ĠStephen": 6861,
      "ĠClintons": 6862,
      "Ġsustain": 6863,
      "Ġuniverse": 6864,
      "azi": 6865,
      "Ġproperly": 6866,
      "Ġpal": 6867,
      "Ġphenomen": 6868,
      "Ġdry": 6869,
      "ĠCD": 6870,
      "sole": 6871,
      "Ġwelcome": 6872,
      "mpt": 6873,
      "Ġtypical": 6874,
      "Ġbills": 6875,
      "Ġrequests": 6876,
      "Ġblame": 6877,
      "Ġmerely": 6878,
      "ĠContin": 6879,
      "Ġinvolving": 6880,
      "Ġevil": 6881,
      "Ġimpressive": 6882,
      "ĠHollywood": 6883,
      "Ġsuddenly": 6884,
      "burg": 6885,
      "Ġlikes": 6886,
      "ĠDetro": 6887,
      "avor": 6888,
      "Ġrecognize": 6889,
      "Ġterritory": 6890,
      "ĠKevin": 6891,
      "Ġshel": 6892,
      "Ġoblig": 6893,
      "ĠDun": 6894,
      "ĠInf": 6895,
      "Ġlocations": 6896,
      "Ġanyway": 6897,
      "level": 6898,
      "date": 6899,
      "00000000000001": 6900,
      "Ġitem": 6901,
      "iro": 6902,
      "olit": 6903,
      "Ġequival": 6904,
      "Ġdeals": 6905,
      "ding": 6906,
      "ĠON": 6907,
      "Ġeast": 6908,
      "rence": 6909,
      "onic": 6910,
      "ĠEnd": 6911,
      "Ġdisag": 6912,
      "Ġvacc": 6913,
      "owered": 6914,
      "allas": 6915,
      "Ġcontrolled": 6916,
      "afe": 6917,
      "Ġhunt": 6918,
      "Ġremote": 6919,
      "Ġ43": 6920,
      "Ġselected": 6921,
      "Ġwest": 6922,
      "Ġselection": 6923,
      "umber": 6924,
      "Ġjournalists": 6925,
      "apse": 6926,
      "Ġtheme": 6927,
      "Ġsupports": 6928,
      "ĠReal": 6929,
      "awa": 6930,
      "Ġchose": 6931,
      "ii": 6932,
      "ĠCamer": 6933,
      "Ġparam": 6934,
      "Ġnorthern": 6935,
      "acking": 6936,
      "Ġholid": 6937,
      "Ġgoods": 6938,
      "Ġdiagn": 6939,
      "otal": 6940,
      "va": 6941,
      "Man": 6942,
      "ĠCIA": 6943,
      "agan": 6944,
      "ĠStand": 6945,
      "ĠIrish": 6946,
      "itals": 6947,
      "Ġworried": 6948,
      "Ġreasonable": 6949,
      "Ġallies": 6950,
      "Os": 6951,
      "Ġconstant": 6952,
      "ĠDespite": 6953,
      "ubb": 6954,
      "iami": 6955,
      "Ġstrongly": 6956,
      "EW": 6957,
      "rating": 6958,
      "phy": 6959,
      "Ġcondem": 6960,
      "ko": 6961,
      "Ġsky": 6962,
      "ĠDi": 6963,
      "abis": 6964,
      "Ġarguments": 6965,
      "onymous": 6966,
      "tes": 6967,
      "gery": 6968,
      "itarian": 6969,
      "ĠDark": 6970,
      "Ġretire": 6971,
      "Ġlicense": 6972,
      "Ġstudio": 6973,
      "Ġsyn": 6974,
      "ĠSpanish": 6975,
      "Ġbear": 6976,
      "Ġcritics": 6977,
      "Ġicon": 6978,
      "aus": 6979,
      "Ġpolls": 6980,
      "Ġ41": 6981,
      "Ġpersonally": 6982,
      "Ġdecent": 6983,
      "En": 6984,
      "Ġassume": 6985,
      "Ġfees": 6986,
      "ua": 6987,
      "Ġpunish": 6988,
      "Ġharass": 6989,
      "ĠThough": 6990,
      "Ġtopic": 6991,
      "Ġbunch": 6992,
      "Ġescape": 6993,
      "aug": 6994,
      "Ġnomine": 6995,
      "Ġpic": 6996,
      "asks": 6997,
      "Ġobtained": 6998,
      "foot": 6999,
      "Ġcoffee": 7000,
      "Ġadapt": 7001,
      "Ġvillage": 7002,
      "Ġlatter": 7003,
      "ether": 7004,
      "Ġsomehow": 7005,
      "cers": 7006,
      "Ġunderstood": 7007,
      "arity": 7008,
      "ĠThanks": 7009,
      "oz": 7010,
      "Ġtrees": 7011,
      "Ġfalling": 7012,
      "Ġsomewhere": 7013,
      "Ġcutting": 7014,
      "Ġunw": 7015,
      "Ġstim": 7016,
      "Ġresistance": 7017,
      "woman": 7018,
      "Ġdrag": 7019,
      "raid": 7020,
      "ĠBell": 7021,
      "Ġchampion": 7022,
      "ĠCat": 7023,
      "Ġcommunications": 7024,
      "iform": 7025,
      "Ġflex": 7026,
      "Ġsister": 7027,
      "Ġfake": 7028,
      "ĠAR": 7029,
      "Ġrig": 7030,
      "Ġhyd": 7031,
      "can": 7032,
      "Ġempty": 7033,
      "ĠBas": 7034,
      "Ġsole": 7035,
      "Ġwage": 7036,
      "zens": 7037,
      "Ġdesper": 7038,
      "Ġmeetings": 7039,
      "ĠAsian": 7040,
      "Ġlimits": 7041,
      "Ġexposed": 7042,
      "ĠAdminist": 7043,
      "Ġvent": 7044,
      "Ġsquad": 7045,
      "inations": 7046,
      "ĠCP": 7047,
      "Ġcomprom": 7048,
      "ĠLand": 7049,
      "Ġdress": 7050,
      "Ġfacilities": 7051,
      "long": 7052,
      "ĠSea": 7053,
      "Ġspin": 7054,
      "col": 7055,
      "GBT": 7056,
      "Ġprofit": 7057,
      "Ġintellect": 7058,
      "Ġbid": 7059,
      "Ġfirms": 7060,
      "Ġboot": 7061,
      "ĠServices": 7062,
      "Ġencourage": 7063,
      "Ġofficially": 7064,
      "ĠLew": 7065,
      "ĠRomney": 7066,
      "Ġideal": 7067,
      "Ġfifth": 7068,
      "Ġclaiming": 7069,
      "Ġunp": 7070,
      "ĠDNA": 7071,
      "ĠNight": 7072,
      "Ġscheme": 7073,
      "ulture": 7074,
      "ĠRog": 7075,
      "intend": 7076,
      "lv": 7077,
      "Ġteacher": 7078,
      "Ġchosen": 7079,
      "ocation": 7080,
      "Ġdatabase": 7081,
      "Ġwriters": 7082,
      "Ġdefinition": 7083,
      "ĠView": 7084,
      "Ġdirected": 7085,
      "Ġble": 7086,
      "De": 7087,
      "unning": 7088,
      "ĠBru": 7089,
      "Ġstronger": 7090,
      "Ġbench": 7091,
      "orted": 7092,
      "Ġprimarily": 7093,
      "Ġcomparison": 7094,
      "Ġcolon": 7095,
      "Ġworldwide": 7096,
      "Ġcontrols": 7097,
      "fts": 7098,
      "Ġphase": 7099,
      "Ġopponent": 7100,
      "ĠTurn": 7101,
      "Ġgotten": 7102,
      "Ġretain": 7103,
      "Ġextensive": 7104,
      "Ġcomponents": 7105,
      "Ġvari": 7106,
      "ĠOrgan": 7107,
      "Ġfields": 7108,
      "Ġdeck": 7109,
      "Ġfold": 7110,
      "Ġfinds": 7111,
      "Ġ1999": 7112,
      "Ġsouthern": 7113,
      "Ġpit": 7114,
      "Two": 7115,
      "arry": 7116,
      "Ġdriven": 7117,
      "ĠOK": 7118,
      "usse": 7119,
      "ĠMiller": 7120,
      "stone": 7121,
      "mail": 7122,
      "Ġmagic": 7123,
      "Ġdeleg": 7124,
      "ĠAcadem": 7125,
      "ĠOper": 7126,
      "ĠNetwork": 7127,
      "ivery": 7128,
      "Ġupper": 7129,
      "Ġhits": 7130,
      "ĠYoung": 7131,
      "Ġadministr": 7132,
      "ye": 7133,
      "Ġthreatened": 7134,
      "Ġemissions": 7135,
      "Ġstretch": 7136,
      "Ġawesome": 7137,
      "Ġelectricity": 7138,
      "Ġthread": 7139,
      "Ġconstit": 7140,
      "Ġdrawn": 7141,
      "ĠOs": 7142,
      "Ġwinner": 7143,
      "ciples": 7144,
      "Ġanswers": 7145,
      "Ġhouses": 7146,
      "ĠCivil": 7147,
      "Ġanymore": 7148,
      "Ġmixed": 7149,
      "Ġengage": 7150,
      "Ġsolutions": 7151,
      "Ġdistinct": 7152,
      "inch": 7153,
      "ĠNHL": 7154,
      "Ġfighters": 7155,
      "ĠTake": 7156,
      "ĠLight": 7157,
      "ĠVictor": 7158,
      "Ġflying": 7159,
      "Ġinqu": 7160,
      "ĠUt": 7161,
      "ĠWater": 7162,
      "Ġtheyll": 7163,
      "Ġparking": 7164,
      "UR": 7165,
      "icken": 7166,
      "Ġinterf": 7167,
      "Ġpayment": 7168,
      "Ġpayments": 7169,
      "Ġperfectly": 7170,
      "Ġpurposes": 7171,
      "Ġmurd": 7172,
      "ĠDaniel": 7173,
      "Ġenemies": 7174,
      "Ġatmosphere": 7175,
      "Ġtrading": 7176,
      "Ġoutcome": 7177,
      "Like": 7178,
      "ĠGall": 7179,
      "essed": 7180,
      "Ġamounts": 7181,
      "Ġgro": 7182,
      "Ġpod": 7183,
      "Ġcaptured": 7184,
      "Ġanx": 7185,
      "Ġrejected": 7186,
      "Ġending": 7187,
      "Ġstations": 7188,
      "Rel": 7189,
      "apes": 7190,
      "Ġcontem": 7191,
      "obile": 7192,
      "oster": 7193,
      "Ġchoices": 7194,
      "Ġaspects": 7195,
      "Ob": 7196,
      "isan": 7197,
      "Ġsignal": 7198,
      "Ġabortion": 7199,
      "oric": 7200,
      "ĠTurk": 7201,
      "Ġresulting": 7202,
      "Ġtied": 7203,
      "Ġruled": 7204,
      "aser": 7205,
      "ura": 7206,
      "Ġemployment": 7207,
      "Ġsight": 7208,
      "Ġaggressive": 7209,
      "Ġweird": 7210,
      "friend": 7211,
      "Ġties": 7212,
      "ĠGeorgia": 7213,
      "Ġloan": 7214,
      "Ġregularly": 7215,
      "ĠCompany": 7216,
      "Ġphones": 7217,
      "Ġseats": 7218,
      "Ġestimates": 7219,
      "Ġnarrative": 7220,
      "Ġconcluded": 7221,
      "Ġprofile": 7222,
      "Ġletters": 7223,
      "Ġ911": 7224,
      "owa": 7225,
      "Ġtechnologies": 7226,
      "ĠAp": 7227,
      "Ġconstantly": 7228,
      "ĠAh": 7229,
      "redit": 7230,
      "Ġunn": 7231,
      "ĠSociety": 7232,
      "ĠDetroit": 7233,
      "Ġterrible": 7234,
      "ĠSouthern": 7235,
      "Ġtruck": 7236,
      "rome": 7237,
      "Heres": 7238,
      "Ġkeeps": 7239,
      "Ġapartment": 7240,
      "free": 7241,
      "kay": 7242,
      "Ġemployee": 7243,
      "Ġincredible": 7244,
      "ĠBrian": 7245,
      "Ġfranchise": 7246,
      "Ġincredibly": 7247,
      "ington": 7248,
      "rad": 7249,
      "ĠChampionship": 7250,
      "ĠItalian": 7251,
      "ĠMiami": 7252,
      "Ġinnoc": 7253,
      "ĠBefore": 7254,
      "ĠSpecial": 7255,
      "Ġmachines": 7256,
      "owed": 7257,
      "ĠEp": 7258,
      "pected": 7259,
      "Ġcrucial": 7260,
      "Ġstuck": 7261,
      "ĠJersey": 7262,
      "ĠHeres": 7263,
      "ĠCome": 7264,
      "ĠAgency": 7265,
      "Ġelsewhere": 7266,
      "Ġconspir": 7267,
      "eping": 7268,
      "Ġcontinuing": 7269,
      "Ġexcess": 7270,
      "Ġproved": 7271,
      "Ġencoun": 7272,
      "Ġrival": 7273,
      "ĠProgram": 7274,
      "ĠEduc": 7275,
      "Ġangry": 7276,
      "ĠYear": 7277,
      "ĠAdam": 7278,
      "Ġinterpret": 7279,
      "ĠRoman": 7280,
      "Ġsynt": 7281,
      "bar": 7282,
      "Int": 7283,
      "Ġtank": 7284,
      "Ġepisodes": 7285,
      "igation": 7286,
      "Ġexists": 7287,
      "Ġcontributed": 7288,
      "Ġsituations": 7289,
      "Ġmyth": 7290,
      "alo": 7291,
      "Ġinformed": 7292,
      "LC": 7293,
      "Ġaccurate": 7294,
      "Ġcompens": 7295,
      "Ġkil": 7296,
      "ĠFC": 7297,
      "Ġrepresented": 7298,
      "ĠMinnes": 7299,
      "Ġrus": 7300,
      "axy": 7301,
      "Ġcategory": 7302,
      "Ġstead": 7303,
      "Ġassistant": 7304,
      "een": 7305,
      "Ġdemands": 7306,
      "Ġblind": 7307,
      "chers": 7308,
      "ilarly": 7309,
      "Ġroutine": 7310,
      "See": 7311,
      "ĠPutin": 7312,
      "Ġdrinking": 7313,
      "Ġenthus": 7314,
      "ĠJoseph": 7315,
      "ĠMen": 7316,
      "Ġhabit": 7317,
      "Ive": 7318,
      "500000000000015": 7319,
      "Ġiron": 7320,
      "Ġdepending": 7321,
      "ĠDemocrat": 7322,
      "Ġconsumption": 7323,
      "earing": 7324,
      "Ġindex": 7325,
      "Ġintention": 7326,
      "ĠItaly": 7327,
      "Ġexplanation": 7328,
      "Ġbaseball": 7329,
      "Ġinfect": 7330,
      "ikes": 7331,
      "Ġlawyers": 7332,
      "Ġmanip": 7333,
      "Ġreturning": 7334,
      "Ġroot": 7335,
      "Ġrecovery": 7336,
      "Ġdozen": 7337,
      "Ġfeedback": 7338,
      "ĠGer": 7339,
      "Ġfounder": 7340,
      "ĠBalt": 7341,
      "Ġraising": 7342,
      "lder": 7343,
      "ĠCross": 7344,
      "ĠNBC": 7345,
      "Ġpaint": 7346,
      "Ġsup": 7347,
      "Ġimper": 7348,
      "adelph": 7349,
      "ez": 7350,
      "Police": 7351,
      "Ġdeveloper": 7352,
      "Ġorganized": 7353,
      "Pe": 7354,
      "otten": 7355,
      "Ġtitles": 7356,
      "CE": 7357,
      "ĠTem": 7358,
      "Ġgranted": 7359,
      "ĠWilson": 7360,
      "Ġpenalty": 7361,
      "Ġnewly": 7362,
      "Ġassistance": 7363,
      "Ġgaming": 7364,
      "oil": 7365,
      "Ġconven": 7366,
      "Ġcomplicated": 7367,
      "lights": 7368,
      "ĠJo": 7369,
      "fire": 7370,
      "ĠDid": 7371,
      "ĠMosc": 7372,
      "Ġnobody": 7373,
      "Ġgenerate": 7374,
      "ĠAuthor": 7375,
      "Ġmonit": 7376,
      "etts": 7377,
      "ĠLabor": 7378,
      "Ġcomplaint": 7379,
      "Ġconclusion": 7380,
      "inity": 7381,
      "tle": 7382,
      "Ġregistered": 7383,
      "gender": 7384,
      "ĠHot": 7385,
      "Ġconvent": 7386,
      "kel": 7387,
      "Ġprogramming": 7388,
      "ĠJosh": 7389,
      "Ġanticip": 7390,
      "ĠDallas": 7391,
      "ĠCare": 7392,
      "Ġsympt": 7393,
      "gorith": 7394,
      "Ġpermanent": 7395,
      "Ġprivile": 7396,
      "Ġmovements": 7397,
      "ĠCall": 7398,
      "ĠTest": 7399,
      "Ġhidden": 7400,
      "Ġsuccessfully": 7401,
      "ĠJordan": 7402,
      "Ġcapture": 7403,
      "Ġtechniques": 7404,
      "Ġracial": 7405,
      "ĠAS": 7406,
      "ĠAD": 7407,
      "iner": 7408,
      "Ġacademic": 7409,
      "uan": 7410,
      "Ġru": 7411,
      "Ġwestern": 7412,
      "Ġmarked": 7413,
      "Ġbes": 7414,
      "Ġlawmakers": 7415,
      "Ġnut": 7416,
      "ĠFood": 7417,
      "ĠDead": 7418,
      "ĠSenator": 7419,
      "ĠAnth": 7420,
      "Ġtall": 7421,
      "ĠColl": 7422,
      "Ġphr": 7423,
      "agram": 7424,
      "Ġticket": 7425,
      "Ġdegrees": 7426,
      "iscons": 7427,
      "iscal": 7428,
      "Ġwarming": 7429,
      "anchester": 7430,
      "ao": 7431,
      "ĠDig": 7432,
      "Ġsomebody": 7433,
      "0000644000000000000000000002": 7434,
      "ĠForeign": 7435,
      "ĠBusiness": 7436,
      "ĠGir": 7437,
      "Ġsolve": 7438,
      "ĠCop": 7439,
      "ĠZeal": 7440,
      "Ġteaching": 7441,
      "Ġequivalent": 7442,
      "Ġroster": 7443,
      "Ġchances": 7444,
      "ĠPacific": 7445,
      "Ġbrew": 7446,
      "Ġscenes": 7447,
      "ML": 7448,
      "Also": 7449,
      "Ġextrem": 7450,
      "ĠTy": 7451,
      "ĠFord": 7452,
      "mont": 7453,
      "Ġautomatically": 7454,
      "ifications": 7455,
      "ĠMarc": 7456,
      "Ġengaged": 7457,
      "Ġcampaigns": 7458,
      "acked": 7459,
      "Ġreporter": 7460,
      "wan": 7461,
      "Ġaccomp": 7462,
      "Ġmainly": 7463,
      "Ġcoalition": 7464,
      "Ġads": 7465,
      "Ġestate": 7466,
      "Ġrating": 7467,
      "Ġdollar": 7468,
      "rehens": 7469,
      "Ġshares": 7470,
      "Ġregardless": 7471,
      "Ġchampionship": 7472,
      "Ġbrut": 7473,
      "aron": 7474,
      "ĠBull": 7475,
      "ĠHT": 7476,
      "ĠLGBT": 7477,
      "Ġdict": 7478,
      "ded": 7479,
      "ĠFre": 7480,
      "Ġpropag": 7481,
      "Ġcollected": 7482,
      "Ġadvis": 7483,
      "Ġattended": 7484,
      "Ġbom": 7485,
      "Ġoperate": 7486,
      "000000000000145": 7487,
      "ĠIT": 7488,
      "Ġactor": 7489,
      "ĠAvenue": 7490,
      "Ġvulnerable": 7491,
      "ifer": 7492,
      "Ġandor": 7493,
      "Ġcorruption": 7494,
      "Ġships": 7495,
      "idency": 7496,
      "Ġsurvive": 7497,
      "vy": 7498,
      "Ġcomputers": 7499,
      "ĠNick": 7500,
      "regon": 7501,
      "ĠArm": 7502,
      "Ġafraid": 7503,
      "Ġtroub": 7504,
      "Ġenable": 7505,
      "itar": 7506,
      "Ġaimed": 7507,
      "Per": 7508,
      "Ġblocks": 7509,
      "Ġdowntown": 7510,
      "Ġinspir": 7511,
      "ĠLinux": 7512,
      "ĠParliament": 7513,
      "Ġ46": 7514,
      "ĠCub": 7515,
      "Ġuncertain": 7516,
      "ĠConstitution": 7517,
      "Ġcameras": 7518,
      "rific": 7519,
      "rett": 7520,
      "rete": 7521,
      "Ġrecip": 7522,
      "Ġaudio": 7523,
      "ĠStill": 7524,
      "Ġsufficient": 7525,
      "lock": 7526,
      "ĠInvest": 7527,
      "everal": 7528,
      "Ġreputation": 7529,
      "Ġtaught": 7530,
      "chain": 7531,
      "Ġsatell": 7532,
      "Ġplastic": 7533,
      "raph": 7534,
      "Ġlights": 7535,
      "Ġvaluable": 7536,
      "ĠBoy": 7537,
      "Ġtracks": 7538,
      "ĠHas": 7539,
      "aturally": 7540,
      "Ġinstalled": 7541,
      "oen": 7542,
      "Ġrecording": 7543,
      "ĠMu": 7544,
      "Ġprominent": 7545,
      "Ġintense": 7546,
      "Ġvisited": 7547,
      "Ġtur": 7548,
      "style": 7549,
      "inder": 7550,
      "ĠAsh": 7551,
      "ĠNorthern": 7552,
      "Ġpasses": 7553,
      "ĠBowl": 7554,
      "hent": 7555,
      "ĠGreek": 7556,
      "Ġ47": 7557,
      "dit": 7558,
      "Ġveteran": 7559,
      "rates": 7560,
      "Ġoverse": 7561,
      "Ġunusual": 7562,
      "ogan": 7563,
      "ship": 7564,
      "mun": 7565,
      "Ġenjoyed": 7566,
      "Ġentit": 7567,
      "Ġpace": 7568,
      "Ġprocesses": 7569,
      "ĠEastern": 7570,
      "Ġduty": 7571,
      "Ġbusy": 7572,
      "........": 7573,
      "Ġ250": 7574,
      "Ġstrict": 7575,
      "ĠDar": 7576,
      "Ġthick": 7577,
      "Or": 7578,
      "ĠKurd": 7579,
      "def": 7580,
      "Ġthin": 7581,
      "Ġdisaster": 7582,
      "Ġexposure": 7583,
      "Ġinev": 7584,
      "icer": 7585,
      "ĠTony": 7586,
      "ĠFred": 7587,
      "ĠDisney": 7588,
      "ali": 7589,
      "Ġcomic": 7590,
      "ĠFort": 7591,
      "Ġcod": 7592,
      "Ġ52": 7593,
      "Ġgenerated": 7594,
      "Ġengineering": 7595,
      "Ġmedium": 7596,
      "Ġcontracts": 7597,
      "Ġnegotiations": 7598,
      "Ġpounds": 7599,
      "Ġtaxp": 7600,
      "ĠNob": 7601,
      "Ġpresidents": 7602,
      "Ġapolog": 7603,
      "Yes": 7604,
      "Ġtherap": 7605,
      "UN": 7606,
      "Ġemerged": 7607,
      "uine": 7608,
      "ĠNC": 7609,
      "Ġcable": 7610,
      "Ġcompete": 7611,
      "Ġadopted": 7612,
      "Ġenorm": 7613,
      "Ġspr": 7614,
      "ystem": 7615,
      "Ġcow": 7616,
      "Ġperce": 7617,
      "athy": 7618,
      "Ġcoc": 7619,
      "Ġfought": 7620,
      "ibilities": 7621,
      "Ps": 7622,
      "azz": 7623,
      "ĠHenry": 7624,
      "Ġelite": 7625,
      "ĠPhiladelph": 7626,
      "Ġresulted": 7627,
      "Ġpersonnel": 7628,
      "ashes": 7629,
      "Ġworker": 7630,
      "Ġprinciples": 7631,
      "Ġfunny": 7632,
      "Ġcup": 7633,
      "inding": 7634,
      "Ġtaste": 7635,
      "Ġdescribes": 7636,
      "etary": 7637,
      "Ġneuro": 7638,
      "Ġcrypt": 7639,
      "Ġpatterns": 7640,
      "Ġven": 7641,
      "emen": 7642,
      "eman": 7643,
      "ĠVis": 7644,
      "HS": 7645,
      "Ġ1998": 7646,
      "ĠGlobal": 7647,
      "Ġpilot": 7648,
      "Ġshortly": 7649,
      "ĠNote": 7650,
      "Ġacceler": 7651,
      "Ġmel": 7652,
      "quarters": 7653,
      "Ġho": 7654,
      "twitter": 7655,
      "Ġportion": 7656,
      "Ġaffili": 7657,
      "Ġdiscipl": 7658,
      "ĠHom": 7659,
      "ĠPay": 7660,
      "Ġrarely": 7661,
      "Ġsurgery": 7662,
      "Ġeverywhere": 7663,
      "ĠEs": 7664,
      "cies": 7665,
      "Ġhadnt": 7666,
      "Ġshock": 7667,
      "engers": 7668,
      "ĠRay": 7669,
      "osm": 7670,
      "upid": 7671,
      "cles": 7672,
      "ounced": 7673,
      "Ġformal": 7674,
      "Ġfeelings": 7675,
      "UL": 7676,
      "Ġgall": 7677,
      "ĠKent": 7678,
      "ĠSeries": 7679,
      "Can": 7680,
      "Ġtag": 7681,
      "ĠRet": 7682,
      "Ġimplementation": 7683,
      "ĠLo": 7684,
      "Ġthousand": 7685,
      "Ġcited": 7686,
      "Ġvisible": 7687,
      "ĠPolicy": 7688,
      "Ġexplicit": 7689,
      "Ġparticipate": 7690,
      "Ġloud": 7691,
      "Ġdefence": 7692,
      "Ġalgorith": 7693,
      "ĠViet": 7694,
      "Ġpermission": 7695,
      "antic": 7696,
      "Ġhistoric": 7697,
      "Ġfinance": 7698,
      "ĠThree": 7699,
      "ked": 7700,
      "Ġridic": 7701,
      "ifies": 7702,
      "Ġcomponent": 7703,
      "Ġcounsel": 7704,
      "Ġobst": 7705,
      "iy": 7706,
      "ĠFoot": 7707,
      "ĠCoast": 7708,
      "Ġtor": 7709,
      "Ġstable": 7710,
      "ĠMars": 7711,
      "fast": 7712,
      "ĠSS": 7713,
      "Ġveget": 7714,
      "aters": 7715,
      "Ġexpectations": 7716,
      "Ġminority": 7717,
      "ĠMinnesota": 7718,
      "Ġuncom": 7719,
      "orough": 7720,
      "ht": 7721,
      "Ġsharp": 7722,
      "Ġdozens": 7723,
      "ĠWiscons": 7724,
      "bour": 7725,
      "ĠVeg": 7726,
      "ATE": 7727,
      "Ġtoler": 7728,
      "Ġpriority": 7729,
      "list": 7730,
      "Ġpossession": 7731,
      "Ġfarmers": 7732,
      "Mean": 7733,
      "Ġelev": 7734,
      "Ġsanctions": 7735,
      "bel": 7736,
      "ima": 7737,
      "iana": 7738,
      "idelines": 7739,
      "Ġscoring": 7740,
      "Ġlosses": 7741,
      "igen": 7742,
      "obs": 7743,
      "Ġadvertising": 7744,
      "ĠRef": 7745,
      "Ġbrowser": 7746,
      "Ġprovince": 7747,
      "Ġmail": 7748,
      "ĠLive": 7749,
      "Ġphotograph": 7750,
      "Ġcreates": 7751,
      "Ġfounded": 7752,
      "bal": 7753,
      "rypt": 7754,
      "athered": 7755,
      "heast": 7756,
      "asion": 7757,
      "AG": 7758,
      "Bec": 7759,
      "eland": 7760,
      "Ġwonderful": 7761,
      "icate": 7762,
      "ses": 7763,
      "Ġlaid": 7764,
      "Ġbanned": 7765,
      "Ġdrawing": 7766,
      "sea": 7767,
      "Ġrecru": 7768,
      "Ġplug": 7769,
      "ĠIowa": 7770,
      "Ġgenuine": 7771,
      "imp": 7772,
      "Once": 7773,
      "ĠScotland": 7774,
      "Ġextension": 7775,
      "Ġyield": 7776,
      "ĠMoore": 7777,
      "rep": 7778,
      "Getty": 7779,
      "ules": 7780,
      "Ġgained": 7781,
      "ĠAlab": 7782,
      "ĠMid": 7783,
      "Ġbehalf": 7784,
      "Ġchart": 7785,
      "pread": 7786,
      "ĠMajor": 7787,
      "ĠRick": 7788,
      "ĠThus": 7789,
      "ĠGreg": 7790,
      "born": 7791,
      "ĠTaylor": 7792,
      "ĠReport": 7793,
      "ĠDevelopment": 7794,
      "Photo": 7795,
      "Ġuniform": 7796,
      "Ġstadium": 7797,
      "Ġoutr": 7798,
      "MS": 7799,
      "Ġscenario": 7800,
      "Ġagric": 7801,
      "ĠJac": 7802,
      "ĠVR": 7803,
      "Ġju": 7804,
      "Ġovert": 7805,
      "Ġsaved": 7806,
      "Ġrelief": 7807,
      "olis": 7808,
      "Dr": 7809,
      "ĠESP": 7810,
      "Ġstrikes": 7811,
      "Ġdoors": 7812,
      "ĠPerhaps": 7813,
      "Ġlanguages": 7814,
      "Ġbasketball": 7815,
      "Ġprinciple": 7816,
      "ĠOak": 7817,
      "Ġrecognized": 7818,
      "ĠABC": 7819,
      "Ġdescription": 7820,
      "Ġgift": 7821,
      "ĠHun": 7822,
      "Ġdinner": 7823,
      "ĠPremier": 7824,
      "300": 7825,
      "ĠManchester": 7826,
      "riers": 7827,
      "ĠNever": 7828,
      "Ġprofession": 7829,
      "Ġ51": 7830,
      "ĠSnow": 7831,
      "ogen": 7832,
      "Ġwides": 7833,
      "ĠKelly": 7834,
      "Ġneutral": 7835,
      "Ġwing": 7836,
      "ĠOregon": 7837,
      "Ġmanufacturing": 7838,
      "Ġdeliber": 7839,
      "ĠAttorney": 7840,
      "istent": 7841,
      "Ġ?": 7842,
      "ĠCO": 7843,
      "ĠHard": 7844,
      "Ġexception": 7845,
      "ĠSpain": 7846,
      "Ġpump": 7847,
      "ĠHit": 7848,
      "ĠMoh": 7849,
      "Ġheaded": 7850,
      "Ġtox": 7851,
      "Ġlegend": 7852,
      "Ġbridge": 7853,
      "ureau": 7854,
      "Ġplate": 7855,
      "olt": 7856,
      "MP": 7857,
      "Ġmayor": 7858,
      "Ġextract": 7859,
      "ria": 7860,
      "ĠAbout": 7861,
      "str": 7862,
      "Ġprogressive": 7863,
      "ĠRos": 7864,
      "CS": 7865,
      "bell": 7866,
      "ĠRoyal": 7867,
      "mers": 7868,
      "ĠPhiladelphia": 7869,
      "Ġcha": 7870,
      "Ġaver": 7871,
      "ĠAmendment": 7872,
      "Ġflaw": 7873,
      "Ġinterface": 7874,
      "ĠFund": 7875,
      "ais": 7876,
      "ĠKir": 7877,
      "ĠMake": 7878,
      "Ġtransm": 7879,
      "inking": 7880,
      "ĠEmp": 7881,
      "Meanwhile": 7882,
      "uce": 7883,
      "Ġbacked": 7884,
      "Ġwheel": 7885,
      "ĠReview": 7886,
      "Ġstruggling": 7887,
      "eding": 7888,
      "ilipp": 7889,
      "ĠCBS": 7890,
      "oured": 7891,
      "Ġliked": 7892,
      "ĠFair": 7893,
      "Ġcontaining": 7894,
      "Ġbarely": 7895,
      "Ġwalls": 7896,
      "ĠLittle": 7897,
      "Ġdefine": 7898,
      "Ġ00": 7899,
      "Ġspark": 7900,
      "ĠIndepend": 7901,
      "Ġbrothers": 7902,
      "Ġwebsites": 7903,
      "Ġfinger": 7904,
      "burgh": 7905,
      "Ġprocessing": 7906,
      "osexual": 7907,
      "Ġairport": 7908,
      "Ġforever": 7909,
      "ĠHor": 7910,
      "Ġcannabis": 7911,
      "Ġhole": 7912,
      "Ġproport": 7913,
      "Ġcounty": 7914,
      "Inst": 7915,
      "Ġcyber": 7916,
      "mes": 7917,
      "Ġindicate": 7918,
      "ĠGP": 7919,
      "Ġflash": 7920,
      "Ġrub": 7921,
      "Ġhang": 7922,
      "ĠHarry": 7923,
      "Ġrely": 7924,
      "Ġproducer": 7925,
      "Ġroles": 7926,
      "Ġstructures": 7927,
      "ogether": 7928,
      "ĠChristians": 7929,
      "Ġhired": 7930,
      "Ġachieved": 7931,
      "cons": 7932,
      "Ġfee": 7933,
      "Ġestablishment": 7934,
      "Ġperpet": 7935,
      "Ġcrop": 7936,
      "ĠMir": 7937,
      "ĠNext": 7938,
      "sels": 7939,
      "ĠPD": 7940,
      "ĠAcademy": 7941,
      "Ġ1960": 7942,
      "Ġracist": 7943,
      "Ġdestruction": 7944,
      "Ġfootage": 7945,
      "ĠHay": 7946,
      "Ġjournalist": 7947,
      "Ġedition": 7948,
      "Ġdiscrimination": 7949,
      "Ms": 7950,
      "Ġcorporations": 7951,
      "Ġresign": 7952,
      "Ġethnic": 7953,
      "Ġgrass": 7954,
      "Ġreduction": 7955,
      "ulating": 7956,
      "Ġtab": 7957,
      "Ġphilosophy": 7958,
      "Ġwarrant": 7959,
      "ĠJason": 7960,
      "Ġexternal": 7961,
      "ĠMcG": 7962,
      "Ġbeliefs": 7963,
      "imore": 7964,
      "Ġentering": 7965,
      "Any": 7966,
      "Ġconvention": 7967,
      "ĠCH": 7968,
      "umer": 7969,
      "usive": 7970,
      "Ġbath": 7971,
      "ĠNAT": 7972,
      "yard": 7973,
      "ĠRand": 7974,
      "ĠMean": 7975,
      "udes": 7976,
      "ĠBry": 7977,
      "Ġupset": 7978,
      "Ġterrorists": 7979,
      "Ġintellectual": 7980,
      "Off": 7981,
      "elect": 7982,
      "Ġretired": 7983,
      "aze": 7984,
      "Ġdelivery": 7985,
      "ĠMoscow": 7986,
      "esy": 7987,
      "Ġbra": 7988,
      "Ġeuro": 7989,
      "ĠSir": 7990,
      "Ġborrow": 7991,
      "Ġtackle": 7992,
      "ĠChinas": 7993,
      "Ġhealthcare": 7994,
      "tering": 7995,
      "Ġproducing": 7996,
      "amber": 7997,
      "sylv": 7998,
      "Ġwww": 7999,
      "Ġinterviews": 8000,
      "Ġ2019": 8001,
      "Ġproven": 8002,
      "umes": 8003,
      "profit": 8004,
      "rell": 8005,
      "John": 8006,
      "Ġ95": 8007,
      "Ġwithdraw": 8008,
      "Ġunex": 8009,
      "ĠUFC": 8010,
      "ĠEducation": 8011,
      "ĠCore": 8012,
      "lete": 8013,
      "Ġriver": 8014,
      "Ġarrange": 8015,
      "fall": 8016,
      "Ġrapidly": 8017,
      "ĠMarket": 8018,
      "Ġcontained": 8019,
      "rently": 8020,
      "Ġsmooth": 8021,
      "Ġnormally": 8022,
      "Ġincent": 8023,
      "Ġpapers": 8024,
      "ĠTurkish": 8025,
      "Ġindicated": 8026,
      "ĠCirc": 8027,
      "Ġfrag": 8028,
      "ĠLuc": 8029,
      "ĠFull": 8030,
      "Ġwidespread": 8031,
      "Ġshed": 8032,
      "ĠPack": 8033,
      "ĠWisconsin": 8034,
      "May": 8035,
      "Pr": 8036,
      "EA": 8037,
      "Ġchallenging": 8038,
      "Ġasks": 8039,
      "Ġopens": 8040,
      "Ġconvicted": 8041,
      "Ġjudges": 8042,
      "Ġburd": 8043,
      "Ġminds": 8044,
      "Ġbranch": 8045,
      "Com": 8046,
      "opher": 8047,
      "ĠZealand": 8048,
      "ĠUlt": 8049,
      "Ġoverwhelming": 8050,
      "Ġhun": 8051,
      "Lets": 8052,
      "ĠConference": 8053,
      "Ġfriendly": 8054,
      "mann": 8055,
      "ĠPen": 8056,
      "Ġsmoke": 8057,
      "ĠIR": 8058,
      "Ġsettlement": 8059,
      "Ġexclusive": 8060,
      "ĠBernie": 8061,
      "Ġhide": 8062,
      "Ġwars": 8063,
      "prise": 8064,
      "Ġsensitive": 8065,
      "ĠBrew": 8066,
      "Ġillness": 8067,
      "Ġnotion": 8068,
      "Ġreviews": 8069,
      "ologists": 8070,
      "Ġrecognition": 8071,
      "Ġfoundation": 8072,
      "Ġtechnique": 8073,
      "eers": 8074,
      "viously": 8075,
      "ĠHD": 8076,
      "ĠNic": 8077,
      "Ġutil": 8078,
      "Ġcarefully": 8079,
      "rous": 8080,
      "Ġ600": 8081,
      "hell": 8082,
      "Sec": 8083,
      "mate": 8084,
      "isons": 8085,
      "Ġhitting": 8086,
      "ethe": 8087,
      "Ġinvent": 8088,
      "Ġfeaturing": 8089,
      "olen": 8090,
      "yd": 8091,
      "Ġscream": 8092,
      "Ġsin": 8093,
      "Ġunemployment": 8094,
      "Ġmo": 8095,
      "ĠField": 8096,
      "Ġloyal": 8097,
      "Ġelectronic": 8098,
      "ĠFurther": 8099,
      "ĠCentre": 8100,
      "Ġbail": 8101,
      "Ġheres": 8102,
      "ĠNation": 8103,
      "Ġwelf": 8104,
      "Ġdevast": 8105,
      "Ġexceed": 8106,
      "abinet": 8107,
      "Ġsorry": 8108,
      "Ġpractical": 8109,
      "Ġsuggesting": 8110,
      "Ġstupid": 8111,
      "Ġreducing": 8112,
      "uy": 8113,
      "ĠIce": 8114,
      "ĠSat": 8115,
      "ĠCommunity": 8116,
      "Ġrestrictions": 8117,
      "Ġscreens": 8118,
      "Rec": 8119,
      "ĠNavy": 8120,
      "ĠBeach": 8121,
      "Ġsubjects": 8122,
      "roc": 8123,
      "Ġgonna": 8124,
      "Ġfiscal": 8125,
      "aching": 8126,
      "Ġwelfare": 8127,
      "ĠJudge": 8128,
      "Ġreaching": 8129,
      "Ġcollapse": 8130,
      "Ġrose": 8131,
      "arrass": 8132,
      "aska": 8133,
      "achus": 8134,
      "ĠMatthew": 8135,
      "Ġocean": 8136,
      "Ġprepare": 8137,
      "Ġsettle": 8138,
      "ĠLind": 8139,
      "rical": 8140,
      "Ġviewers": 8141,
      "Ġtail": 8142,
      "enth": 8143,
      "Ġlistening": 8144,
      "Ġplatforms": 8145,
      "ĠDiego": 8146,
      "Ġequally": 8147,
      "Ġpin": 8148,
      "Ġstrategic": 8149,
      "Ġ1997": 8150,
      "Ġscholars": 8151,
      "ĠLatin": 8152,
      "Ġrepresentative": 8153,
      "Ġunclear": 8154,
      "aying": 8155,
      "Ġ1996": 8156,
      "iti": 8157,
      "Ġnominee": 8158,
      "Ġreven": 8159,
      "Ġscores": 8160,
      "Ġconstitutional": 8161,
      "Ġhook": 8162,
      "Ġrecover": 8163,
      "Ġ54": 8164,
      "Ġclimb": 8165,
      "ĠOnt": 8166,
      "Ġbegun": 8167,
      "Ġarray": 8168,
      "ĠMusic": 8169,
      "ĠAND": 8170,
      "ĠKansas": 8171,
      "away": 8172,
      "Ġhardly": 8173,
      "ĠPennsylv": 8174,
      "Ġcontribute": 8175,
      "lessly": 8176,
      "Ġtemporary": 8177,
      "Ġouts": 8178,
      "Ġdemocratic": 8179,
      "Ġtrem": 8180,
      "ĠRose": 8181,
      "ĠBall": 8182,
      "ĠBrother": 8183,
      "itchen": 8184,
      "Ġdeeper": 8185,
      "Ġsteal": 8186,
      "gun": 8187,
      "weet": 8188,
      "Before": 8189,
      "Ġrobot": 8190,
      "ĠData": 8191,
      "ni": 8192,
      "Ġlists": 8193,
      "esh": 8194,
      "Ġconvinced": 8195,
      "ĠBattle": 8196,
      "Te": 8197,
      "Ġfears": 8198,
      "Ġfailing": 8199,
      "ighth": 8200,
      "ĠGov": 8201,
      "Ġshit": 8202,
      "Ġcomplaints": 8203,
      "Ġvital": 8204,
      "Ġtrained": 8205,
      "HA": 8206,
      "lan": 8207,
      "Ġsamples": 8208,
      "Ġrespectively": 8209,
      "Ġluck": 8210,
      "Ġframework": 8211,
      "ĠTenn": 8212,
      "abil": 8213,
      "Ġshell": 8214,
      "Ġlegitimate": 8215,
      "ĠAle": 8216,
      "writ": 8217,
      "Ġthrown": 8218,
      "Ġactors": 8219,
      "Ġjoining": 8220,
      "Ġpresum": 8221,
      "Ġstatistics": 8222,
      "no": 8223,
      "Ġcomprehens": 8224,
      "ols": 8225,
      "Ġaccompan": 8226,
      "ĠCook": 8227,
      "...\"": 8228,
      "inson": 8229,
      "Ġbehaviour": 8230,
      "ĠCheck": 8231,
      "Ġtickets": 8232,
      "ĠAtlanta": 8233,
      "Ġgam": 8234,
      "Ġinvolvement": 8235,
      "ĠRadio": 8236,
      "Ġfab": 8237,
      "ĠMah": 8238,
      "ĠESPN": 8239,
      "Ġovers": 8240,
      "ĠGolden": 8241,
      "ĠSquare": 8242,
      "ilton": 8243,
      "Ġmenu": 8244,
      "Ġchat": 8245,
      "ĠKat": 8246,
      "Ġgathered": 8247,
      "usted": 8248,
      "Ġimprovements": 8249,
      "Ġinvited": 8250,
      "ĠMinistry": 8251,
      "Ġattacking": 8252,
      "Ġfantasy": 8253,
      "Ġraces": 8254,
      "ja": 8255,
      "ĠXbox": 8256,
      "bn": 8257,
      "Ġles": 8258,
      "unes": 8259,
      "Ġincorpor": 8260,
      "ĠProfessor": 8261,
      "aire": 8262,
      "101": 8263,
      "ancou": 8264,
      "Ġroads": 8265,
      "Ġrural": 8266,
      "izon": 8267,
      "Ġdiscovery": 8268,
      "uties": 8269,
      "osit": 8270,
      "ĠKingdom": 8271,
      "Ġlayer": 8272,
      "found": 8273,
      "Ġcaptain": 8274,
      "Ġremem": 8275,
      "Ġinvestigate": 8276,
      "Ġdeputy": 8277,
      "Ġ53": 8278,
      "amsung": 8279,
      "Ġalien": 8280,
      "Ġconnections": 8281,
      "ĠBab": 8282,
      "Ġvary": 8283,
      "roduct": 8284,
      "Ġnoise": 8285,
      "ĠExt": 8286,
      "Ġspaces": 8287,
      "Ġsubstantial": 8288,
      "iversary": 8289,
      "Ġrecommended": 8290,
      "Ġscandal": 8291,
      "Ġsoph": 8292,
      "elf": 8293,
      "Ġfiction": 8294,
      "Ġdiversity": 8295,
      "Ġreferring": 8296,
      "Ġlegs": 8297,
      "anted": 8298,
      "interest": 8299,
      "Ġcollective": 8300,
      "Ġcasual": 8301,
      "Ġelig": 8302,
      "ĠAction": 8303,
      "PM": 8304,
      "ĠJay": 8305,
      "Ġimplemented": 8306,
      "ĠAlabama": 8307,
      "owing": 8308,
      "Ġinitiative": 8309,
      "Ġprosec": 8310,
      "ĠMill": 8311,
      "Ġindependence": 8312,
      "achusetts": 8313,
      "ĠTri": 8314,
      "ĠSuch": 8315,
      "inois": 8316,
      "Ġsoul": 8317,
      "Ġpoly": 8318,
      "Ġtouchdown": 8319,
      "mal": 8320,
      "ĠHistory": 8321,
      "Ġsuffer": 8322,
      "ĠUnfortunately": 8323,
      "Ġbands": 8324,
      "ĠSeason": 8325,
      "uma": 8326,
      "400": 8327,
      "Ġdynamic": 8328,
      "ĠWH": 8329,
      "Ġvisitors": 8330,
      "Ġfactory": 8331,
      "Ġownership": 8332,
      "Col": 8333,
      "Ġembarrass": 8334,
      "Ġingred": 8335,
      "Ġmilk": 8336,
      "ĠPatri": 8337,
      "Ġsurf": 8338,
      "Ġcontroversy": 8339,
      "Ġsymptoms": 8340,
      "Post": 8341,
      "ĠMedical": 8342,
      "Ġjur": 8343,
      "ĠTown": 8344,
      "eries": 8345,
      "Ġtip": 8346,
      "Ġinject": 8347,
      "ĠMayor": 8348,
      "Ġserves": 8349,
      "Ġpeak": 8350,
      "Ġwages": 8351,
      "Ġranked": 8352,
      "iel": 8353,
      "ĠSpring": 8354,
      "Ġdisagree": 8355,
      "ĠDoes": 8356,
      "Ġwine": 8357,
      "ĠPent": 8358,
      "Ġignore": 8359,
      "Ġattempting": 8360,
      "Ġtransgender": 8361,
      "Ġdiscussions": 8362,
      "Ġlicens": 8363,
      "rance": 8364,
      "Ġaccus": 8365,
      "Ġsettings": 8366,
      "Ġbrill": 8367,
      "ifest": 8368,
      "Ġversus": 8369,
      "ĠAlbert": 8370,
      "ĠSanta": 8371,
      "Ġtweeted": 8372,
      "Ġultimate": 8373,
      "EG": 8374,
      "rolled": 8375,
      "ĠInformation": 8376,
      "Ġoffices": 8377,
      "Ġgenetic": 8378,
      "ictions": 8379,
      "Ġanger": 8380,
      "lad": 8381,
      "Ġham": 8382,
      "Ġwider": 8383,
      "Ġenormous": 8384,
      "Ġcivilians": 8385,
      "Ġmining": 8386,
      "ommod": 8387,
      "elling": 8388,
      "Ġregulation": 8389,
      "Ġlobby": 8390,
      "Ġfault": 8391,
      "Ġ800": 8392,
      "ecut": 8393,
      "Ġexpanded": 8394,
      "Ġadmit": 8395,
      "Ġconspiracy": 8396,
      "ĠPhilipp": 8397,
      "Ġfro": 8398,
      "ĠBad": 8399,
      "ĠAdministration": 8400,
      "AF": 8401,
      "Ġawareness": 8402,
      "Ġheading": 8403,
      "ĠKings": 8404,
      "ecess": 8405,
      "Ġhypot": 8406,
      "Ġdispl": 8407,
      "ivals": 8408,
      "ĠWW": 8409,
      "phones": 8410,
      "ĠAnton": 8411,
      "Ġappoint": 8412,
      "Ġintervention": 8413,
      "PG": 8414,
      "Ġsuspected": 8415,
      "Ġhal": 8416,
      "ĠWhich": 8417,
      "unior": 8418,
      "Ġ101": 8419,
      "Ġentertainment": 8420,
      "Ġimprovement": 8421,
      "Ġassociation": 8422,
      "ĠTed": 8423,
      "ĠFamily": 8424,
      "Ġfoss": 8425,
      "ĠAPI": 8426,
      "Ġmothers": 8427,
      "Ġhandful": 8428,
      "Ġgear": 8429,
      "Ġtasks": 8430,
      "Ġinflation": 8431,
      "EP": 8432,
      "Ġeastern": 8433,
      "Ġvirtually": 8434,
      "ĠVegas": 8435,
      "Ġcitizen": 8436,
      "angel": 8437,
      "Ġinvestigators": 8438,
      "Ġraw": 8439,
      "ĠAnthony": 8440,
      "Ġnights": 8441,
      "Ġabsence": 8442,
      "Ġtone": 8443,
      "bro": 8444,
      "ihad": 8445,
      "Ġliquid": 8446,
      "Ġrook": 8447,
      "People": 8448,
      "ĠBuild": 8449,
      "BO": 8450,
      "Ġ56": 8451,
      "Ġextraord": 8452,
      "Ġpurchased": 8453,
      "Ġstake": 8454,
      "ĠDivision": 8455,
      "enny": 8456,
      "Ġopinions": 8457,
      "Ġattached": 8458,
      "ĠDO": 8459,
      "Ġremarks": 8460,
      "iences": 8461,
      "Ġpublication": 8462,
      "oval": 8463,
      "Ġbars": 8464,
      "Ġ99": 8465,
      "Ġactivist": 8466,
      "Ġestimate": 8467,
      "appy": 8468,
      "ĠWithout": 8469,
      "Ġregister": 8470,
      "Ġseemingly": 8471,
      "Ġexclud": 8472,
      "ĠAcc": 8473,
      "oft": 8474,
      "Ġrecall": 8475,
      "Ġsuspended": 8476,
      "Ġextend": 8477,
      "Ġinvestigating": 8478,
      "aven": 8479,
      "Ġlogic": 8480,
      "Ġdance": 8481,
      "Ġ1995": 8482,
      "ĠKenned": 8483,
      "ĠStat": 8484,
      "ĠRevolution": 8485,
      "Ġholiday": 8486,
      "Ġaffairs": 8487,
      "Ġviewed": 8488,
      "Ġrational": 8489,
      "ĠRa": 8490,
      "ĠHead": 8491,
      "Ġadvocates": 8492,
      "Ġneck": 8493,
      "ĠStadium": 8494,
      "Ġcoaches": 8495,
      "ĠFed": 8496,
      "Ġproviders": 8497,
      "Ġprofits": 8498,
      "Ġreferend": 8499,
      "Ġhumanity": 8500,
      "ĠSometimes": 8501,
      "Ġthrowing": 8502,
      "uits": 8503,
      "ĠOtt": 8504,
      "Ġtestim": 8505,
      "Because": 8506,
      "ĠConservative": 8507,
      "Ġanybody": 8508,
      "Ġdramatic": 8509,
      "Ġorigin": 8510,
      "Ġbacter": 8511,
      "Ġsalary": 8512,
      "icking": 8513,
      "Ġfulf": 8514,
      "ĠBaltimore": 8515,
      "pled": 8516,
      "Ġpetition": 8517,
      "ĠPit": 8518,
      "Ġcogn": 8519,
      "ĠNASA": 8520,
      "otype": 8521,
      "Ġshoulder": 8522,
      "Ġmarks": 8523,
      "Ġfallen": 8524,
      "pes": 8525,
      "ĠYeah": 8526,
      "ĠMassachusetts": 8527,
      "ĠRoss": 8528,
      "Ġloans": 8529,
      "ĠIII": 8530,
      "Ġaddressed": 8531,
      "itionally": 8532,
      "Ġforest": 8533,
      "Ġsugar": 8534,
      "Ġmedicine": 8535,
      "Ġpersonality": 8536,
      "ĠDeath": 8537,
      "Ġauthent": 8538,
      "ĠSaf": 8539,
      "Ġtries": 8540,
      "iverpool": 8541,
      "Script": 8542,
      "ĠMarvel": 8543,
      "Ġspiritual": 8544,
      "Ġ1994": 8545,
      "aret": 8546,
      "Ġmaps": 8547,
      "ammed": 8548,
      "Ġmonitor": 8549,
      "Ġbuff": 8550,
      "ĠPennsylvania": 8551,
      "President": 8552,
      "Ġamid": 8553,
      "Ġreads": 8554,
      "icity": 8555,
      "log": 8556,
      "anna": 8557,
      "ĠTro": 8558,
      "mary": 8559,
      "Ġprincip": 8560,
      "iability": 8561,
      "Ġguest": 8562,
      "rets": 8563,
      "aval": 8564,
      "Ġstayed": 8565,
      "orneys": 8566,
      "Ġcareful": 8567,
      "Ref": 8568,
      "Ġlowest": 8569,
      "Ġtheyd": 8570,
      "Ġ120": 8571,
      "Ġattitude": 8572,
      "wered": 8573,
      "lah": 8574,
      "Ġspoken": 8575,
      "Ġpreced": 8576,
      "Ġinvolves": 8577,
      "eters": 8578,
      "ĠMuseum": 8579,
      "Ġpassengers": 8580,
      "TR": 8581,
      "Ġdepends": 8582,
      "Ġfantastic": 8583,
      "prene": 8584,
      "ĠPot": 8585,
      "Ġconsistently": 8586,
      "arms": 8587,
      "Back": 8588,
      "xit": 8589,
      "zed": 8590,
      "Ġclosing": 8591,
      "Ġprev": 8592,
      "Ġgrounds": 8593,
      "Ġwrest": 8594,
      "Ġinner": 8595,
      "Ġnoting": 8596,
      "Ġcolors": 8597,
      "Ġchapter": 8598,
      "ĠLas": 8599,
      "Ġcovers": 8600,
      "reprene": 8601,
      "Ġgains": 8602,
      "ĠBroad": 8603,
      "Ġmad": 8604,
      "Ġwaters": 8605,
      "Ġmountain": 8606,
      "Ġaccommod": 8607,
      "ĠFreedom": 8608,
      "ĠChair": 8609,
      "Ġ57": 8610,
      "Ġinnovation": 8611,
      "Ġappreciate": 8612,
      "AY": 8613,
      "making": 8614,
      "ĠCre": 8615,
      "ĠList": 8616,
      "ĠIndeed": 8617,
      "ĠEnvironment": 8618,
      "ĠIllinois": 8619,
      "ĠShare": 8620,
      "Ġresource": 8621,
      "ricts": 8622,
      "Ġfruit": 8623,
      "Ġdivided": 8624,
      "ouch": 8625,
      "Ġrear": 8626,
      "Ġlucky": 8627,
      "ĠVancou": 8628,
      "world": 8629,
      "Ġspeaks": 8630,
      "front": 8631,
      "Ġinquir": 8632,
      "cling": 8633,
      "ĠIranian": 8634,
      "Ġshout": 8635,
      "Ġencouraged": 8636,
      "ĠDisc": 8637,
      "ĠClevel": 8638,
      "Ġjury": 8639,
      "Ġ!": 8640,
      "Ġrom": 8641,
      "Ġmusical": 8642,
      "flix": 8643,
      "Ġdepression": 8644,
      "Ġinteract": 8645,
      "ami": 8646,
      "acon": 8647,
      "Ġmos": 8648,
      "ĠCost": 8649,
      "ĠRoy": 8650,
      "spe": 8651,
      "umin": 8652,
      "ĠGaza": 8653,
      "Related": 8654,
      "Ġportray": 8655,
      "Ġtransportation": 8656,
      "Ġbug": 8657,
      "Ġclothes": 8658,
      "Ġabst": 8659,
      "Ġhanded": 8660,
      "Ġguarantee": 8661,
      "ĠScient": 8662,
      "ĠUC": 8663,
      "Ġdrew": 8664,
      "Ġparalle": 8665,
      "ĠPop": 8666,
      "Ġswim": 8667,
      "ĠBang": 8668,
      "ho": 8669,
      "Ġkm": 8670,
      "Ġdisrupt": 8671,
      "Ġchecks": 8672,
      "ĠLy": 8673,
      "Ġconversations": 8674,
      "owned": 8675,
      "Ġswing": 8676,
      "ĠiP": 8677,
      "Ġunions": 8678,
      "ĠAustin": 8679,
      "ĠCC": 8680,
      "Ġcontributions": 8681,
      "Ġefficiency": 8682,
      "ĠIntelligence": 8683,
      "amac": 8684,
      "Ġprotecting": 8685,
      "Ġyellow": 8686,
      "worth": 8687,
      "ports": 8688,
      "Ġincidents": 8689,
      "Ġcomedy": 8690,
      "ĠRen": 8691,
      "ĠHospital": 8692,
      "ĠDub": 8693,
      "uction": 8694,
      "Ġlocked": 8695,
      "Ġ700": 8696,
      "Ġhandling": 8697,
      "Ġrhet": 8698,
      "Ġgig": 8699,
      "uted": 8700,
      "ective": 8701,
      "Ġobser": 8702,
      "ĠRon": 8703,
      "ĠAllen": 8704,
      "Ġmissile": 8705,
      "agg": 8706,
      "Ġranks": 8707,
      "Ġordinary": 8708,
      "ĠProv": 8709,
      "Ġjoke": 8710,
      "ĠEngine": 8711,
      "unicip": 8712,
      "Ġdistributed": 8713,
      "Ġinstrument": 8714,
      "Ġnaturally": 8715,
      "ĠLewis": 8716,
      "Ġvoter": 8717,
      "Ġporn": 8718,
      "ĠBudd": 8719,
      "Ġphotograp": 8720,
      "Ġgal": 8721,
      "ĠiOS": 8722,
      "Ġhorror": 8723,
      "Ġtemperatures": 8724,
      "Ġcovering": 8725,
      "Ġprotocol": 8726,
      "Ġscope": 8727,
      "ĠAdv": 8728,
      "About": 8729,
      "Ġdump": 8730,
      "ĠPo": 8731,
      "Those": 8732,
      "Ġmistakes": 8733,
      "Ġrevel": 8734,
      "annel": 8735,
      "ester": 8736,
      "Ġimproving": 8737,
      "Ġblast": 8738,
      "Ġpromises": 8739,
      "rine": 8740,
      "Ġresponses": 8741,
      "Ġscan": 8742,
      "Ġclim": 8743,
      "Ġmonitoring": 8744,
      "HT": 8745,
      "ĠBuff": 8746,
      "ĠAud": 8747,
      "ĠArabia": 8748,
      "Ġplain": 8749,
      "ĠHind": 8750,
      "Ġinsist": 8751,
      "erted": 8752,
      "Ġfalls": 8753,
      "month": 8754,
      "ĠStone": 8755,
      "ĠUse": 8756,
      "ĠKey": 8757,
      "ĠColumbia": 8758,
      "mad": 8759,
      "Ġcompe": 8760,
      "abeth": 8761,
      "Ġcust": 8762,
      "Ġcommonly": 8763,
      "ĠNOT": 8764,
      "Ġcooperation": 8765,
      "Ġlineup": 8766,
      "News": 8767,
      "otyp": 8768,
      "cific": 8769,
      "Ġlying": 8770,
      "Ġacknowledged": 8771,
      "Ġthrew": 8772,
      "Ġastron": 8773,
      "Ġbrown": 8774,
      "ogs": 8775,
      "ĠOrig": 8776,
      "hot": 8777,
      "heim": 8778,
      "Ġcenters": 8779,
      "FF": 8780,
      "Ġceleb": 8781,
      "Ġvirus": 8782,
      "Ġbreaks": 8783,
      "Ġhorse": 8784,
      "ĠAst": 8785,
      "Ġpremium": 8786,
      "ĠFootball": 8787,
      "Ġliterature": 8788,
      "ĠLow": 8789,
      "ĠHave": 8790,
      "Ġreplacement": 8791,
      "Ġsubsequent": 8792,
      "Ġlegacy": 8793,
      "Ġexit": 8794,
      "Ġ62": 8795,
      "Ġsetup": 8796,
      "ĠJam": 8797,
      "Ġdrama": 8798,
      "Ġballot": 8799,
      "Ġgrav": 8800,
      "Ġacquired": 8801,
      "Ġreferendum": 8802,
      "Ġ2020": 8803,
      "Ġsty": 8804,
      "ĠMcCain": 8805,
      "Ġje": 8806,
      "geon": 8807,
      "power": 8808,
      "rison": 8809,
      "aping": 8810,
      "ĠMexican": 8811,
      "Ġsoil": 8812,
      "claim": 8813,
      "ĠConnect": 8814,
      "dy": 8815,
      "Ġskept": 8816,
      "Ġhomeless": 8817,
      "ospitals": 8818,
      "Ġdemonstrated": 8819,
      "ĠNSA": 8820,
      "ĠBa": 8821,
      "Ġconsole": 8822,
      "Ġdust": 8823,
      "backs": 8824,
      "ĠGuardian": 8825,
      "ĠCS": 8826,
      "rient": 8827,
      "Ġracism": 8828,
      "ĠLyn": 8829,
      "Ġpron": 8830,
      "Ġspokesperson": 8831,
      "ials": 8832,
      "ĠStart": 8833,
      "oys": 8834,
      "ĠMarsh": 8835,
      "Ġnomination": 8836,
      "ĠDream": 8837,
      "ieties": 8838,
      "Ġabandoned": 8839,
      "Ġstriking": 8840,
      "ĠPatrick": 8841,
      "ixed": 8842,
      "Ġhelpful": 8843,
      "ĠNintend": 8844,
      "Ġincl": 8845,
      "ĠHop": 8846,
      "00006440000000000000000000015": 8847,
      "ĠAbb": 8848,
      "Ġboat": 8849,
      "ĠSon": 8850,
      "Ġdiverse": 8851,
      "ĠNS": 8852,
      "ĠNev": 8853,
      "Ġrender": 8854,
      "game": 8855,
      "itage": 8856,
      "Ġsilver": 8857,
      "Ġtrigger": 8858,
      "ounce": 8859,
      "Ġacid": 8860,
      "icket": 8861,
      "Ġratio": 8862,
      "Ġsymp": 8863,
      "Ġcounts": 8864,
      "ĠCapt": 8865,
      "Ġservers": 8866,
      "ĠPlus": 8867,
      "Ġpolitically": 8868,
      "omes": 8869,
      "Ġstages": 8870,
      "Ġmathem": 8871,
      "Ġstolen": 8872,
      "arring": 8873,
      "Ġtransactions": 8874,
      "Ġtie": 8875,
      "Ġstudied": 8876,
      "ĠPict": 8877,
      "Under": 8878,
      "Ġmarch": 8879,
      "Ġprosecutors": 8880,
      "Ġequality": 8881,
      "Oh": 8882,
      "Ġrepresenting": 8883,
      "Ġassert": 8884,
      "isk": 8885,
      "ĠWas": 8886,
      "Ġfing": 8887,
      "Ġpartnership": 8888,
      "Ġprisoners": 8889,
      "ĠDet": 8890,
      "hour": 8891,
      "Ġcapabilities": 8892,
      "EST": 8893,
      "ĠBron": 8894,
      "VE": 8895,
      "Both": 8896,
      "Mc": 8897,
      "Ġmeasured": 8898,
      "Ġsteel": 8899,
      "ĠHarris": 8900,
      "Cs": 8901,
      "pload": 8902,
      "ĠRoberts": 8903,
      "Ġignored": 8904,
      "Ġtrave": 8905,
      "ĠHoward": 8906,
      "Ġchannels": 8907,
      "Ġclock": 8908,
      "Ġperforming": 8909,
      "ported": 8910,
      "ĠAI": 8911,
      "Ġstone": 8912,
      "ĠPass": 8913,
      "Ġcance": 8914,
      "ĠFall": 8915,
      "Ġsupplies": 8916,
      "Ġmidfield": 8917,
      "ĠWomen": 8918,
      "Ġcriticized": 8919,
      "Ġtomorrow": 8920,
      "Ġabroad": 8921,
      "ython": 8922,
      "Ġcopies": 8923,
      "ĠControl": 8924,
      "then": 8925,
      "Ġprotein": 8926,
      "ĠForm": 8927,
      "ultural": 8928,
      "core": 8929,
      "Ġfunded": 8930,
      "ĠHa": 8931,
      "Ed": 8932,
      "Ġhyper": 8933,
      "ĠEag": 8934,
      "Ġinsisted": 8935,
      "ctic": 8936,
      "Ġassessment": 8937,
      "ropri": 8938,
      "ĠPrince": 8939,
      "Ġtracking": 8940,
      "Whats": 8941,
      "ĠUr": 8942,
      "Che": 8943,
      "ĠCorpor": 8944,
      "Ġ85": 8945,
      "ĠHo": 8946,
      "Ġtea": 8947,
      "ĠSamsung": 8948,
      "Ġaccomplish": 8949,
      "enez": 8950,
      "Ġreplied": 8951,
      "Ġrescue": 8952,
      "Ġdeficit": 8953,
      "itter": 8954,
      "ĠFront": 8955,
      "Ġinequ": 8956,
      "Today": 8957,
      "erg": 8958,
      "Ġconcrete": 8959,
      "zy": 8960,
      "ĠYOU": 8961,
      "comes": 8962,
      "Dav": 8963,
      "Ġreader": 8964,
      "Ġheadquarters": 8965,
      "Ġartific": 8966,
      "Ġhung": 8967,
      "Ġunpre": 8968,
      "Ġabsor": 8969,
      "Ġguitar": 8970,
      "Ġbread": 8971,
      "Ġshopping": 8972,
      "Ġarrive": 8973,
      "hesis": 8974,
      "ila": 8975,
      "Ġramp": 8976,
      "Ġmechanism": 8977,
      "Ġappointed": 8978,
      "ĠNorm": 8979,
      "Ġhoped": 8980,
      "ĠWalker": 8981,
      "Ġusage": 8982,
      "mony": 8983,
      "Ġtape": 8984,
      "ĠProp": 8985,
      "Ġreliable": 8986,
      "ĠCA": 8987,
      "ĠSet": 8988,
      "Ġletting": 8989,
      "Ġgenerations": 8990,
      "Ġtowns": 8991,
      "atre": 8992,
      "NA": 8993,
      "800": 8994,
      "argo": 8995,
      "ught": 8996,
      "ntil": 8997,
      "Ġveterans": 8998,
      "Ġupgrade": 8999,
      "ĠIC": 9000,
      "ĠLA": 9001,
      "Ġlean": 9002,
      "ĠAnderson": 9003,
      "akh": 9004,
      "RI": 9005,
      "ĠCommon": 9006,
      "wr": 9007,
      "encing": 9008,
      "iece": 9009,
      "ĠMoon": 9010,
      "Ġconventional": 9011,
      "Ġbreath": 9012,
      "ĠAk": 9013,
      "iate": 9014,
      "ĠHon": 9015,
      "Ġbeauty": 9016,
      "Ġintroduction": 9017,
      "Ġwarn": 9018,
      "Ġconservatives": 9019,
      "ml": 9020,
      "Ġuniversities": 9021,
      "ĠCleveland": 9022,
      "Ġsalt": 9023,
      "Ġentitled": 9024,
      "Ġrestaurants": 9025,
      "Ġpopulations": 9026,
      "Ġmole": 9027,
      "Ġdomain": 9028,
      "Ġmans": 9029,
      "ordon": 9030,
      "ĠMach": 9031,
      "Ġgrid": 9032,
      "ints": 9033,
      "ĠDave": 9034,
      "Ġpresidency": 9035,
      "ĠJerusal": 9036,
      "inction": 9037,
      "star": 9038,
      "Ġproposals": 9039,
      "ĠPortland": 9040,
      "ĠCameron": 9041,
      "ĠEmail": 9042,
      "Ġdistract": 9043,
      "ĠGetty": 9044,
      "Ġax": 9045,
      "assador": 9046,
      "ĠTrib": 9047,
      "ĠCow": 9048,
      "erts": 9049,
      "ĠMaster": 9050,
      "Ġbow": 9051,
      "ĠAward": 9052,
      "ĠIraqi": 9053,
      "ested": 9054,
      "Ġkeys": 9055,
      "irts": 9056,
      "Ġclar": 9057,
      "Ġbrilliant": 9058,
      "Ġblocked": 9059,
      "Ġuniversal": 9060,
      "ĠKong": 9061,
      "Ġurged": 9062,
      "ds": 9063,
      "ĠObamac": 9064,
      "Ġcompare": 9065,
      "Ġdrove": 9066,
      "vard": 9067,
      "Ġrepresentatives": 9068,
      "Ġsurvival": 9069,
      "Ġreceiver": 9070,
      "ĠOlympic": 9071,
      "olph": 9072,
      "iac": 9073,
      "Ġtargeting": 9074,
      "600": 9075,
      "maker": 9076,
      "Ġlandscape": 9077,
      "Ġpig": 9078,
      "Ġdismissed": 9079,
      "ĠJustin": 9080,
      "Ġcongressional": 9081,
      "Ġpatch": 9082,
      "Ġclassified": 9083,
      "dated": 9084,
      "ĠGreece": 9085,
      "ĠHur": 9086,
      "ĠNATO": 9087,
      "Sen": 9088,
      "oints": 9089,
      "ĠEmpire": 9090,
      "Ass": 9091,
      "ĠLam": 9092,
      "Ġshadow": 9093,
      "ĠGun": 9094,
      "ĠVancouver": 9095,
      "aware": 9096,
      "Ġjoy": 9097,
      "iler": 9098,
      "Ġ1992": 9099,
      "theless": 9100,
      "senal": 9101,
      "Ġpursue": 9102,
      "itary": 9103,
      "Ġpropaganda": 9104,
      "Ġvisiting": 9105,
      "Ġforcing": 9106,
      "eh": 9107,
      "Ġdeny": 9108,
      "acket": 9109,
      "uests": 9110,
      "Ġokay": 9111,
      "Ġdates": 9112,
      "ĠCooper": 9113,
      "ultane": 9114,
      "Ġdocumentary": 9115,
      "Ġspokeswoman": 9116,
      "ĠAge": 9117,
      "Ġtactics": 9118,
      "Ġgent": 9119,
      "Ġshame": 9120,
      "plate": 9121,
      "ĠMain": 9122,
      "ĠLiverpool": 9123,
      "Ġphrase": 9124,
      "Ġassign": 9125,
      "Ġexperiments": 9126,
      "Ġappearances": 9127,
      "ĠCode": 9128,
      "Ġfool": 9129,
      "Ġdiscour": 9130,
      "ĠTechnology": 9131,
      "Ġreverse": 9132,
      "Ġactively": 9133,
      "Ġ01": 9134,
      "Ġemployed": 9135,
      "Ġprogramme": 9136,
      "Ġintroduce": 9137,
      "ĠAssociated": 9138,
      "Ġ58": 9139,
      "aria": 9140,
      "ĠKennedy": 9141,
      "ĠBridge": 9142,
      "Ġwhenever": 9143,
      "Ġfiring": 9144,
      "Ġrocket": 9145,
      "ĠBible": 9146,
      "ĠChel": 9147,
      "Ds": 9148,
      "Ġpredicted": 9149,
      "Ġalarm": 9150,
      "Ġves": 9151,
      "Ġproducers": 9152,
      "Ġmac": 9153,
      "ecutive": 9154,
      "name": 9155,
      "Ġinnocent": 9156,
      "Ġdemanding": 9157,
      "ĠUtah": 9158,
      "abet": 9159,
      "Ġprepar": 9160,
      "ubble": 9161,
      "Ġthorough": 9162,
      "Ġobjective": 9163,
      "ĠAmong": 9164,
      "ĠBerlin": 9165,
      "post": 9166,
      "Ġsaving": 9167,
      "Ġthreatening": 9168,
      "ĠBeij": 9169,
      "Ġlegislative": 9170,
      "ĠLeft": 9171,
      "ounding": 9172,
      "change": 9173,
      "Ġrif": 9174,
      "Ġmath": 9175,
      "Ġcelebrate": 9176,
      "cend": 9177,
      "Ġtwenty": 9178,
      "ĠHold": 9179,
      "Ġ63": 9180,
      "izabeth": 9181,
      "Ġrooms": 9182,
      "Ġsmile": 9183,
      "rah": 9184,
      "ĠDV": 9185,
      "EX": 9186,
      "iamond": 9187,
      "Ġmembership": 9188,
      "oenix": 9189,
      "Ġfestival": 9190,
      "Ġbirds": 9191,
      "Id": 9192,
      "rooms": 9193,
      "Ġsequence": 9194,
      "orous": 9195,
      "Ġsecondary": 9196,
      "Ġsons": 9197,
      "ennis": 9198,
      "Ġcontrad": 9199,
      "Ġfocusing": 9200,
      "Ġsevent": 9201,
      "Ġpopularity": 9202,
      "Ġsubscrib": 9203,
      "imm": 9204,
      "oj": 9205,
      "uh": 9206,
      "ĠEdward": 9207,
      "Ġflags": 9208,
      "ĠWarren": 9209,
      "Ġaer": 9210,
      "ĠAtlantic": 9211,
      "Ġ1000": 9212,
      "Ġtransit": 9213,
      "ĠDesign": 9214,
      "Will": 9215,
      "ĠBureau": 9216,
      "olves": 9217,
      "oice": 9218,
      "Ġsettled": 9219,
      "Ġdeadly": 9220,
      "Ġrequested": 9221,
      "esty": 9222,
      "Ġpreparing": 9223,
      "Ġnin": 9224,
      "Ġsoccer": 9225,
      "page": 9226,
      "lahoma": 9227,
      "roduction": 9228,
      "Ġunexpected": 9229,
      "keep": 9230,
      "ika": 9231,
      "yer": 9232,
      "Ġquote": 9233,
      "ĠVill": 9234,
      "Ġchildhood": 9235,
      "Ġviolation": 9236,
      "Ġdisturb": 9237,
      "ĠSyd": 9238,
      "Ġdesigns": 9239,
      "Ġcouples": 9240,
      "Ġoutrage": 9241,
      "FA": 9242,
      "rogen": 9243,
      "ĠTour": 9244,
      "shire": 9245,
      "zing": 9246,
      "Ġsuspects": 9247,
      "Ġlanding": 9248,
      "Ġapproached": 9249,
      "Ġconsensus": 9250,
      "ĠNetflix": 9251,
[...]
